{"version":"1.0","truncation":null,"padding":null,"added_tokens":[{"id":0,"content":"[UNK]","single_word":false,"lstrip":false,"rstrip":false,"normalized":false,"special":true},{"id":1,"content":"[CLS]","single_word":false,"lstrip":false,"rstrip":false,"normalized":false,"special":true},{"id":2,"content":"[SEP]","single_word":false,"lstrip":false,"rstrip":false,"normalized":false,"special":true},{"id":3,"content":"[PAD]","single_word":false,"lstrip":false,"rstrip":false,"normalized":false,"special":true},{"id":4,"content":"[MASK]","single_word":false,"lstrip":false,"rstrip":false,"normalized":false,"special":true}],"normalizer":null,"pre_tokenizer":{"type":"Whitespace"},"post_processor":null,"decoder":null,"model":{"type":"BPE","dropout":null,"unk_token":null,"continuing_subword_prefix":null,"end_of_word_suffix":null,"fuse_unk":false,"byte_fallback":false,"vocab":{"[UNK]":0,"[CLS]":1,"[SEP]":2,"[PAD]":3,"[MASK]":4,"!":5,"&":6,"'":7,",":8,"-":9,".":10,"/":11,"0":12,"1":13,"2":14,"3":15,"4":16,"5":17,"6":18,"7":19,"8":20,"9":21,"A":22,"B":23,"C":24,"D":25,"E":26,"F":27,"G":28,"H":29,"I":30,"J":31,"K":32,"L":33,"M":34,"N":35,"O":36,"P":37,"Q":38,"R":39,"S":40,"T":41,"U":42,"V":43,"W":44,"X":45,"Y":46,"Z":47,"[":48,"]":49,"_":50,"a":51,"b":52,"c":53,"d":54,"e":55,"f":56,"g":57,"h":58,"i":59,"j":60,"k":61,"l":62,"m":63,"n":64,"o":65,"p":66,"q":67,"r":68,"s":69,"t":70,"u":71,"v":72,"w":73,"x":74,"y":75,"z":76,"er":77,"in":78,"on":79,"es":80,"an":81,"at":82,"en":83,"al":84,"ed":85,"is":86,"ic":87,"ar":88,"or":89,"ing":90,"un":91,"it":92,"el":93,"ro":94,"re":95,"st":96,"le":97,"ch":98,"us":99,"il":100,"ra":101,"ol":102,"et":103,"ph":104,"ess":105,"om":106,"id":107,"ly":108,"ion":109,"ac":110,"ul":111,"th":112,"as":113,"ur":114,"ab":115,"ent":116,"em":117,"os":118,"am":119,"ot":120,"ad":121,"ous":122,"ut":123,"og":124,"um":125,"ist":126,"ri":127,"ec":128,"op":129,"ter":130,"iv":131,"im":132,"ag":133,"iz":134,"oc":135,"od":136,"per":137,"ation":138,"ig":139,"ver":140,"non":141,"ap":142,"ant":143,"qu":144,"ia":145,"ir":146,"su":147,"sh":148,"ness":149,"lo":150,"ical":151,"ate":152,"if":153,"ip":154,"con":155,"est":156,"co":157,"ell":158,"and":159,"sp":160,"pro":161,"ex":162,"ep":163,"ian":164,"ism":165,"ers":166,"und":167,"ast":168,"ine":169,"able":170,"pre":171,"ish":172,"hy":173,"ud":174,"over":175,"ib":176,"pl":177,"ill":178,"ies":179,"se":180,"ity":181,"uc":182,"ae":183,"ke":184,"he":185,"ob":186,"all":187,"ite":188,"tr":189,"ard":190,"sc":191,"ow":192,"ial":193,"de":194,"pr":195,"ce":196,"ect":197,"ay":198,"ne":199,"av":200,"man":201,"for":202,"ak":203,"ff":204,"end":205,"yl":206,"cl":207,"ive":208,"oph":209,"ug":210,"bl":211,"ost":212,"com":213,"ry":214,"ated":215,"ind":216,"ang":217,"bo":218,"sub":219,"olog":220,"eness":221,"dis":222,"be":223,"te":224,"up":225,"ie":226,"fl":227,"ath":228,"out":229,"ted":230,"par":231,"ically":232,"ub":233,"ize":234,"tra":235,"ct":236,"ack":237,"wor":238,"li":239,"ass":240,"ta":241,"ick":242,"ht":243,"cy":244,"ator":245,"mon":246,"inter":247,"to":248,"ful":249,"ely":250,"ens":251,"ier":252,"sy":253,"mis":254,"sel":255,"ide":256,"ach":257,"we":258,"ok":259,"ment":260,"ious":261,"ust":262,"raph":263,"ating":264,"aw":265,"ace":266,"ron":267,"ary":268,"int":269,"mo":270,"ge":271,"res":272,"ber":273,"one":274,"ran":275,"ric":276,"low":277,"cor":278,"mat":279,"ho":280,"gl":281,"act":282,"red":283,"sem":284,"art":285,"ah":286,"super":287,"rop":288,"met":289,"ock":290,"ort":291,"so":292,"ys":293,"self":294,"ith":295,"ins":296,"eg":297,"ingly":298,"ium":299,"wh":300,"col":301,"car":302,"ure":303,"less":304,"oid":305,"ev":306,"ility":307,"under":308,"wo":309,"well":310,"pol":311,"di":312,"ille":313,"po":314,"ally":315,"ograph":316,"pe":317,"sl":318,"der":319,"fo":320,"pt":321,"ise":322,"ized":323,"iness":324,"ha":325,"ton":326,"ular":327,"eter":328,"idae":329,"ans":330,"age":331,"rom":332,"gra":333,"ther":334,"ight":335,"min":336,"ult":337,"row":338,"rat":339,"bar":340,"ey":341,"ov":342,"like":343,"of":344,"ty":345,"her":346,"ma":347,"ice":348,"ros":349,"mer":350,"let":351,"br":352,"ret":353,"ship":354,"me":355,"ization":356,"ox":357,"sk":358,"mic":359,"my":360,"ence":361,"ger":362,"abl":363,"bur":364,"ose":365,"tri":366,"gu":367,"arch":368,"bra":369,"az":370,"ative":371,"yn":372,"hal":373,"ped":374,"cop":375,"ann":376,"ling":377,"ene":378,"mar":379,"ville":380,"fer":381,"the":382,"ou":383,"cer":384,"ied":385,"ich":386,"au":387,"orn":388,"fe":389,"tw":390,"dec":391,"asi":392,"izing":393,"ser":394,"head":395,"orm":396,"ple":397,"led":398,"ve":399,"ash":400,"str":401,"ax":402,"ting":403,"unc":404,"aut":405,"uns":406,"ale":407,"Ch":408,"old":409,"ile":410,"ung":411,"med":412,"An":413,"ively":414,"ree":415,"men":416,"ore":417,"ogen":418,"ily":419,"iest":420,"ign":421,"ker":422,"ater":423,"own":424,"ong":425,"coun":426,"ability":427,"af":428,"cal":429,"ept":430,"omy":431,"istic":432,"do":433,"anth":434,"inc":435,"rig":436,"quasi":437,"ire":438,"ates":439,"ram":440,"hyd":441,"gr":442,"ably":443,"ik":444,"post":445,"sn":446,"gen":447,"ain":448,"ink":449,"ont":450,"och":451,"ond":452,"inn":453,"ane":454,"seud":455,"py":456,"rit":457,"pos":458,"ble":459,"ings":460,"ym":461,"rec":462,"oth":463,"sw":464,"our":465,"ations":466,"ster":467,"son":468,"edness":469,"igh":470,"ler":471,"ableness":472,"ome":473,"ology":474,"mal":475,"osis":476,"etic":477,"cent":478,"por":479,"des":480,"ush":481,"bed":482,"hem":483,"back":484,"rel":485,"are":486,"tur":487,"go":488,"anc":489,"ance":490,"ities":491,"che":492,"air":493,"ific":494,"aph":495,"rol":496,"att":497,"pseud":498,"ue":499,"cur":500,"ren":501,"ised":502,"unt":503,"ven":504,"ugh":505,"sal":506,"hyper":507,"uck":508,"bro":509,"bre":510,"phal":511,"pal":512,"tic":513,"aff":514,"counter":515,"ement":516,"io":517,"roph":518,"wood":519,"eth":520,"enn":521,"pet":522,"ix":523,"zo":524,"ors":525,"iform":526,"ck":527,"Al":528,"uct":529,"dem":530,"ition":531,"ously":532,"itis":533,"pan":534,"poly":535,"iveness":536,"lor":537,"enc":538,"ft":539,"ered":540,"hand":541,"sol":542,"kn":543,"orph":544,"amb":545,"cat":546,"lin":547,"ged":548,"ele":549,"pres":550,"ify":551,"omet":552,"ible":553,"cont":554,"land":555,"cul":556,"fish":557,"rot":558,"can":559,"ru":560,"que":561,"ear":562,"but":563,"iss":564,"atory":565,"ists":566,"reg":567,"ank":568,"ari":569,"sm":570,"ual":571,"oman":572,"ising":573,"bor":574,"ull":575,"cap":576,"ail":577,"rh":578,"ase":579,"erous":580,"ca":581,"off":582,"work":583,"ons":584,"itt":585,"rag":586,"oss":587,"ery":588,"leg":589,"eli":590,"sch":591,"edly":592,"ina":593,"atic":594,"ste":595,"har":596,"aceae":597,"den":598,"bi":599,"les":600,"ring":601,"rep":602,"acc":603,"inf":604,"aceous":605,"ict":606,"itic":607,"syn":608,"half":609,"sul":610,"ory":611,"val":612,"ars":613,"ions":614,"bal":615,"ord":616,"vol":617,"eld":618,"by":619,"trans":620,"ward":621,"unf":622,"ole":623,"la":624,"ousness":625,"Ar":626,"last":627,"form":628,"vent":629,"ines":630,"ias":631,"ional":632,"pat":633,"unn":634,"elect":635,"cra":636,"ient":637,"eck":638,"ott":639,"char":640,"ref":641,"pa":642,"comm":643,"ping":644,"onic":645,"ere":646,"pred":647,"pri":648,"uff":649,"ral":650,"phot":651,"squ":652,"hom":653,"pur":654,"ee":655,"rid":656,"uth":657,"eless":658,"war":659,"ett":660,"dep":661,"ern":662,"hum":663,"ational":664,"anti":665,"dom":666,"tim":667,"ps":668,"press":669,"mes":670,"mel":671,"ura":672,"dra":673,"agn":674,"rum":675,"uch":676,"mak":677,"ined":678,"mult":679,"gar":680,"ics":681,"add":682,"aur":683,"pra":684,"vis":685,"vel":686,"oy":687,"way":688,"rog":689,"yll":690,"bel":691,"rest":692,"ird":693,"proof":694,"stra":695,"ze":696,"port":697,"ress":698,"oh":699,"top":700,"vi":701,"uss":702,"del":703,"ade":704,"arian":705,"omat":706,"she":707,"hol":708,"ten":709,"iously":710,"foot":711,"ological":712,"vers":713,"pen":714,"iff":715,"bon":716,"ocy":717,"uro":718,"pi":719,"inal":720,"phy":721,"sur":722,"itch":723,"twice":724,"cle":725,"cir":726,"alk":727,"hous":728,"hyp":729,"iousness":730,"dy":731,"ency":732,"uk":733,"equ":734,"mac":735,"rem":736,"ored":737,"micro":738,"fac":739,"no":740,"sil":741,"esis":742,"bit":743,"ometer":744,"oscop":745,"ext":746,"cut":747,"gre":748,"rin":749,"icul":750,"ross":751,"gy":752,"ner":753,"read":754,"chi":755,"tran":756,"amp":757,"clo":758,"oll":759,"cri":760,"ek":761,"atur":762,"hor":763,"aster":764,"cum":765,"org":766,"bes":767,"not":768,"ught":769,"iferous":770,"flu":771,"ye":772,"def":773,"ather":774,"wise":775,"ark":776,"pot":777,"eral":778,"orth":779,"ging":780,"eb":781,"sec":782,"aer":783,"ild":784,"oma":785,"emb":786,"ologist":787,"tail":788,"ld":789,"ley":790,"ially":791,"right":792,"ham":793,"ets":794,"yg":795,"ili":796,"phon":797,"sid":798,"spl":799,"ben":800,"conf":801,"cin":802,"lim":803,"you":804,"ently":805,"ts":806,"ters":807,"sych":808,"cre":809,"tet":810,"els":811,"burg":812,"ject":813,"hydro":814,"Pro":815,"als":816,"pin":817,"comp":818,"unk":819,"izes":820,"weed":821,"rist":822,"ana":823,"umb":824,"rown":825,"gro":826,"spir":827,"water":828,"mor":829,"ris":830,"flow":831,"eng":832,"dist":833,"ss":834,"lect":835,"Mar":836,"long":837,"na":838,"ette":839,"vit":840,"nesses":841,"Sh":842,"bu":843,"use":844,"ified":845,"ography":846,"ites":847,"antic":848,"world":849,"thy":850,"tro":851,"wind":852,"shap":853,"phen":854,"amin":855,"unch":856,"plic":857,"hear":858,"ert":859,"lar":860,"pul":861,"hood":862,"far":863,"div":864,"down":865,"mus":866,"ries":867,"otic":868,"zz":869,"arp":870,"phil":871,"ote":872,"gal":873,"scri":874,"ving":875,"exc":876,"atch":877,"uncon":878,"omorph":879,"prot":880,"mod":881,"ule":882,"ved":883,"fur":884,"ame":885,"enter":886,"ave":887,"ield":888,"mind":889,"unct":890,"oper":891,"ification":892,"fully":893,"St":894,"bol":895,"iter":896,"rous":897,"mid":898,"ited":899,"pers":900,"semi":901,"bas":902,"tel":903,"fore":904,"gon":905,"ata":906,"ball":907,"wing":908,"oty":909,"izer":910,"cross":911,"rect":912,"cos":913,"ella":914,"da":915,"ental":916,"blo":917,"hard":918,"exp":919,"tor":920,"prec":921,"imm":922,"occ":923,"ering":924,"dog":925,"log":926,"rac":927,"osph":928,"odont":929,"erg":930,"rod":931,"cry":932,"jo":933,"tar":934,"ingness":935,"thal":936,"other":937,"stone":938,"ula":939,"sym":940,"wa":941,"headed":942,"pic":943,"bird":944,"iac":945,"ibility":946,"sum":947,"cher":948,"radi":949,"oly":950,"eff":951,"ks":952,"tem":953,"unre":954,"du":955,"hip":956,"heter":957,"kin":958,"tal":959,"El":960,"fil":961,"sup":962,"ogn":963,"conc":964,"board":965,"ba":966,"miss":967,"atively":968,"bul":969,"band":970,"ural":971,"ened":972,"ew":973,"rad":974,"amph":975,"line":976,"sim":977,"asc":978,"psych":979,"bat":980,"quin":981,"isms":982,"dri":983,"pit":984,"ages":985,"mot":986,"ulate":987,"ishness":988,"imp":989,"mill":990,"ti":991,"Car":992,"ean":993,"shaped":994,"ately":995,"uses":996,"ides":997,"light":998,"aden":999,"ked":1000,"sing":1001,"high":1002,"ves":1003,"ony":1004,"ured":1005,"aud":1006,"ef":1007,"extra":1008,"Ph":1009,"sor":1010,"las":1011,"sa":1012,"anal":1013,"rif":1014,"bell":1015,"ute":1016,"ophy":1017,"iate":1018,"king":1019,"lat":1020,"oe":1021,"oz":1022,"ese":1023,"house":1024,"ded":1025,"obia":1026,"ying":1027,"mit":1028,"rup":1029,"chy":1030,"emat":1031,"don":1032,"rub":1033,"lex":1034,"black":1035,"hearted":1036,"rust":1037,"chlor":1038,"cock":1039,"isation":1040,"card":1041,"iph":1042,"ka":1043,"unp":1044,"rew":1045,"bow":1046,"lam":1047,"mil":1048,"fulness":1049,"ellow":1050,"look":1051,"lac":1052,"ators":1053,"bin":1054,"pent":1055,"rate":1056,"sac":1057,"book":1058,"ants":1059,"hed":1060,"ara":1061,"hel":1062,"dip":1063,"lip":1064,"aria":1065,"itor":1066,"ats":1067,"iser":1068,"dev":1069,"fra":1070,"ira":1071,"aring":1072,"acet":1073,"antly":1074,"wort":1075,"ranch":1076,"bet":1077,"arn":1078,"arth":1079,"In":1080,"lab":1081,"swe":1082,"tain":1083,"ops":1084,"quad":1085,"key":1086,"white":1087,"organ":1088,"ban":1089,"bec":1090,"arc":1091,"ital":1092,"glo":1093,"ms":1094,"thor":1095,"Le":1096,"tre":1097,"ophil":1098,"umin":1099,"full":1100,"ike":1101,"mut":1102,"isc":1103,"thes":1104,"tin":1105,"wit":1106,"ister":1107,"cour":1108,"cro":1109,"ius":1110,"ident":1111,"urn":1112,"ophor":1113,"omer":1114,"sulph":1115,"pass":1116,"arg":1117,"aved":1118,"aking":1119,"van":1120,"cond":1121,"bill":1122,"ios":1123,"loc":1124,"sin":1125,"unst":1126,"uble":1127,"oxy":1128,"whe":1129,"ibl":1130,"bod":1131,"jud":1132,"opod":1133,"electro":1134,"rap":1135,"three":1136,"ester":1137,"rim":1138,"ologic":1139,"emia":1140,"aker":1141,"just":1142,"inv":1143,"ishly":1144,"agg":1145,"istically":1146,"elike":1147,"fire":1148,"gn":1149,"ired":1150,"plan":1151,"rock":1152,"chn":1153,"apt":1154,"two":1155,"ancy":1156,"app":1157,"ender":1158,"ifying":1159,"hex":1160,"tub":1161,"ids":1162,"eyed":1163,"circum":1164,"vir":1165,"ched":1166,"otrop":1167,"ude":1168,"part":1169,"faced":1170,"aries":1171,"cho":1172,"ras":1173,"esc":1174,"opter":1175,"serv":1176,"bing":1177,"yr":1178,"ai":1179,"orr":1180,"resp":1181,"matic":1182,"day":1183,"enic":1184,"neum":1185,"box":1186,"aryn":1187,"anthrop":1188,"yeah":1189,"prov":1190,"cam":1191,"gam":1192,"chem":1193,"astic":1194,"Am":1195,"iod":1196,"tric":1197,"Ne":1198,"bac":1199,"det":1200,"fa":1201,"ming":1202,"elled":1203,"ographic":1204,"gast":1205,"atter":1206,"ening":1207,"Th":1208,"ises":1209,"ola":1210,"ump":1211,"vert":1212,"fact":1213,"ality":1214,"unw":1215,"idd":1216,"idi":1217,"ution":1218,"ogram":1219,"ophag":1220,"ysis":1221,"atin":1222,"berry":1223,"ison":1224,"its":1225,"sho":1226,"icalness":1227,"elling":1228,"spec":1229,"rough":1230,"imper":1231,"ians":1232,"inst":1233,"ena":1234,"otomy":1235,"pod":1236,"cha":1237,"contra":1238,"maker":1239,"fol":1240,"get":1241,"ky":1242,"rev":1243,"oplast":1244,"prod":1245,"ments":1246,"set":1247,"elle":1248,"spect":1249,"ga":1250,"mist":1251,"eled":1252,"emon":1253,"udd":1254,"eric":1255,"eu":1256,"fin":1257,"hab":1258,"iet":1259,"liv":1260,"lif":1261,"root":1262,"oste":1263,"word":1264,"blood":1265,"pel":1266,"sen":1267,"omn":1268,"aged":1269,"oct":1270,"ake":1271,"cot":1272,"put":1273,"pop":1274,"ioned":1275,"ums":1276,"mouth":1277,"Mc":1278,"field":1279,"pil":1280,"woman":1281,"arter":1282,"eman":1283,"play":1284,"jack":1285,"omb":1286,"dam":1287,"vic":1288,"iner":1289,"phys":1290,"ode":1291,"ibly":1292,"fir":1293,"lad":1294,"sle":1295,"idal":1296,"ament":1297,"hyl":1298,"bil":1299,"nos":1300,"path":1301,"ino":1302,"prof":1303,"after":1304,"cr":1305,"free":1306,"lit":1307,"ool":1308,"making":1309,"bush":1310,"cu":1311,"gent":1312,"ilt":1313,"ope":1314,"Un":1315,"cast":1316,"agon":1317,"ephal":1318,"lap":1319,"nut":1320,"ete":1321,"opt":1322,"oder":1323,"lessness":1324,"soc":1325,"rip":1326,"suc":1327,"illa":1328,"colored":1329,"lock":1330,"pale":1331,"stand":1332,"flower":1333,"fib":1334,"lan":1335,"ux":1336,"iment":1337,"iat":1338,"lib":1339,"mas":1340,"ream":1341,"ider":1342,"pseudo":1343,"En":1344,"ior":1345,"inae":1346,"ench":1347,"lem":1348,"ultra":1349,"flo":1350,"hist":1351,"rab":1352,"rang":1353,"une":1354,"gly":1355,"meg":1356,"nit":1357,"yellow":1358,"horn":1359,"rical":1360,"anim":1361,"aly":1362,"rost":1363,"that":1364,"new":1365,"cord":1366,"Hy":1367,"dim":1368,"oon":1369,"smo":1370,"ubl":1371,"esh":1372,"beg":1373,"sed":1374,"intra":1375,"elic":1376,"omen":1377,"omic":1378,"tho":1379,"iron":1380,"short":1381,"ianism":1382,"four":1383,"green":1384,"ced":1385,"nal":1386,"sens":1387,"icular":1388,"orous":1389,"ulation":1390,"ots":1391,"dr":1392,"orial":1393,"burn":1394,"double":1395,"aver":1396,"dig":1397,"sign":1398,"urg":1399,"ford":1400,"sun":1401,"vo":1402,"ones":1403,"olic":1404,"ential":1405,"ander":1406,"heart":1407,"ophobia":1408,"rich":1409,"gold":1410,"iable":1411,"sper":1412,"corn":1413,"Sch":1414,"sat":1415,"usc":1416,"turn":1417,"gle":1418,"rant":1419,"oric":1420,"unm":1421,"ished":1422,"ney":1423,"bound":1424,"ogenic":1425,"ech":1426,"fly":1427,"inate":1428,"alg":1429,"unic":1430,"ita":1431,"emp":1432,"ibleness":1433,"Or":1434,"ever":1435,"len":1436,"plac":1437,"oscope":1438,"cel":1439,"iol":1440,"lay":1441,"oil":1442,"ration":1443,"ero":1444,"ection":1445,"ynam":1446,"time":1447,"best":1448,"lav":1449,"pig":1450,"star":1451,"law":1452,"ini":1453,"ener":1454,"emic":1455,"empt":1456,"va":1457,"vul":1458,"with":1459,"ald":1460,"dia":1461,"unh":1462,"chor":1463,"ower":1464,"night":1465,"pap":1466,"round":1467,"encephal":1468,"nar":1469,"ination":1470,"ano":1471,"arm":1472,"unex":1473,"chrom":1474,"prop":1475,"angu":1476,"tox":1477,"point":1478,"jur":1479,"mast":1480,"init":1481,"ali":1482,"oses":1483,"tongu":1484,"tu":1485,"ico":1486,"fishes":1487,"unb":1488,"ival":1489,"spe":1490,"mann":1491,"fast":1492,"ining":1493,"inous":1494,"amm":1495,"cover":1496,"cyst":1497,"ket":1498,"ray":1499,"aded":1500,"ece":1501,"preh":1502,"tetra":1503,"tit":1504,"onia":1505,"ocephal":1506,"noncon":1507,"aqu":1508,"magn":1509,"ocrat":1510,"pret":1511,"cephal":1512,"bag":1513,"cas":1514,"fron":1515,"je":1516,"vag":1517,"ato":1518,"ives":1519,"boy":1520,"gel":1521,"town":1522,"oral":1523,"ado":1524,"ucle":1525,"bab":1526,"ken":1527,"sent":1528,"ures":1529,"fre":1530,"stick":1531,"omed":1532,"ulated":1533,"plat":1534,"oblast":1535,"Con":1536,"side":1537,"antim":1538,"blue":1539,"ences":1540,"ometry":1541,"inic":1542,"ape":1543,"sea":1544,"draw":1545,"bri":1546,"gall":1547,"lig":1548,"net":1549,"san":1550,"six":1551,"ora":1552,"suff":1553,"bull":1554,"cab":1555,"coc":1556,"lic":1557,"lers":1558,"liness":1559,"sand":1560,"worm":1561,"hole":1562,"Gu":1563,"stock":1564,"iled":1565,"antip":1566,"class":1567,"tax":1568,"actyl":1569,"fle":1570,"hu":1571,"test":1572,"enth":1573,"leaved":1574,"ilities":1575,"ety":1576,"ads":1577,"iting":1578,"osp":1579,"amine":1580,"gram":1581,"minded":1582,"bic":1583,"ela":1584,"ilo":1585,"rix":1586,"ivity":1587,"semic":1588,"Qu":1589,"big":1590,"blow":1591,"cess":1592,"cell":1593,"elec":1594,"ionist":1595,"ended":1596,"cod":1597,"sph":1598,"vet":1599,"athy":1600,"ales":1601,"itive":1602,"ria":1603,"tern":1604,"ologically":1605,"Mon":1606,"fri":1607,"lith":1608,"pant":1609,"omies":1610,"uter":1611,"try":1612,"rolog":1613,"unsh":1614,"chron":1615,"ason":1616,"irt":1617,"rong":1618,"know":1619,"Per":1620,"bot":1621,"uv":1622,"wall":1623,"eling":1624,"ida":1625,"cow":1626,"ards":1627,"berg":1628,"snow":1629,"mag":1630,"ni":1631,"hypo":1632,"ectomy":1633,"awn":1634,"ighted":1635,"bos":1636,"cran":1637,"dic":1638,"hen":1639,"til":1640,"vin":1641,"romat":1642,"thro":1643,"iver":1644,"deep":1645,"cycl":1646,"soft":1647,"fed":1648,"ges":1649,"master":1650,"past":1651,"ange":1652,"sky":1653,"sweet":1654,"born":1655,"iro":1656,"var":1657,"wash":1658,"alism":1659,"ils":1660,"olith":1661,"acqu":1662,"rian":1663,"aim":1664,"mad":1665,"sar":1666,"open":1667,"ante":1668,"roll":1669,"ometric":1670,"looking":1671,"aus":1672,"cit":1673,"dish":1674,"gest":1675,"pon":1676,"sap":1677,"room":1678,"ches":1679,"iums":1680,"Her":1681,"oo":1682,"tap":1683,"any":1684,"allo":1685,"alize":1686,"unin":1687,"uring":1688,"ogam":1689,"flag":1690,"idea":1691,"therm":1692,"Re":1693,"bib":1694,"hot":1695,"iation":1696,"pneum":1697,"tab":1698,"onian":1699,"stall":1700,"chol":1701,"scar":1702,"gress":1703,"ances":1704,"Cor":1705,"Col":1706,"pip":1707,"ror":1708,"imet":1709,"illing":1710,"fort":1711,"Ger":1712,"aul":1713,"fall":1714,"iced":1715,"agu":1716,"izz":1717,"undis":1718,"plum":1719,"boat":1720,"struct":1721,"ood":1722,"tree":1723,"opol":1724,"nonre":1725,"appro":1726,"illed":1727,"good":1728,"buck":1729,"mous":1730,"rent":1731,"sman":1732,"voc":1733,"iling":1734,"obi":1735,"ending":1736,"subst":1737,"Bar":1738,"bus":1739,"fat":1740,"tol":1741,"urs":1742,"ocer":1743,"acy":1744,"ocarp":1745,"dol":1746,"sick":1747,"leaf":1748,"istical":1749,"ays":1750,"neph":1751,"aven":1752,"inesses":1753,"hair":1754,"bron":1755,"ding":1756,"hib":1757,"som":1758,"inted":1759,"alt":1760,"etically":1761,"uria":1762,"tered":1763,"palae":1764,"horse":1765,"dry":1766,"gri":1767,"wed":1768,"unper":1769,"elet":1770,"bear":1771,"tooth":1772,"ces":1773,"pick":1774,"ateness":1775,"ativeness":1776,"aled":1777,"reen":1778,"chan":1779,"osity":1780,"loid":1781,"tract":1782,"aux":1783,"fing":1784,"jug":1785,"mur":1786,"nor":1787,"inu":1788,"rain":1789,"aked":1790,"monger":1791,"benz":1792,"Be":1793,"Har":1794,"cand":1795,"mol":1796,"saw":1797,"some":1798,"win":1799,"itation":1800,"stem":1801,"asp":1802,"ager":1803,"aps":1804,"ipp":1805,"spor":1806,"clim":1807,"bled":1808,"eye":1809,"spirit":1810,"vas":1811,"stat":1812,"stri":1813,"usion":1814,"flat":1815,"He":1816,"cad":1817,"sept":1818,"tot":1819,"ani":1820,"phosph":1821,"spin":1822,"disc":1823,"glut":1824,"grand":1825,"stere":1826,"single":1827,"De":1828,"Mal":1829,"rose":1830,"ract":1831,"lym":1832,"ents":1833,"opath":1834,"trich":1835,"aj":1836,"bott":1837,"gh":1838,"mand":1839,"then":1840,"abol":1841,"emin":1842,"conn":1843,"kee":1844,"soul":1845,"hep":1846,"penn":1847,"tip":1848,"alist":1849,"acid":1850,"cost":1851,"ophthal":1852,"worth":1853,"ways":1854,"script":1855,"Mer":1856,"mos":1857,"run":1858,"ses":1859,"uh":1860,"ala":1861,"step":1862,"ilic":1863,"thick":1864,"ada":1865,"rib":1866,"ifer":1867,"sequ":1868,"angi":1869,"boro":1870,"human":1871,"silver":1872,"fig":1873,"iers":1874,"ny":1875,"now":1876,"anes":1877,"allow":1878,"phar":1879,"izable":1880,"brid":1881,"hur":1882,"unpro":1883,"aco":1884,"umber":1885,"pled":1886,"lessly":1887,"gener":1888,"AS":1889,"god":1890,"chin":1891,"cler":1892,"ologies":1893,"cular":1894,"neck":1895,"pter":1896,"Anti":1897,"Cal":1898,"bug":1899,"nic":1900,"sess":1901,"recon":1902,"omin":1903,"ading":1904,"outs":1905,"ogenesis":1906,"fluor":1907,"Pan":1908,"fold":1909,"gor":1910,"hold":1911,"iaceae":1912,"lot":1913,"nec":1914,"vest":1915,"anis":1916,"uncom":1917,"ivers":1918,"oco":1919,"ophyll":1920,"oidal":1921,"grass":1922,"dil":1923,"ea":1924,"zer":1925,"ema":1926,"ama":1927,"peri":1928,"iast":1929,"Mel":1930,"Non":1931,"aint":1932,"pens":1933,"rite":1934,"ching":1935,"asis":1936,"unders":1937,"scop":1938,"blast":1939,"slip":1940,"present":1941,"call":1942,"drop":1943,"ko":1944,"rer":1945,"antis":1946,"moon":1947,"semip":1948,"cath":1949,"dest":1950,"fam":1951,"rated":1952,"viv":1953,"enz":1954,"aling":1955,"rein":1956,"ols":1957,"ift":1958,"eller":1959,"precon":1960,"neuro":1961,"lier":1962,"color":1963,"oxid":1964,"Bra":1965,"fal":1966,"gyn":1967,"anic":1968,"irl":1969,"iber":1970,"meter":1971,"mark":1972,"oes":1973,"rug":1974,"sav":1975,"writ":1976,"used":1977,"ime":1978,"agog":1979,"odon":1980,"spar":1981,"AC":1982,"tom":1983,"osaur":1984,"ogon":1985,"what":1986,"ographer":1987,"small":1988,"wards":1989,"footed":1990,"gang":1991,"hon":1992,"ioc":1993,"iated":1994,"wide":1995,"escent":1996,"orch":1997,"unl":1998,"elt":1999,"chond":2000,"otted":2001,"umer":2002,"oped":2003,"apy":2004,"ishing":2005,"prer":2006,"blind":2007,"ographical":2008,"retro":2009,"ogenous":2010,"aryng":2011,"Bl":2012,"Cy":2013,"dro":2014,"ril":2015,"sville":2016,"ually":2017,"vice":2018,"stre":2019,"chal":2020,"Sal":2021,"eph":2022,"gas":2023,"ozo":2024,"sex":2025,"vie":2026,"unim":2027,"ades":2028,"rosis":2029,"position":2030,"Par":2031,"cav":2032,"did":2033,"iant":2034,"tle":2035,"uous":2036,"ona":2037,"ared":2038,"reat":2039,"ophys":2040,"uber":2041,"Ed":2042,"cup":2043,"gran":2044,"natur":2045,"rill":2046,"yle":2047,"anat":2048,"educ":2049,"quis":2050,"scler":2051,"many":2052,"plex":2053,"pleas":2054,"gem":2055,"tum":2056,"eler":2057,"ulating":2058,"quer":2059,"ected":2060,"need":2061,"inder":2062,"rupt":2063,"Tur":2064,"cet":2065,"cant":2066,"face":2067,"hod":2068,"rhy":2069,"alb":2070,"ston":2071,"omal":2072,"ury":2073,"perf":2074,"ifies":2075,"ranchi":2076,"broad":2077,"earth":2078,"fru":2079,"ju":2080,"rically":2081,"yo":2082,"onom":2083,"itan":2084,"itable":2085,"raw":2086,"rack":2087,"ask":2088,"utter":2089,"apor":2090,"seed":2091,"bling":2092,"rank":2093,"Co":2094,"dys":2095,"fav":2096,"home":2097,"iqu":2098,"pid":2099,"rut":2100,"ya":2101,"arist":2102,"acter":2103,"uls":2104,"ospor":2105,"supra":2106,"plant":2107,"dead":2108,"clad":2109,"whip":2110,"wool":2111,"Ber":2112,"Pal":2113,"dent":2114,"iot":2115,"mir":2116,"yer":2117,"aro":2118,"itut":2119,"eme":2120,"hemat":2121,"judic":2122,"cac":2123,"cate":2124,"pack":2125,"tam":2126,"ether":2127,"achy":2128,"resh":2129,"actin":2130,"action":2131,"coll":2132,"ground":2133,"brom":2134,"kind":2135,"was":2136,"incon":2137,"ature":2138,"alized":2139,"olite":2140,"igen":2141,"pros":2142,"angle":2143,"pear":2144,"Christ":2145,"rograph":2146,"Ad":2147,"nov":2148,"sam":2149,"zing":2150,"itting":2151,"nonex":2152,"lets":2153,"ocyst":2154,"Ste":2155,"bone":2156,"bred":2157,"hog":2158,"ja":2159,"mud":2160,"vac":2161,"unad":2162,"roid":2163,"check":2164,"etal":2165,"uld":2166,"ases":2167,"osh":2168,"person":2169,"crypt":2170,"BS":2171,"bank":2172,"ience":2173,"rine":2174,"zed":2175,"ican":2176,"itter":2177,"ulous":2178,"spring":2179,"tress":2180,"ector":2181,"neu":2182,"atingly":2183,"glass":2184,"ritic":2185,"multip":2186,"viol":2187,"MS":2188,"Mor":2189,"bid":2190,"dale":2191,"mia":2192,"oec":2193,"rus":2194,"sep":2195,"incl":2196,"itate":2197,"road":2198,"compl":2199,"bearing":2200,"tear":2201,"break":2202,"cloth":2203,"tailed":2204,"brown":2205,"cult":2206,"dial":2207,"hap":2208,"nas":2209,"sus":2210,"styl":2211,"olar":2212,"asm":2213,"quick":2214,"iffer":2215,"neg":2216,"angel":2217,"awk":2218,"there":2219,"craft":2220,"oscopy":2221,"Bo":2222,"lie":2223,"rud":2224,"vill":2225,"etical":2226,"ulph":2227,"loy":2228,"oney":2229,"school":2230,"produc":2231,"prehens":2232,"Hal":2233,"cus":2234,"dle":2235,"ki":2236,"tes":2237,"esth":2238,"cham":2239,"osoph":2240,"see":2241,"prel":2242,"ups":2243,"ogenetic":2244,"smooth":2245,"fic":2246,"hop":2247,"loss":2248,"mach":2249,"si":2250,"walk":2251,"zen":2252,"unsp":2253,"ito":2254,"chur":2255,"iding":2256,"emer":2257,"irre":2258,"ife":2259,"tedness":2260,"lik":2261,"sound":2262,"thought":2263,"Ros":2264,"fet":2265,"grow":2266,"mort":2267,"wig":2268,"roy":2269,"olig":2270,"idium":2271,"demon":2272,"encies":2273,"yllab":2274,"Wh":2275,"doc":2276,"gun":2277,"gum":2278,"kh":2279,"erv":2280,"inated":2281,"icon":2282,"rach":2283,"shop":2284,"ipar":2285,"hea":2286,"indic":2287,"hook":2288,"pound":2289,"inned":2290,"omata":2291,"IS":2292,"Man":2293,"gan":2294,"grat":2295,"joy":2296,"lu":2297,"pom":2298,"olat":2299,"this":2300,"asia":2301,"amer":2302,"ader":2303,"oge":2304,"cyan":2305,"pyro":2306,"paper":2307,"macro":2308,"lymph":2309,"fair":2310,"iar":2311,"lion":2312,"mam":2313,"ned":2314,"nom":2315,"pup":2316,"rick":2317,"rink":2318,"trop":2319,"uzz":2320,"eding":2321,"leuc":2322,"eta":2323,"abb":2324,"oplas":2325,"ody":2326,"asted":2327,"comb":2328,"mont":2329,"izations":2330,"Mac":2331,"dor":2332,"kil":2333,"mul":2334,"pac":2335,"ua":2336,"want":2337,"wick":2338,"watch":2339,"xy":2340,"za":2341,"zyg":2342,"stro":2343,"stom":2344,"uric":2345,"quest":2346,"shot":2347,"liest":2348,"rans":2349,"uction":2350,"bacter":2351,"Ge":2352,"drag":2353,"diff":2354,"table":2355,"tight":2356,"icity":2357,"ores":2358,"race":2359,"amid":2360,"conv":2361,"myth":2362,"ements":2363,"omania":2364,"eas":2365,"hil":2366,"pec":2367,"pay":2368,"uit":2369,"won":2370,"yard":2371,"oned":2372,"elia":2373,"rav":2374,"ided":2375,"ocent":2376,"ationist":2377,"eps":2378,"rophy":2379,"sulf":2380,"crimin":2381,"winged":2382,"crown":2383,"gig":2384,"iaceous":2385,"tick":2386,"onym":2387,"phyl":2388,"clos":2389,"anger":2390,"ief":2391,"actic":2392,"auto":2393,"handed":2394,"wheel":2395,"CS":2396,"aug":2397,"hag":2398,"jac":2399,"ls":2400,"mart":2401,"morph":2402,"zy":2403,"inct":2404,"unsc":2405,"real":2406,"strat":2407,"oms":2408,"ionally":2409,"ocele":2410,"close":2411,"dered":2412,"etermin":2413,"guard":2414,"solid":2415,"Se":2416,"ause":2417,"cing":2418,"how":2419,"wil":2420,"xanth":2421,"icol":2422,"unco":2423,"think":2424,"lob":2425,"plate":2426,"ylic":2427,"ahs":2428,"straight":2429,"clean":2430,"bad":2431,"civ":2432,"eno":2433,"lec":2434,"etta":2435,"uran":2436,"opy":2437,"ends":2438,"claim":2439,"tedly":2440,"paras":2441,"rict":2442,"salt":2443,"ocyte":2444,"phyt":2445,"mouthed":2446,"Te":2447,"We":2448,"aed":2449,"gut":2450,"hell":2451,"rand":2452,"sco":2453,"wer":2454,"una":2455,"ilit":2456,"they":2457,"ople":2458,"imeter":2459,"nonf":2460,"quarter":2461,"aste":2462,"sever":2463,"block":2464,"oster":2465,"mental":2466,"gloss":2467,"found":2468,"gray":2469,"pract":2470,"Cam":2471,"Pol":2472,"Post":2473,"cart":2474,"dict":2475,"han":2476,"hier":2477,"most":2478,"ues":2479,"vari":2480,"eted":2481,"thir":2482,"adi":2483,"sharp":2484,"const":2485,"extr":2486,"ishment":2487,"hyster":2488,"techn":2489,"bert":2490,"evol":2491,"meas":2492,"ornith":2493,"branch":2494,"cub":2495,"lum":2496,"nob":2497,"oi":2498,"pect":2499,"sab":2500,"eries":2501,"iles":2502,"peric":2503,"nonpro":2504,"subl":2505,"sport":2506,"scal":2507,"cyt":2508,"uster":2509,"carn":2510,"ove":2511,"string":2512,"works":2513,"built":2514,"CA":2515,"My":2516,"dress":2517,"hall":2518,"los":2519,"mix":2520,"tow":2521,"uper":2522,"orship":2523,"omatic":2524,"ionary":2525,"acon":2526,"amo":2527,"amed":2528,"adv":2529,"qual":2530,"ested":2531,"flav":2532,"grav":2533,"brain":2534,"Sc":2535,"fum":2536,"iri":2537,"tele":2538,"zon":2539,"rail":2540,"ulus":2541,"thunder":2542,"ented":2543,"amic":2544,"ocar":2545,"epig":2546,"aves":2547,"lings":2548,"ichthy":2549,"posed":2550,"ittle":2551,"sider":2552,"escence":2553,"Bur":2554,"Er":2555,"TS":2556,"dod":2557,"pes":2558,"will":2559,"xyl":2560,"aler":2561,"alness":2562,"itz":2563,"eleg":2564,"chap":2565,"using":2566,"emor":2567,"ouse":2568,"iger":2569,"love":2570,"epis":2571,"aean":2572,"object":2573,"avy":2574,"liqu":2575,"brush":2576,"skin":2577,"myel":2578,"backed":2579,"lined":2580,"prim":2581,"cript":2582,"Ab":2583,"bem":2584,"hes":2585,"iidae":2586,"muc":2587,"uph":2588,"esthes":2589,"ica":2590,"oring":2591,"illo":2592,"oles":2593,"termin":2594,"epic":2595,"idean":2596,"berries":2597,"ographically":2598,"otype":2599,"Del":2600,"Hol":2601,"winter":2602,"intr":2603,"reed":2604,"stud":2605,"idia":2606,"idian":2607,"oted":2608,"iving":2609,"izers":2610,"odes":2611,"pered":2612,"akes":2613,"bles":2614,"life":2615,"Bel":2616,"Em":2617,"Ser":2618,"bis":2619,"graph":2620,"hi":2621,"hang":2622,"ien":2623,"junct":2624,"may":2625,"pier":2626,"arily":2627,"unfor":2628,"stop":2629,"amar":2630,"isted":2631,"aging":2632,"agger":2633,"coal":2634,"overn":2635,"dew":2636,"piece":2637,"magnet":2638,"Cl":2639,"Ma":2640,"PS":2641,"fan":2642,"gard":2643,"jar":2644,"luc":2645,"nin":2646,"sail":2647,"tut":2648,"wire":2649,"year":2650,"alia":2651,"isk":2652,"itious":2653,"pref":2654,"death":2655,"care":2656,"breath":2657,"omatous":2658,"embry":2659,"immun":2660,"tuber":2661,"iloqu":2662,"Mo":2663,"bir":2664,"dism":2665,"jour":2666,"nes":2667,"tan":2668,"ware":2669,"ices":2670,"ingu":2671,"roman":2672,"strong":2673,"racy":2674,"phant":2675,"ried":2676,"apper":2677,"iped":2678,"cool":2679,"iality":2680,"enesses":2681,"beat":2682,"colon":2683,"rome":2684,"calc":2685,"possess":2686,"bread":2687,"stead":2688,"melan":2689,"Kar":2690,"Ver":2691,"dar":2692,"kill":2693,"pall":2694,"wan":2695,"enes":2696,"elly":2697,"stain":2698,"empor":2699,"amy":2700,"show":2701,"clin":2702,"ophore":2703,"flor":2704,"harmon":2705,"iasis":2706,"predis":2707,"habit":2708,"Pseud":2709,"bum":2710,"cen":2711,"gin":2712,"jaw":2713,"slow":2714,"ati":2715,"alin":2716,"icism":2717,"roof":2718,"sten":2719,"idly":2720,"ths":2721,"ogy":2722,"ima":2723,"ocal":2724,"appe":2725,"irm":2726,"shell":2727,"cons":2728,"ishes":2729,"aea":2730,"semis":2731,"offic":2732,"brow":2733,"case":2734,"nav":2735,"pun":2736,"rhe":2737,"vig":2738,"wax":2739,"ication":2740,"repro":2741,"idine":2742,"emph":2743,"ifier":2744,"formed":2745,"mean":2746,"ski":2747,"pression":2748,"omorphic":2749,"first":2750,"AR":2751,"Ag":2752,"bob":2753,"batt":2754,"ds":2755,"fro":2756,"fus":2757,"hob":2758,"heli":2759,"iology":2760,"jer":2761,"pist":2762,"west":2763,"xen":2764,"zes":2765,"oria":2766,"unab":2767,"oter":2768,"imon":2769,"odor":2770,"pron":2771,"clam":2772,"bee":2773,"resol":2774,"rope":2775,"even":2776,"bark":2777,"tribut":2778,"author":2779,"valu":2780,"splen":2781,"analy":2782,"gastro":2783,"bibli":2784,"Py":2785,"cept":2786,"dark":2787,"iop":2788,"pep":2789,"itud":2790,"rob":2791,"lept":2792,"raz":2793,"olysis":2794,"phyll":2795,"aman":2796,"amorph":2797,"uted":2798,"agin":2799,"apost":2800,"quar":2801,"overs":2802,"alled":2803,"uge":2804,"come":2805,"tram":2806,"worn":2807,"oken":2808,"ordin":2809,"urous":2810,"Ly":2811,"OS":2812,"cann":2813,"lon":2814,"mob":2815,"nick":2816,"icate":2817,"phag":2818,"trust":2819,"deb":2820,"nee":2821,"wear":2822,"stern":2823,"ognath":2824,"God":2825,"Pet":2826,"bud":2827,"gers":2828,"iel":2829,"pie":2830,"pinn":2831,"rating":2832,"inte":2833,"lee":2834,"oli":2835,"omas":2836,"osc":2837,"ument":2838,"rial":2839,"impro":2840,"sure":2841,"clav":2842,"articul":2843,"metal":2844,"collect":2845,"fool":2846,"ships":2847,"general":2848,"belly":2849,"Phil":2850,"Cer":2851,"Fran":2852,"bs":2853,"fash":2854,"gate":2855,"lact":2856,"mass":2857,"more":2858,"norm":2859,"ook":2860,"ruct":2861,"tide":2862,"onite":2863,"esque":2864,"orrh":2865,"usive":2866,"thin":2867,"thing":2868,"nonper":2869,"consc":2870,"ellate":2871,"plain":2872,"arded":2873,"owl":2874,"print":2875,"forest":2876,"atorial":2877,"too":2878,"minist":2879,"posit":2880,"ambul":2881,"omancy":2882,"arsen":2883,"communic":2884,"clear":2885,"oplasty":2886,"penny":2887,"At":2888,"hos":2889,"hay":2890,"made":2891,"ruc":2892,"vine":2893,"wild":2894,"unted":2895,"lean":2896,"iler":2897,"eting":2898,"emen":2899,"otom":2900,"ogene":2901,"imer":2902,"spur":2903,"exec":2904,"aken":2905,"bler":2906,"taut":2907,"carbon":2908,"dermat":2909,"fox":2910,"cert":2911,"continu":2912,"large":2913,"cosm":2914,"tongue":2915,"Bal":2916,"Gal":2917,"bly":2918,"bath":2919,"honey":2920,"mate":2921,"ois":2922,"infl":2923,"athe":2924,"isable":2925,"still":2926,"child":2927,"ethyl":2928,"eca":2929,"opathy":2930,"illary":2931,"obe":2932,"prest":2933,"bour":2934,"partic":2935,"corpor":2936,"haz":2937,"iently":2938,"commun":2939,"otropic":2940,"gentle":2941,"crow":2942,"mi":2943,"pest":2944,"vib":2945,"wol":2946,"esp":2947,"aton":2948,"arin":2949,"arium":2950,"ori":2951,"elo":2952,"idity":2953,"acanth":2954,"osper":2955,"ams":2956,"otox":2957,"igu":2958,"ires":2959,"eping":2960,"owed":2961,"touch":2962,"away":2963,"resc":2964,"sour":2965,"egg":2966,"evil":2967,"haired":2968,"type":2969,"axis":2970,"butter":2971,"patri":2972,"addle":2973,"hepat":2974,"Can":2975,"Nor":2976,"Sar":2977,"bog":2978,"bright":2979,"dust":2980,"iary":2981,"nose":2982,"rush":2983,"uz":2984,"rever":2985,"asper":2986,"agram":2987,"seven":2988,"ostomy":2989,"uret":2990,"haem":2991,"main":2992,"maid":2993,"eared":2994,"itten":2995,"elessness":2996,"electr":2997,"Gar":2998,"La":2999,"Ter":3000,"dich":3001,"gul":3002,"lag":3003,"nod":3004,"eder":3005,"rear":3006,"esses":3007,"adic":3008,"riv":3009,"loving":3010,"spic":3011,"iana":3012,"pread":3013,"scap":3014,"parad":3015,"resist":3016,"cold":3017,"oids":3018,"anna":3019,"cere":3020,"algia":3021,"Wil":3022,"aper":3023,"gia":3024,"hat":3025,"hun":3026,"mant":3027,"rul":3028,"rational":3029,"uf":3030,"vict":3031,"oner":3032,"alizing":3033,"iso":3034,"aric":3035,"lead":3036,"lys":3037,"uli":3038,"umen":3039,"antit":3040,"coff":3041,"oblig":3042,"allel":3043,"trit":3044,"scut":3045,"screw":3046,"manship":3047,"rys":3048,"weight":3049,"weather":3050,"carb":3051,"carp":3052,"hero":3053,"brick":3054,"reck":3055,"anced":3056,"rhiz":3057,"covered":3058,"Ac":3059,"CC":3060,"Mic":3061,"five":3062,"fix":3063,"oed":3064,"uther":3065,"wis":3066,"infer":3067,"anch":3068,"atal":3069,"ilia":3070,"rable":3071,"phan":3072,"emot":3073,"ammon":3074,"agan":3075,"epith":3076,"place":3077,"sey":3078,"ologists":3079,"oked":3080,"mother":3081,"mater":3082,"max":3083,"ables":3084,"commod":3085,"Com":3086,"Me":3087,"Mad":3088,"gaz":3089,"lun":3090,"lust":3091,"pad":3092,"sod":3093,"sect":3094,"tang":3095,"wel":3096,"uncont":3097,"usk":3098,"idness":3099,"acious":3100,"urer":3101,"enty":3102,"emi":3103,"amen":3104,"amet":3105,"shad":3106,"uded":3107,"cles":3108,"ophile":3109,"intro":3110,"poet":3111,"romy":3112,"ethn":3113,"transl":3114,"mindedness":3115,"ophyte":3116,"tongued":3117,"AM":3118,"Ke":3119,"Sy":3120,"buff":3121,"eor":3122,"eem":3123,"greg":3124,"kes":3125,"kins":3126,"mith":3127,"ns":3128,"nest":3129,"pir":3130,"pain":3131,"pitch":3132,"inex":3133,"anter":3134,"atri":3135,"alization":3136,"uner":3137,"unen":3138,"unce":3139,"itism":3140,"chel":3141,"olate":3142,"idin":3143,"thread":3144,"oting":3145,"opin":3146,"perit":3147,"apan":3148,"sug":3149,"proct":3150,"iev":3151,"metall":3152,"struc":3153,"rophic":3154,"legged":3155,"photo":3156,"holder":3157,"profess":3158,"front":3159,"Hel":3160,"iency":3161,"ough":3162,"pas":3163,"pow":3164,"pend":3165,"upl":3166,"witch":3167,"itude":3168,"rogen":3169,"chas":3170,"lyn":3171,"asy":3172,"urb":3173,"about":3174,"ember":3175,"anda":3176,"undec":3177,"princ":3178,"neur":3179,"ubb":3180,"worker":3181,"fuls":3182,"semin":3183,"ocks":3184,"ularly":3185,"merc":3186,"archy":3187,"body":3188,"sleep":3189,"Dor":3190,"May":3191,"Ul":3192,"bind":3193,"cogn":3194,"gab":3195,"unpre":3196,"sto":3197,"ila":3198,"ulum":3199,"iae":3200,"sher":3201,"uce":3202,"trap":3203,"icken":3204,"intel":3205,"where":3206,"ogeny":3207,"ymph":3208,"crack":3209,"urable":3210,"philosoph":3211,"mission":3212,"because":3213,"As":3214,"cred":3215,"eat":3216,"hack":3217,"ning":3218,"nucle":3219,"uate":3220,"inian":3221,"stown":3222,"stiff":3223,"pher":3224,"abilities":3225,"rier":3226,"ived":3227,"nondis":3228,"apod":3229,"antid":3230,"ips":3231,"epit":3232,"iller":3233,"trad":3234,"weak":3235,"direct":3236,"Char":3237,"steel":3238,"sheep":3239,"secret":3240,"nosed":3241,"view":3242,"Bro":3243,"DS":3244,"aust":3245,"camp":3246,"iating":3247,"lut":3248,"late":3249,"tender":3250,"alth":3251,"ision":3252,"isth":3253,"itarian":3254,"lement":3255,"illy":3256,"phren":3257,"aba":3258,"abor":3259,"entness":3260,"aming":3261,"rie":3262,"odynam":3263,"nonad":3264,"appl":3265,"quet":3266,"icality":3267,"consum":3268,"epist":3269,"isher":3270,"aving":3271,"ugg":3272,"rone":3273,"brand":3274,"mechan":3275,"rench":3276,"ometrical":3277,"square":3278,"great":3279,"electric":3280,"keeper":3281,"aun":3282,"cyl":3283,"dal":3284,"dot":3285,"fine":3286,"list":3287,"lick":3288,"nid":3289,"pink":3290,"punct":3291,"publ":3292,"wro":3293,"women":3294,"inch":3295,"inus":3296,"oni":3297,"alous":3298,"armed":3299,"sty":3300,"state":3301,"stream":3302,"opar":3303,"ocracy":3304,"quiet":3305,"shire":3306,"plag":3307,"fores":3308,"travel":3309,"ache":3310,"ynia":3311,"outh":3312,"rhin":3313,"schiz":3314,"second":3315,"occup":3316,"olytic":3317,"sacchar":3318,"court":3319,"esthesia":3320,"intellect":3321,"Poly":3322,"Sk":3323,"Val":3324,"aen":3325,"cog":3326,"cass":3327,"dynam":3328,"fel":3329,"hept":3330,"ii":3331,"kal":3332,"lass":3333,"nig":3334,"sag":3335,"vy":3336,"veg":3337,"wal":3338,"atom":3339,"ories":3340,"itical":3341,"stal":3342,"lying":3343,"urban":3344,"opro":3345,"very":3346,"ipit":3347,"coat":3348,"heat":3349,"tris":3350,"ialist":3351,"ostom":3352,"money":3353,"acher":3354,"wound":3355,"pole":3356,"gery":3357,"brained":3358,"brachy":3359,"twin":3360,"Anglo":3361,"ochem":3362,"ettes":3363,"build":3364,"orrhea":3365,"Cap":3366,"Don":3367,"Gre":3368,"Trans":3369,"aid":3370,"bene":3371,"cic":3372,"fier":3373,"mum":3374,"mig":3375,"ske":3376,"tent":3377,"talk":3378,"uco":3379,"xer":3380,"itted":3381,"eland":3382,"olin":3383,"phor":3384,"omot":3385,"acer":3386,"thorn":3387,"emper":3388,"osa":3389,"ribut":3390,"tering":3391,"imit":3392,"promis":3393,"epid":3394,"aka":3395,"rying":3396,"acks":3397,"ither":3398,"ureter":3399,"eve":3400,"haust":3401,"rates":3402,"here":3403,"feather":3404,"ondyl":3405,"inner":3406,"going":3407,"eryth":3408,"melod":3409,"acetyl":3410,"church":3411,"Pseudo":3412,"Dar":3413,"auc":3414,"gym":3415,"hors":3416,"lingly":3417,"pu":3418,"pill":3419,"slo":3420,"wart":3421,"issu":3422,"ariness":3423,"raft":3424,"empl":3425,"loud":3426,"exter":3427,"heavy":3428,"ialize":3429,"rons":3430,"azz":3431,"portion":3432,"ohn":3433,"cloud":3434,"motor":3435,"heartedness":3436,"dipl":3437,"US":3438,"din":3439,"lich":3440,"mn":3441,"mah":3442,"rene":3443,"tall":3444,"your":3445,"christ":3446,"chromat":3447,"ilian":3448,"ulose":3449,"ogly":3450,"ogloss":3451,"econ":3452,"odd":3453,"alling":3454,"scur":3455,"ialism":3456,"indiv":3457,"indust":3458,"boot":3459,"assoc":3460,"semid":3461,"metaph":3462,"whit":3463,"polar":3464,"myst":3465,"steep":3466,"summer":3467,"witted":3468,"billed":3469,"iddle":3470,"German":3471,"CO":3472,"Mat":3473,"dream":3474,"flex":3475,"hill":3476,"nat":3477,"sburg":3478,"uan":3479,"wid":3480,"invol":3481,"alph":3482,"alco":3483,"itory":3484,"roc":3485,"storm":3486,"rapt":3487,"oline":3488,"acro":3489,"thi":3490,"ocol":3491,"conce":3492,"spread":3493,"atedness":3494,"ached":3495,"hound":3496,"south":3497,"grad":3498,"typh":3499,"door":3500,"ancing":3501,"omaniac":3502,"timber":3503,"ocyt":3504,"hammer":3505,"passion":3506,"invest":3507,"folk":3508,"pipe":3509,"fruit":3510,"AP":3511,"Cha":3512,"Ir":3513,"Mus":3514,"Meg":3515,"NE":3516,"Plat":3517,"Rh":3518,"Sol":3519,"Tar":3520,"ais":3521,"bay":3522,"bass":3523,"dactyl":3524,"frost":3525,"gol":3526,"gib":3527,"hir":3528,"lent":3529,"ounc":3530,"sit":3531,"tend":3532,"vell":3533,"wine":3534,"yan":3535,"incom":3536,"orbit":3537,"unv":3538,"unse":3539,"uninter":3540,"stim":3541,"chang":3542,"osm":3543,"amide":3544,"opp":3545,"imal":3546,"ocard":3547,"ationally":3548,"appar":3549,"ifiable":3550,"coen":3551,"asting":3552,"ction":3553,"worthy":3554,"geal":3555,"twel":3556,"medic":3557,"crystall":3558,"otherapy":3559,"milit":3560,"devil":3561,"lady":3562,"megal":3563,"finger":3564,"AT":3565,"Jac":3566,"Sab":3567,"grown":3568,"hid":3569,"have":3570,"ll":3571,"mers":3572,"power":3573,"iny":3574,"atable":3575,"eds":3576,"stitch":3577,"amor":3578,"istry":3579,"impl":3580,"imental":3581,"igraph":3582,"iah":3583,"irid":3584,"iful":3585,"trick":3586,"truth":3587,"aying":3588,"neut":3589,"aks":3590,"aching":3591,"rice":3592,"bral":3593,"heads":3594,"aneous":3595,"ruff":3596,"penet":3597,"oscopic":3598,"cardi":3599,"toxic":3600,"bronch":3601,"Ash":3602,"Di":3603,"Lor":3604,"Prot":3605,"Sam":3606,"The":3607,"cid":3608,"crop":3609,"dum":3610,"fellow":3611,"host":3612,"hatch":3613,"kat":3614,"pus":3615,"tz":3616,"troph":3617,"uously":3618,"anism":3619,"alistic":3620,"unob":3621,"unfl":3622,"rax":3623,"omon":3624,"oment":3625,"throw":3626,"amyl":3627,"ago":3628,"agen":3629,"agraph":3630,"igerous":3631,"antal":3632,"irk":3633,"illi":3634,"ials":3635,"ialness":3636,"atedly":3637,"subject":3638,"upt":3639,"toid":3640,"activ":3641,"colour":3642,"pointed":3643,"ulture":3644,"typ":3645,"inking":3646,"cheek":3647,"enced":3648,"smith":3649,"access":3650,"tempor":3651,"milk":3652,"bodied":3653,"apeut":3654,"pharmac":3655,"Ham":3656,"Is":3657,"bast":3658,"ees":3659,"eight":3660,"jam":3661,"kick":3662,"nur":3663,"nap":3664,"plow":3665,"tens":3666,"uousness":3667,"who":3668,"inite":3669,"alleg":3670,"icle":3671,"univers":3672,"stip":3673,"staff":3674,"ulae":3675,"tha":3676,"urus":3677,"uts":3678,"umpt":3679,"ivorous":3680,"igmat":3681,"coel":3682,"exper":3683,"iance":3684,"hyal":3685,"heaven":3686,"club":3687,"indul":3688,"angular":3689,"track":3690,"taw":3691,"oking":3692,"ahed":3693,"meteor":3694,"whis":3695,"relig":3696,"ancies":3697,"button":3698,"priest":3699,"warm":3700,"houses":3701,"ength":3702,"respect":3703,"crowned":3704,"Luc":3705,"Pe":3706,"Tri":3707,"bip":3708,"bers":3709,"buc":3710,"bomb":3711,"eal":3712,"hav":3713,"north":3714,"sib":3715,"tun":3716,"aters":3717,"ense":3718,"enne":3719,"orig":3720,"orient":3721,"unbe":3722,"revol":3723,"start":3724,"ocean":3725,"odi":3726,"shel":3727,"ellar":3728,"scul":3729,"ophen":3730,"bleness":3731,"ostic":3732,"common":3733,"indig":3734,"angled":3735,"take":3736,"brut":3737,"cope":3738,"ritis":3739,"backs":3740,"infra":3741,"Arch":3742,"cutting":3743,"phenyl":3744,"galvan":3745,"labor":3746,"orrha":3747,"satis":3748,"platy":3749,"ifferent":3750,"Bon":3751,"Gra":3752,"Men":3753,"Ty":3754,"bun":3755,"cens":3756,"cement":3757,"dre":3758,"dur":3759,"ioid":3760,"nch":3761,"runn":3762,"anite":3763,"alog":3764,"arbit":3765,"inger":3766,"elph":3767,"elig":3768,"chro":3769,"ilize":3770,"acco":3771,"ased":3772,"ota":3773,"ume":3774,"agia":3775,"ocon":3776,"sugar":3777,"estim":3778,"coated":3779,"exist":3780,"plen":3781,"true":3782,"prick":3783,"formal":3784,"okay":3785,"moun":3786,"semim":3787,"make":3788,"myx":3789,"calcul":3790,"ifications":3791,"breast":3792,"stein":3793,"compens":3794,"oplastic":3795,"toothed":3796,"Ex":3797,"Far":3798,"Gall":3799,"Ha":3800,"Mont":3801,"crum":3802,"crest":3803,"die":3804,"dors":3805,"haw":3806,"jet":3807,"num":3808,"ound":3809,"oidea":3810,"pict":3811,"tort":3812,"vey":3813,"erc":3814,"onal":3815,"atis":3816,"atta":3817,"enite":3818,"ician":3819,"orian":3820,"eline":3821,"really":3822,"chair":3823,"oming":3824,"idic":3825,"osyn":3826,"oglo":3827,"ogast":3828,"immer":3829,"quint":3830,"suck":3831,"elli":3832,"plast":3833,"compan":3834,"indis":3835,"intern":3836,"correct":3837,"gled":3838,"gluc":3839,"methyl":3840,"roma":3841,"ultur":3842,"maj":3843,"oxal":3844,"triple":3845,"fee":3846,"Ann":3847,"aphyl":3848,"steam":3849,"substant":3850,"Ap":3851,"RS":3852,"bish":3853,"bold":3854,"cust":3855,"dow":3856,"gi":3857,"gob":3858,"mism":3859,"nan":3860,"plo":3861,"rator":3862,"tack":3863,"wet":3864,"wag":3865,"aty":3866,"atical":3867,"icing":3868,"ello":3869,"chant":3870,"rah":3871,"opo":3872,"opia":3873,"optic":3874,"optim":3875,"vern":3876,"iflor":3877,"spot":3878,"spoken":3879,"illion":3880,"trum":3881,"complex":3882,"ront":3883,"mov":3884,"gee":3885,"metric":3886,"gue":3887,"copy":3888,"feud":3889,"count":3890,"ails":3891,"extens":3892,"iculate":3893,"atured":3894,"flowered":3895,"puls":3896,"spermat":3897,"bearer":3898,"olatry":3899,"fashion":3900,"Che":3901,"For":3902,"duck":3903,"drum":3904,"eon":3905,"fy":3906,"fest":3907,"link":3908,"liter":3909,"mine":3910,"mock":3911,"oen":3912,"sque":3913,"somn":3914,"uation":3915,"vapor":3916,"era":3917,"inher":3918,"arab":3919,"elin":3920,"reim":3921,"olo":3922,"absor":3923,"noncom":3924,"sham":3925,"spac":3926,"prote":3927,"plas":3928,"never":3929,"athered":3930,"trache":3931,"awa":3932,"rann":3933,"active":3934,"semif":3935,"twenty":3936,"plement":3937,"inning":3938,"ridden":3939,"ready":3940,"effect":3941,"append":3942,"respons":3943,"perfect":3944,"Aust":3945,"Jud":3946,"Med":3947,"Mil":3948,"Mag":3949,"Pel":3950,"Phy":3951,"cros":3952,"canc":3953,"dul":3954,"determin":3955,"girl":3956,"jum":3957,"lily":3958,"pachy":3959,"sig":3960,"tus":3961,"ued":3962,"inize":3963,"oning":3964,"onism":3965,"edged":3966,"orh":3967,"ingen":3968,"itim":3969,"reass":3970,"stor":3971,"through":3972,"ador":3973,"opic":3974,"agglut":3975,"ococc":3976,"odic":3977,"iring":3978,"irrit":3979,"shut":3980,"lov":3981,"ipe":3982,"cob":3983,"express":3984,"train":3985,"web":3986,"weigh":3987,"moid":3988,"hour":3989,"colum":3990,"people":3991,"letter":3992,"curs":3993,"woods":3994,"borne":3995,"iction":3996,"otten":3997,"hypnot":3998,"transp":3999,"sympath":4000,"temper":4001,"ocratic":4002,"ranchiate":4003,"Ben":4004,"Cle":4005,"Dan":4006,"Fer":4007,"Sil":4008,"Ur":4009,"dand":4010,"dend":4011,"dens":4012,"fit":4013,"gain":4014,"hus":4015,"ique":4016,"jew":4017,"lux":4018,"laryng":4019,"oing":4020,"oot":4021,"pand":4022,"pine":4023,"pock":4024,"push":4025,"sob":4026,"sangu":4027,"tell":4028,"urop":4029,"xes":4030,"atrix":4031,"orac":4032,"unth":4033,"chis":4034,"chim":4035,"phle":4036,"ionic":4037,"ulf":4038,"eming":4039,"ematic":4040,"amel":4041,"oping":4042,"antin":4043,"establ":4044,"spong":4045,"proto":4046,"ills":4047,"tru":4048,"scor":4049,"ylike":4050,"bless":4051,"bury":4052,"brach":4053,"righ":4054,"ochrom":4055,"turb":4056,"broken":4057,"demi":4058,"itions":4059,"joint":4060,"thorac":4061,"smoke":4062,"golden":4063,"narrow":4064,"ghost":4065,"wonder":4066,"individ":4067,"Call":4068,"Der":4069,"Rob":4070,"cies":4071,"crit":4072,"cosis":4073,"dos":4074,"dock":4075,"fog":4076,"fant":4077,"foss":4078,"funct":4079,"jig":4080,"lamp":4081,"psy":4082,"say":4083,"wrong":4084,"unpar":4085,"unsl":4086,"elite":4087,"refer":4088,"stret":4089,"rass":4090,"idol":4091,"abdom":4092,"embar":4093,"advent":4094,"utch":4095,"rift":4096,"imo":4097,"apprec":4098,"proph":4099,"forg":4100,"tee":4101,"teen":4102,"toad":4103,"aws":4104,"gling":4105,"glad":4106,"eville":4107,"barbar":4108,"marsh":4109,"headedness":4110,"aft":4111,"straw":4112,"equip":4113,"compass":4114,"bolt":4115,"respond":4116,"physi":4117,"ponder":4118,"albumin":4119,"tubercul":4120,"veget":4121,"Bas":4122,"Jer":4123,"Met":4124,"Mah":4125,"bep":4126,"eel":4127,"fif":4128,"frog":4129,"fasc":4130,"ji":4131,"joc":4132,"lod":4133,"lace":4134,"pell":4135,"pore":4136,"pull":4137,"syl":4138,"tie":4139,"wre":4140,"inth":4141,"anap":4142,"alle":4143,"isa":4144,"orb":4145,"inging":4146,"unge":4147,"reb":4148,"requ":4149,"represent":4150,"learn":4151,"chil":4152,"ilized":4153,"ione":4154,"ulative":4155,"entially":4156,"amus":4157,"river":4158,"tery":4159,"odactyl":4160,"load":4161,"cox":4162,"space":4163,"seism":4164,"ectomies":4165,"blu":4166,"ithec":4167,"illet":4168,"tonic":4169,"kerat":4170,"ika":4171,"snake":4172,"posing":4173,"etics":4174,"desp":4175,"goose":4176,"affect":4177,"content":4178,"priv":4179,"depend":4180,"sensu":4181,"speed":4182,"sanct":4183,"ophthalm":4184,"Bor":4185,"Cass":4186,"Ital":4187,"MP":4188,"Min":4189,"Mart":4190,"New":4191,"Vol":4192,"cram":4193,"cru":4194,"fug":4195,"iphon":4196,"kel":4197,"kers":4198,"later":4199,"mitt":4200,"pto":4201,"pont":4202,"rend":4203,"tat":4204,"yst":4205,"ership":4206,"atus":4207,"arct":4208,"orate":4209,"unar":4210,"union":4211,"rept":4212,"rage":4213,"otes":4214,"otome":4215,"uting":4216,"opl":4217,"imb":4218,"aga":4219,"apple":4220,"spotted":4221,"hyde":4222,"pling":4223,"scy":4224,"pren":4225,"ayed":4226,"beam":4227,"tour":4228,"hoof":4229,"polys":4230,"diam":4231,"myr":4232,"trip":4233,"brass":4234,"anner":4235,"anned":4236,"feed":4237,"feas":4238,"ashing":4239,"strate":4240,"eption":4241,"doub":4242,"ighter":4243,"issa":4244,"uality":4245,"working":4246,"character":4247,"paint":4248,"squam":4249,"purple":4250,"ocyan":4251,"embran":4252,"iliar":4253,"modern":4254,"thorough":4255,"product":4256,"wolf":4257,"Amer":4258,"DC":4259,"Des":4260,"SS":4261,"Sher":4262,"bif":4263,"dat":4264,"fell":4265,"fung":4266,"fresh":4267,"gur":4268,"gos":4269,"hawk":4270,"iably":4271,"lub":4272,"nem":4273,"naph":4274,"oin":4275,"panc":4276,"rism":4277,"uated":4278,"onize":4279,"anil":4280,"engra":4281,"energ":4282,"alo":4283,"icide":4284,"unpl":4285,"stir":4286,"ulatory":4287,"terror":4288,"nonde":4289,"aped":4290,"prob":4291,"expl":4292,"heel":4293,"scope":4294,"dehyde":4295,"ectom":4296,"aya":4297,"ava":4298,"athed":4299,"aches":4300,"semit":4301,"sole":4302,"ureth":4303,"foul":4304,"theor":4305,"brook":4306,"itional":4307,"lines":4308,"ometrically":4309,"laud":4310,"forming":4311,"reflect":4312,"elessly":4313,"bitter":4314,"quinqu":4315,"oxygen":4316,"bottle":4317,"pearl":4318,"suggest":4319,"Bab":4320,"DI":4321,"EC":4322,"Jan":4323,"Lam":4324,"MA":4325,"ains":4326,"bub":4327,"dan":4328,"eating":4329,"fen":4330,"fun":4331,"gic":4332,"gust":4333,"kary":4334,"laden":4335,"mim":4336,"much":4337,"oke":4338,"sist":4339,"tag":4340,"yrin":4341,"inism":4342,"inspir":4343,"atically":4344,"arious":4345,"ungu":4346,"unrec":4347,"sters":4348,"stuff":4349,"leather":4350,"chop":4351,"chain":4352,"idan":4353,"acad":4354,"ulator":4355,"americ":4356,"oton":4357,"otomies":4358,"opex":4359,"verte":4360,"quant":4361,"ipter":4362,"spoon":4363,"process":4364,"ishable":4365,"illust":4366,"scot":4367,"clus":4368,"ophon":4369,"cym":4370,"iere":4371,"syst":4372,"coron":4373,"mata":4374,"haemat":4375,"caly":4376,"catch":4377,"capt":4378,"capital":4379,"cake":4380,"commend":4381,"multi":4382,"arianism":4383,"galact":4384,"expect":4385,"sorrow":4386,"rubber":4387,"lemn":4388,"drawn":4389,"necked":4390,"young":4391,"producing":4392,"twelve":4393,"Bol":4394,"Cur":4395,"Ho":4396,"Il":4397,"Kal":4398,"Roman":4399,"Tam":4400,"Wal":4401,"augh":4402,"bree":4403,"crust":4404,"dian":4405,"eur":4406,"gad":4407,"gment":4408,"had":4409,"job":4410,"kar":4411,"mug":4412,"muck":4413,"nail":4414,"othe":4415,"russ":4416,"trot":4417,"vil":4418,"wrap":4419,"inet":4420,"inating":4421,"influ":4422,"arial":4423,"itous":4424,"strip":4425,"level":4426,"ilar":4427,"acre":4428,"acle":4429,"ulates":4430,"asal":4431,"entom":4432,"osed":4433,"uma":4434,"opsych":4435,"ims":4436,"ocry":4437,"shar":4438,"unde":4439,"astro":4440,"ows":4441,"blaz":4442,"tool":4443,"corrupt":4444,"match":4445,"redis":4446,"method":4447,"eval":4448,"politic":4449,"tons":4450,"ights":4451,"barrel":4452,"tym":4453,"maz":4454,"copper":4455,"fertil":4456,"fever":4457,"unci":4458,"swift":4459,"ours":4460,"vision":4461,"transc":4462,"crim":4463,"sided":4464,"spirited":4465,"otyp":4466,"ophilous":4467,"oblastic":4468,"spher":4469,"orrhaphy":4470,"Cher":4471,"Ev":4472,"Mes":4473,"Mid":4474,"Mill":4475,"Red":4476,"bent":4477,"ez":4478,"got":4479,"gill":4480,"govern":4481,"oat":4482,"pian":4483,"sad":4484,"sir":4485,"smen":4486,"tid":4487,"vio":4488,"zym":4489,"instruct":4490,"eses":4491,"altern":4492,"edge":4493,"arith":4494,"stup":4495,"lev":4496,"left":4497,"change":4498,"eti":4499,"ulter":4500,"thym":4501,"odend":4502,"antist":4503,"antness":4504,"antine":4505,"ipper":4506,"conserv":4507,"epi":4508,"undef":4509,"uding":4510,"near":4511,"forth":4512,"yls":4513,"compar":4514,"bean":4515,"icker":4516,"matical":4517,"insur":4518,"poll":4519,"marked":4520,"theat":4521,"ashed":4522,"blephar":4523,"All":4524,"anked":4525,"bald":4526,"patron":4527,"command":4528,"ettle":4529,"agnet":4530,"silic":4531,"hydrogen":4532,"Proto":4533,"expans":4534,"duod":4535,"condens":4536,"oderm":4537,"employ":4538,"AA":4539,"Bern":4540,"Cat":4541,"ES":4542,"Glen":4543,"Ker":4544,"Neg":4545,"ault":4546,"bim":4547,"bore":4548,"bond":4549,"cine":4550,"fi":4551,"fid":4552,"fill":4553,"father":4554,"kid":4555,"mund":4556,"rath":4557,"sne":4558,"saf":4559,"sphen":4560,"sarc":4561,"inqu":4562,"inity":4563,"ende":4564,"unman":4565,"uncl":4566,"unbl":4567,"unrel":4568,"itated":4569,"rout":4570,"stag":4571,"stalk":4572,"leuk":4573,"chief":4574,"etto":4575,"phem":4576,"omel":4577,"omeness":4578,"idence":4579,"ules":4580,"embro":4581,"amper":4582,"ampl":4583,"import":4584,"suas":4585,"shed":4586,"esting":4587,"coad":4588,"preter":4589,"prepar":4590,"ibilities":4591,"plane":4592,"hee":4593,"uple":4594,"acea":4595,"matically":4596,"glac":4597,"glish":4598,"acting":4599,"ropod":4600,"pollin":4601,"poison":4602,"haul":4603,"eyes":4604,"lette":4605,"german":4606,"trim":4607,"ashes":4608,"ochron":4609,"caus":4610,"lastic":4611,"alkal":4612,"fract":4613,"quadri":4614,"ophorous":4615,"otropism":4616,"voiced":4617,"propag":4618,"ospore":4619,"bridge":4620,"alcohol":4621,"Ak":4622,"Cas":4623,"Cyn":4624,"Go":4625,"Jo":4626,"MI":4627,"bio":4628,"cis":4629,"fu":4630,"fut":4631,"fist":4632,"gir":4633,"has":4634,"hort":4635,"laz":4636,"mess":4637,"nine":4638,"nect":4639,"pis":4640,"sword":4641,"tart":4642,"trem":4643,"vap":4644,"wester":4645,"yar":4646,"zinc":4647,"invent":4648,"onn":4649,"ania":4650,"ede":4651,"order":4652,"unrep":4653,"roch":4654,"lepid":4655,"chir":4656,"rast":4657,"acia":4658,"acted":4659,"aciousness":4660,"abi":4661,"embra":4662,"osome":4663,"peris":4664,"anted":4665,"sud":4666,"loose":4667,"ifol":4668,"cou":4669,"speck":4670,"plur":4671,"obed":4672,"obranch":4673,"observ":4674,"iales":4675,"devel":4676,"foret":4677,"ylene":4678,"ophone":4679,"ugn":4680,"flesh":4681,"parap":4682,"matous":4683,"when":4684,"rative":4685,"meat":4686,"annel":4687,"auth":4688,"swing":4689,"desc":4690,"palat":4691,"knot":4692,"arius":4693,"squir":4694,"belie":4695,"sheet":4696,"otechn":4697,"excit":4698,"bellied":4699,"ophagous":4700,"wrought":4701,"intellectual":4702,"Ara":4703,"Cry":4704,"Lat":4705,"Land":4706,"Lyn":4707,"Ple":4708,"RA":4709,"Sw":4710,"Sel":4711,"Tor":4712,"aec":4713,"ci":4714,"cip":4715,"cach":4716,"cele":4717,"doll":4718,"fret":4719,"fring":4720,"hung":4721,"ij":4722,"iad":4723,"jun":4724,"kish":4725,"sic":4726,"syllab":4727,"tog":4728,"uy":4729,"wife":4730,"ycl":4731,"erer":4732,"alities":4733,"unsub":4734,"chen":4735,"ilation":4736,"ilization":4737,"rade":4738,"phth":4739,"aciously":4740,"asing":4741,"abstra":4742,"ames":4743,"otin":4744,"antif":4745,"quart":4746,"irs":4747,"ellig":4748,"spear":4749,"ersville":4750,"undes":4751,"undel":4752,"prem":4753,"force":4754,"beaut":4755,"parallel":4756,"selen":4757,"ints":4758,"moor":4759,"woven":4760,"ratch":4761,"bare":4762,"ovel":4763,"hered":4764,"azine":4765,"cern":4766,"axon":4767,"autoc":4768,"incre":4769,"recip":4770,"oured":4771,"rolling":4772,"ivenesses":4773,"lands":4774,"divers":4775,"driven":4776,"soci":4777,"flood":4778,"sensit":4779,"question":4780,"Az":4781,"Ale":4782,"Dem":4783,"Heter":4784,"RO":4785,"cted":4786,"caut":4787,"dun":4788,"dit":4789,"gird":4790,"hr":4791,"hul":4792,"iper":4793,"little":4794,"punch":4795,"rar":4796,"rall":4797,"sighted":4798,"tob":4799,"anac":4800,"anne":4801,"enia":4802,"unac":4803,"unqu":4804,"elian":4805,"rey":4806,"chord":4807,"oler":4808,"omes":4809,"aca":4810,"thec":4811,"thank":4812,"thumb":4813,"amal":4814,"ogue":4815,"istle":4816,"imble":4817,"ague":4818,"ifiers":4819,"coag":4820,"spell":4821,"preex":4822,"plot":4823,"seal":4824,"heath":4825,"prison":4826,"tea":4827,"assert":4828,"ensit":4829,"oker":4830,"gler":4831,"woe":4832,"welling":4833,"ratt":4834,"guar":4835,"iki":4836,"central":4837,"pseudos":4838,"panic":4839,"deprec":4840,"silk":4841,"sides":4842,"plication":4843,"rously":4844,"symbol":4845,"boards":4846,"heartedly":4847,"lipped":4848,"conduct":4849,"Neo":4850,"shoul":4851,"ocarpous":4852,"street":4853,"needle":4854,"igenous":4855,"Lev":4856,"Mos":4857,"Ol":4858,"PC":4859,"Slav":4860,"base":4861,"dub":4862,"lies":4863,"lung":4864,"narc":4865,"ply":4866,"pans":4867,"pose":4868,"rion":4869,"sight":4870,"somat":4871,"tas":4872,"vid":4873,"vex":4874,"vass":4875,"vacc":4876,"inos":4877,"icist":4878,"arrow":4879,"arbor":4880,"unit":4881,"unap":4882,"itative":4883,"rash":4884,"olt":4885,"omit":4886,"ulent":4887,"thon":4888,"thous":4889,"aber":4890,"abet":4891,"abber":4892,"absol":4893,"emaker":4894,"amn":4895,"ogyn":4896,"impress":4897,"supr":4898,"loph":4899,"ands":4900,"span":4901,"prefer":4902,"illumin":4903,"trin":4904,"scra":4905,"pror":4906,"clar":4907,"clay":4908,"paraph":4909,"icks":4910,"atorily":4911,"okes":4912,"intellig":4913,"gles":4914,"soap":4915,"grain":4916,"kery":4917,"omycet":4918,"caul":4919,"accept":4920,"transfer":4921,"ernal":4922,"osphere":4923,"special":4924,"contract":4925,"appropri":4926,"phosphor":4927,"osaurus":4928,"favor":4929,"esthetic":4930,"Flor":4931,"Gl":4932,"Gil":4933,"NA":4934,"NS":4935,"Od":4936,"Ot":4937,"Pl":4938,"Rom":4939,"Wood":4940,"duc":4941,"dumb":4942,"hast":4943,"lest":4944,"mell":4945,"must":4946,"mira":4947,"nud":4948,"pav":4949,"soph":4950,"song":4951,"tical":4952,"whole":4953,"erite":4954,"esia":4955,"alve":4956,"isse":4957,"unequ":4958,"elev":4959,"stad":4960,"chuck":4961,"chole":4962,"pharyng":4963,"ionless":4964,"throm":4965,"osal":4966,"amber":4967,"ady":4968,"opal":4969,"verse":4970,"nonsub":4971,"quit":4972,"suit":4973,"ipot":4974,"ples":4975,"tril":4976,"scient":4977,"format":4978,"aki":4979,"indec":4980,"monos":4981,"ween":4982,"intim":4983,"intens":4984,"moist":4985,"ographist":4986,"ographies":4987,"struck":4988,"stricken":4989,"reek":4990,"mening":4991,"accum":4992,"charge":4993,"homoe":4994,"eech":4995,"orthod":4996,"teleg":4997,"jointed":4998,"amphib":4999,"aryngeal":5000,"cotton":5001,"success":5002,"every":5003,"ogamy":5004,"candle":5005,"growing":5006,"cylind":5007,"cheeked":5008,"By":5009,"Green":5010,"RC":5011,"Str":5012,"War":5013,"ao":5014,"bie":5015,"bach":5016,"cren":5017,"cuss":5018,"dac":5019,"fied":5020,"langu":5021,"mec":5022,"null":5023,"oer":5024,"pum":5025,"page":5026,"rally":5027,"sie":5028,"sult":5029,"uel":5030,"wright":5031,"anus":5032,"alised":5033,"icient":5034,"aris":5035,"oration":5036,"orousness":5037,"itish":5038,"itution":5039,"stub":5040,"stomat":5041,"ilate":5042,"ilib":5043,"etting":5044,"acity":5045,"them":5046,"urin":5047,"oso":5048,"rium":5049,"riage":5050,"eccles":5051,"noninter":5052,"noncont":5053,"loqu":5054,"contr":5055,"coach":5056,"spat":5057,"spark":5058,"epip":5059,"undist":5060,"hypost":5061,"udes":5062,"trid":5063,"sci":5064,"ectic":5065,"manif":5066,"aky":5067,"yled":5068,"ophyl":5069,"blenn":5070,"toed":5071,"week":5072,"awed":5073,"glaz":5074,"solemn":5075,"ularity":5076,"grave":5077,"retin":5078,"pleuro":5079,"ateral":5080,"snap":5081,"hemi":5082,"rolled":5083,"roller":5084,"breaking":5085,"rophot":5086,"canon":5087,"erythro":5088,"valid":5089,"formation":5090,"craw":5091,"strap":5092,"version":5093,"crib":5094,"eking":5095,"odontidae":5096,"argent":5097,"Amph":5098,"McC":5099,"alien":5100,"antimon":5101,"rology":5102,"pneumat":5103,"itutional":5104,"episcop":5105,"violet":5106,"Ca":5107,"Japan":5108,"RE":5109,"Sa":5110,"Sph":5111,"deter":5112,"dull":5113,"grim":5114,"jut":5115,"kan":5116,"lop":5117,"lamin":5118,"sold":5119,"sext":5120,"atum":5121,"isol":5122,"uniform":5123,"stam":5124,"chry":5125,"olitic":5126,"ession":5127,"accent":5128,"thm":5129,"thet":5130,"asic":5131,"uration":5132,"ems":5133,"otically":5134,"umat":5135,"ivism":5136,"imin":5137,"aggress":5138,"izen":5139,"odal":5140,"odynia":5141,"convent":5142,"ests":5143,"cook":5144,"exped":5145,"season":5146,"aller":5147,"scand":5148,"owing":5149,"prin":5150,"neigh":5151,"forec":5152,"induc":5153,"anga":5154,"flash":5155,"acker":5156,"tachy":5157,"cyclo":5158,"monarch":5159,"wee":5160,"weary":5161,"ustic":5162,"mole":5163,"rescent":5164,"oneph":5165,"semib":5166,"ocked":5167,"meal":5168,"ouch":5169,"fear":5170,"axes":5171,"eptic":5172,"poster":5173,"inny":5174,"othec":5175,"ouring":5176,"breasted":5177,"ailed":5178,"refract":5179,"omorphism":5180,"concept":5181,"rific":5182,"condition":5183,"fingered":5184,"discip":5185,"opathic":5186,"connect":5187,"iparous":5188,"itudin":5189,"material":5190,"French":5191,"Gold":5192,"Lem":5193,"Lim":5194,"On":5195,"PA":5196,"Po":5197,"Pen":5198,"She":5199,"Tal":5200,"baw":5201,"critic":5202,"from":5203,"frat":5204,"fond":5205,"frag":5206,"gay":5207,"gier":5208,"iability":5209,"mu":5210,"mun":5211,"moss":5212,"moll":5213,"name":5214,"oan":5215,"peg":5216,"ride":5217,"ws":5218,"wy":5219,"alter":5220,"arcom":5221,"unhe":5222,"unass":5223,"iture":5224,"element":5225,"stones":5226,"leen":5227,"chat":5228,"chev":5229,"user":5230,"acin":5231,"abo":5232,"entral":5233,"amental":5234,"advert":5235,"utes":5236,"rival":5237,"ods":5238,"verb":5239,"nondef":5240,"antib":5241,"qua":5242,"ques":5243,"ellip":5244,"prost":5245,"protop":5246,"epend":5247,"asts":5248,"pregn":5249,"udge":5250,"alloc":5251,"scro":5252,"prud":5253,"mans":5254,"angs":5255,"boom":5256,"acked":5257,"system":5258,"rance":5259,"hoe":5260,"meth":5261,"understand":5262,"dering":5263,"ption":5264,"ighting":5265,"minim":5266,"skinned":5267,"microp":5268,"ferment":5269,"strum":5270,"igned":5271,"grind":5272,"recogn":5273,"chee":5274,"pseudoc":5275,"breaker":5276,"ennial":5277,"presby":5278,"synchron":5279,"hollow":5280,"tranqu":5281,"window":5282,"mindedly":5283,"hipp":5284,"gnath":5285,"novel":5286,"siphon":5287,"integr":5288,"Fred":5289,"OC":5290,"Pat":5291,"RI":5292,"Rich":5293,"Russ":5294,"Tet":5295,"Ther":5296,"fiss":5297,"jib":5298,"kne":5299,"kines":5300,"lis":5301,"mop":5302,"mish":5303,"mold":5304,"mile":5305,"pag":5306,"syll":5307,"torn":5308,"uating":5309,"anem":5310,"atives":5311,"orc":5312,"orical":5313,"unter":5314,"unres":5315,"elabor":5316,"chic":5317,"chit":5318,"oled":5319,"acies":5320,"uri":5321,"urate":5322,"abs":5323,"ente":5324,"osin":5325,"adjust":5326,"administ":5327,"utation":5328,"oda":5329,"perip":5330,"igne":5331,"shaw":5332,"ando":5333,"proud":5334,"propri":5335,"preen":5336,"hymen":5337,"endor":5338,"ophob":5339,"upper":5340,"worship":5341,"worms":5342,"cortic":5343,"glor":5344,"gland":5345,"metap":5346,"slender":5347,"romantic":5348,"skir":5349,"brady":5350,"cereb":5351,"featured":5352,"decol":5353,"malle":5354,"cheer":5355,"crab":5356,"depress":5357,"hypoc":5358,"nerv":5359,"distribut":5360,"phenomen":5361,"plicate":5362,"linear":5363,"cruc":5364,"horned":5365,"rayed":5366,"hued":5367,"ribbed":5368,"separ":5369,"roofed":5370,"princip":5371,"Ba":5372,"Cel":5373,"FS":5374,"Pter":5375,"Ram":5376,"West":5377,"aine":5378,"bust":5379,"cous":5380,"eer":5381,"euc":5382,"femin":5383,"frank":5384,"gs":5385,"gil":5386,"gag":5387,"lang":5388,"lamb":5389,"male":5390,"nel":5391,"nia":5392,"oic":5393,"pard":5394,"text":5395,"ui":5396,"uvi":5397,"wink":5398,"wave":5399,"yt":5400,"anian":5401,"enchy":5402,"alise":5403,"alumin":5404,"isan":5405,"icated":5406,"arism":5407,"arach":5408,"oro":5409,"unlo":5410,"unte":5411,"sta":5412,"chand":5413,"olum":5414,"acar":5415,"ulin":5416,"ulations":5417,"asse":5418,"abe":5419,"emaking":5420,"osy":5421,"ados":5422,"adip":5423,"opard":5424,"ocular":5425,"nondec":5426,"qui":5427,"cone":5428,"exual":5429,"prevent":5430,"scab":5431,"sciss":5432,"scrut":5433,"deer":5434,"deuter":5435,"ayan":5436,"fork":5437,"yless":5438,"flame":5439,"tah":5440,"tach":5441,"cyn":5442,"monopol":5443,"peace":5444,"slav":5445,"toned":5446,"ratic":5447,"oxyl":5448,"archit":5449,"anthus":5450,"irect":5451,"ochro":5452,"contin":5453,"laid":5454,"patch":5455,"zeal":5456,"bones":5457,"iousnesses":5458,"fluid":5459,"music":5460,"furn":5461,"film":5462,"tinted":5463,"course":5464,"opoda":5465,"glycer":5466,"news":5467,"gelatin":5468,"climat":5469,"juven":5470,"chamber":5471,"dodec":5472,"oglyph":5473,"Dic":5474,"Ga":5475,"Hen":5476,"IC":5477,"Lin":5478,"Lind":5479,"Myr":5480,"Ro":5481,"bail":5482,"cuck":5483,"crin":5484,"dir":5485,"dib":5486,"east":5487,"file":5488,"gamb":5489,"his":5490,"hut":5491,"hind":5492,"iator":5493,"kol":5494,"lack":5495,"lign":5496,"pated":5497,"pau":5498,"puff":5499,"rell":5500,"sis":5501,"sip":5502,"sow":5503,"satur":5504,"tess":5505,"tann":5506,"uary":5507,"wast":5508,"yes":5509,"yak":5510,"alian":5511,"orism":5512,"itating":5513,"elon":5514,"sting":5515,"usively":5516,"eton":5517,"phra":5518,"essed":5519,"ioning":5520,"ionism":5521,"thus":5522,"ami":5523,"otri":5524,"adapt":5525,"riform":5526,"apa":5527,"appoint":5528,"andro":5529,"astically":5530,"aeus":5531,"scatter":5532,"prere":5533,"ayer":5534,"fored":5535,"forward":5536,"enda":5537,"clock":5538,"blers":5539,"bloss":5540,"compet":5541,"flam":5542,"uba":5543,"tained":5544,"resur":5545,"lower":5546,"metry":5547,"evangel":5548,"poor":5549,"grac":5550,"oven":5551,"oval":5552,"mercur":5553,"abled":5554,"annex":5555,"lingu":5556,"fern":5557,"decom":5558,"hydroph":5559,"gru":5560,"pyram":5561,"porphy":5562,"unts":5563,"palm":5564,"lander":5565,"butt":5566,"smart":5567,"legis":5568,"infect":5569,"depos":5570,"troch":5571,"musk":5572,"moder":5573,"middle":5574,"occip":5575,"books":5576,"treat":5577,"ophilic":5578,"ophora":5579,"iosity":5580,"uddle":5581,"fibro":5582,"pigeon":5583,"flagell":5584,"toler":5585,"false":5586,"Palae":5587,"oplasm":5588,"thirty":5589,"hospit":5590,"particip":5591,"Jacob":5592,"crested":5593,"plough":5594,"Brit":5595,"Cro":5596,"Cast":5597,"Cath":5598,"Do":5599,"Dur":5600,"Lar":5601,"Sin":5602,"Tra":5603,"Tim":5604,"Wel":5605,"bom":5606,"bite":5607,"bapt":5608,"cn":5609,"dou":5610,"eag":5611,"eup":5612,"foc":5613,"fund":5614,"franch":5615,"hit":5616,"hug":5617,"lach":5618,"lance":5619,"mem":5620,"psal":5621,"tig":5622,"tact":5623,"zi":5624,"anas":5625,"atm":5626,"attract":5627,"alc":5628,"alic":5629,"uni":5630,"uned":5631,"unself":5632,"unconf":5633,"itively":5634,"roscop":5635,"oling":5636,"etes":5637,"omous":5638,"omphal":5639,"ulant":5640,"emas":5641,"oto":5642,"umed":5643,"eced":5644,"opisth":5645,"iva":5646,"imes":5647,"imag":5648,"agra":5649,"anting":5650,"irrig":5651,"shri":5652,"program":5653,"examin":5654,"hyps":5655,"ucker":5656,"heim":5657,"obst":5658,"obacter":5659,"akers":5660,"blank":5661,"inda":5662,"bead":5663,"tein":5664,"atories":5665,"toe":5666,"ropic":5667,"ocking":5668,"sooth":5669,"ego":5670,"food":5671,"gradu":5672,"ultural":5673,"tyrann":5674,"mail":5675,"anni":5676,"uncle":5677,"autos":5678,"ochlor":5679,"recur":5680,"deser":5681,"design":5682,"atten":5683,"vener":5684,"caud":5685,"offs":5686,"unny":5687,"multic":5688,"strait":5689,"flux":5690,"concili":5691,"onych":5692,"analog":5693,"orrho":5694,"uscept":5695,"frequ":5696,"olithic":5697,"bottom":5698,"Christian":5699,"likeness":5700,"Whit":5701,"evolution":5702,"navig":5703,"individual":5704,"Hart":5705,"Im":5706,"Je":5707,"John":5708,"Kir":5709,"Lo":5710,"MT":5711,"Mas":5712,"Mur":5713,"Sp":5714,"Scot":5715,"Semi":5716,"bism":5717,"bend":5718,"bang":5719,"brim":5720,"city":5721,"camph":5722,"dies":5723,"eud":5724,"fted":5725,"filled":5726,"giest":5727,"iative":5728,"jub":5729,"lins":5730,"lute":5731,"lumin":5732,"noct":5733,"pub":5734,"pile":5735,"sized":5736,"tower":5737,"uer":5738,"inoc":5739,"inia":5740,"inidae":5741,"onist":5742,"eship":5743,"enal":5744,"orhy":5745,"orously":5746,"uncor":5747,"reper":5748,"reason":5749,"chyl":5750,"rak":5751,"etter":5752,"omast":5753,"acus":5754,"acular":5755,"abil":5756,"ameter":5757,"otism":5758,"umbr":5759,"ripe":5760,"econom":5761,"apped":5762,"antil":5763,"antig":5764,"lost":5765,"ells":5766,"exhib":5767,"prev":5768,"pler":5769,"plumb":5770,"platin":5771,"keys":5772,"deaf":5773,"pris":5774,"endoc":5775,"subter":5776,"trade":5777,"worse":5778,"monoc":5779,"tough":5780,"fulnesses":5781,"miser":5782,"intend":5783,"introd":5784,"rices":5785,"matur":5786,"glomer":5787,"soon":5788,"ptic":5789,"oxin":5790,"microm":5791,"germin":5792,"marble":5793,"deck":5794,"country":5795,"rigged":5796,"snuff":5797,"center":5798,"goat":5799,"handedness":5800,"regist":5801,"ridge":5802,"warrant":5803,"domin":5804,"surf":5805,"clothes":5806,"ollen":5807,"secut":5808,"weeds":5809,"flowing":5810,"pulver":5811,"rify":5812,"ophytic":5813,"opsis":5814,"service":5815,"rooted":5816,"though":5817,"ocephalous":5818,"borough":5819,"necess":5820,"Brah":5821,"catech":5822,"browed":5823,"oscill":5824,"otoxin":5825,"Chal":5826,"Dal":5827,"Dav":5828,"Eu":5829,"Fre":5830,"Gen":5831,"Han":5832,"Hell":5833,"Ken":5834,"Lib":5835,"Laur":5836,"Mol":5837,"RT":5838,"Wol":5839,"aic":5840,"bard":5841,"bility":5842,"bane":5843,"bble":5844,"cence":5845,"canth":5846,"cane":5847,"cott":5848,"cili":5849,"cris":5850,"duct":5851,"different":5852,"fric":5853,"ih":5854,"iates":5855,"iological":5856,"kiss":5857,"nag":5858,"nymph":5859,"pate":5860,"pond":5861,"sut":5862,"sop":5863,"vall":5864,"ych":5865,"inas":5866,"inable":5867,"onder":5868,"alising":5869,"editor":5870,"icer":5871,"orium":5872,"orange":5873,"reco":5874,"starch":5875,"chet":5876,"chest":5877,"usur":5878,"phone":5879,"omely":5880,"ulo":5881,"ultr":5882,"entre":5883,"emn":5884,"emble":5885,"osities":5886,"otax":5887,"otrophic":5888,"ogs":5889,"agh":5890,"agree":5891,"pery":5892,"perpet":5893,"shoe":5894,"shallow":5895,"illus":5896,"sevent":5897,"keeping":5898,"trench":5899,"aye":5900,"clusion":5901,"combin":5902,"boats":5903,"beard":5904,"bearded":5905,"flies":5906,"acknow":5907,"icked":5908,"mono":5909,"oky":5910,"derm":5911,"foil":5912,"minister":5913,"rows":5914,"bru":5915,"archic":5916,"anning":5917,"strang":5918,"unsur":5919,"Anth":5920,"does":5921,"hydra":5922,"pyr":5923,"swan":5924,"attle":5925,"iformes":5926,"culate":5927,"ruf":5928,"ailing":5929,"legitim":5930,"atics":5931,"ordain":5932,"ousnesses":5933,"depart":5934,"pressed":5935,"visaged":5936,"topped":5937,"circu":5938,"cutter":5939,"note":5940,"splan":5941,"limbed":5942,"jection":5943,"group":5944,"engine":5945,"protect":5946,"balls":5947,"otypic":5948,"iacal":5949,"chloro":5950,"opodous":5951,"opteryg":5952,"factor":5953,"standard":5954,"vulgar":5955,"speaking":5956,"mouse":5957,"ophyllous":5958,"ozoic":5959,"Turk":5960,"ocentric":5961,"riction":5962,"liquid":5963,"birth":5964,"emphas":5965,"gentleman":5966,"systemat":5967,"tympan":5968,"authent":5969,"Br":5970,"Bat":5971,"DE":5972,"Kat":5973,"LS":5974,"Long":5975,"MC":5976,"Nov":5977,"TA":5978,"Wy":5979,"Will":5980,"aub":5981,"beck":5982,"cret":5983,"ders":5984,"eury":5985,"find":5986,"fare":5987,"gian":5988,"grip":5989,"hund":5990,"jan":5991,"kit":5992,"mend":5993,"nik":5994,"numer":5995,"pug":5996,"sack":5997,"sore":5998,"tos":5999,"tunn":6000,"yield":6001,"escap":6002,"ensu":6003,"alite":6004,"ischi":6005,"unting":6006,"itiously":6007,"elastic":6008,"rotic":6009,"record":6010,"stay":6011,"stool":6012,"chart":6013,"chrys":6014,"olys":6015,"etted":6016,"omical":6017,"accommod":6018,"abel":6019,"adam":6020,"adren":6021,"agre":6022,"iza":6023,"periph":6024,"nonin":6025,"apo":6026,"apolog":6027,"appet":6028,"antes":6029,"antep":6030,"quot":6031,"ircum":6032,"shev":6033,"conform":6034,"cole":6035,"spr":6036,"overex":6037,"ucer":6038,"alla":6039,"allen":6040,"scen":6041,"forc":6042,"forep":6043,"cled":6044,"ophosph":6045,"disco":6046,"outw":6047,"inters":6048,"syphil":6049,"move":6050,"geon":6051,"lowing":6052,"hoop":6053,"glott":6054,"metrical":6055,"sou":6056,"insol":6057,"event":6058,"evapor":6059,"peac":6060,"ularia":6061,"rowed":6062,"myri":6063,"marg":6064,"ferro":6065,"auch":6066,"ignor":6067,"hydros":6068,"tured":6069,"regard":6070,"volat":6071,"laugh":6072,"purg":6073,"multif":6074,"thyro":6075,"support":6076,"ozon":6077,"better":6078,"Indo":6079,"boxes":6080,"faction":6081,"social":6082,"nitro":6083,"beggar":6084,"sperm":6085,"uscular":6086,"enthus":6087,"rooms":6088,"imetry":6089,"imetric":6090,"spiritual":6091,"gynec":6092,"honor":6093,"chondro":6094,"sounding":6095,"icolous":6096,"Teut":6097,"breathing":6098,"opinion":6099,"oglobin":6100,"Dol":6101,"Dec":6102,"FE":6103,"Fal":6104,"Ful":6105,"Hor":6106,"LA":6107,"Moh":6108,"NC":6109,"Oph":6110,"Port":6111,"San":6112,"Span":6113,"Saint":6114,"TO":6115,"aque":6116,"dext":6117,"eul":6118,"fr":6119,"fs":6120,"fab":6121,"gross":6122,"march":6123,"memor":6124,"nam":6125,"nie":6126,"peck":6127,"ryl":6128,"sort":6129,"tul":6130,"tically":6131,"tier":6132,"tile":6133,"voy":6134,"why":6135,"wagon":6136,"zan":6137,"zel":6138,"inist":6139,"onically":6140,"anist":6141,"anize":6142,"atine":6143,"atry":6144,"enosis":6145,"alty":6146,"isy":6147,"ares":6148,"arine":6149,"arrang":6150,"unle":6151,"unexc":6152,"iton":6153,"itus":6154,"chast":6155,"usa":6156,"ilely":6157,"rae":6158,"rake":6159,"thetic":6160,"thio":6161,"emig":6162,"opaed":6163,"imic":6164,"ococ":6165,"apter":6166,"sha":6167,"shear":6168,"iffl":6169,"convers":6170,"conjug":6171,"speech":6172,"iang":6173,"ianize":6174,"obenz":6175,"nebul":6176,"forty":6177,"boys":6178,"beet":6179,"teas":6180,"lied":6181,"icking":6182,"achromat":6183,"acean":6184,"glos":6185,"glig":6186,"ropter":6187,"egy":6188,"whel":6189,"whir":6190,"collar":6191,"polym":6192,"baron":6193,"herb":6194,"trigon":6195,"brag":6196,"dough":6197,"inks":6198,"zoic":6199,"catal":6200,"accus":6201,"bye":6202,"ventric":6203,"paed":6204,"predic":6205,"viscer":6206,"bench":6207,"amino":6208,"omorphous":6209,"basket":6210,"tempered":6211,"simple":6212,"treas":6213,"fault":6214,"ophagy":6215,"firm":6216,"liberal":6217,"burning":6218,"empir":6219,"ocephalic":6220,"etalous":6221,"civil":6222,"execut":6223,"public":6224,"lichen":6225,"neutral":6226,"dacry":6227,"acknowled":6228,"splanchn":6229,"Ah":6230,"Act":6231,"DT":6232,"LC":6233,"LO":6234,"Lab":6235,"Latin":6236,"ME":6237,"Mach":6238,"Ok":6239,"PO":6240,"Ped":6241,"Pod":6242,"Phyl":6243,"Paul":6244,"Rhod":6245,"Su":6246,"Tel":6247,"Tom":6248,"beth":6249,"dess":6250,"gom":6251,"goss":6252,"giving":6253,"jing":6254,"kam":6255,"lil":6256,"lant":6257,"lard":6258,"lup":6259,"membran":6260,"national":6261,"oak":6262,"pump":6263,"rations":6264,"swell":6265,"viz":6266,"wur":6267,"wrist":6268,"yne":6269,"inely":6270,"inoid":6271,"esophag":6272,"aned":6273,"anchor":6274,"alum":6275,"isch":6276,"icidal":6277,"elder":6278,"repe":6279,"stage":6280,"strom":6281,"story":6282,"staphyl":6283,"chanc":6284,"champ":6285,"usiveness":6286,"phleg":6287,"esse":6288,"omo":6289,"aces":6290,"accord":6291,"uliform":6292,"thall":6293,"emet":6294,"adelph":6295,"ouses":6296,"ogg":6297,"ista":6298,"rimin":6299,"odle":6300,"ationism":6301,"vermin":6302,"nonim":6303,"iaz":6304,"shy":6305,"ipped":6306,"concent":6307,"estic":6308,"epil":6309,"illon":6310,"neo":6311,"endo":6312,"ostra":6313,"comed":6314,"commerc":6315,"induct":6316,"bew":6317,"beef":6318,"ubber":6319,"asser":6320,"asses":6321,"interrog":6322,"ensive":6323,"achie":6324,"weet":6325,"metamorph":6326,"carpet":6327,"eved":6328,"polit":6329,"diap":6330,"peach":6331,"ofib":6332,"lett":6333,"triv":6334,"guer":6335,"aze":6336,"azo":6337,"orning":6338,"decar":6339,"serpent":6340,"veined":6341,"axillary":6342,"recept":6343,"curv":6344,"salping":6345,"uckle":6346,"brother":6347,"lord":6348,"knock":6349,"contro":6350,"capit":6351,"rhod":6352,"schol":6353,"wardly":6354,"urage":6355,"resses":6356,"ussed":6357,"delic":6358,"potent":6359,"splend":6360,"foreign":6361,"expand":6362,"tempest":6363,"help":6364,"arthro":6365,"ophoric":6366,"days":6367,"faith":6368,"shoot":6369,"liver":6370,"rabbit":6371,"drunk":6372,"jury":6373,"baby":6374,"pneumon":6375,"substanti":6376,"ocoel":6377,"writing":6378,"natured":6379,"bacteri":6380,"pericard":6381,"building":6382,"investig":6383,"Adam":6384,"BA":6385,"Bry":6386,"Card":6387,"Clar":6388,"DA":6389,"Dy":6390,"Dam":6391,"Gym":6392,"Len":6393,"Mary":6394,"Nic":6395,"PE":6396,"PI":6397,"Pic":6398,"Pur":6399,"Ven":6400,"bak":6401,"dler":6402,"eater":6403,"fust":6404,"hing":6405,"iamb":6406,"kon":6407,"kok":6408,"lid":6409,"lur":6410,"lia":6411,"lug":6412,"noc":6413,"sund":6414,"sax":6415,"toc":6416,"tint":6417,"aner":6418,"anther":6419,"alis":6420,"isot":6421,"isop":6422,"iche":6423,"arra":6424,"arize":6425,"orize":6426,"iti":6427,"rece":6428,"reve":6429,"sted":6430,"stout":6431,"stair":6432,"chick":6433,"pha":6434,"ioner":6435,"ulas":6436,"ulary":6437,"ulously":6438,"third":6439,"uron":6440,"adder":6441,"uta":6442,"umm":6443,"opson":6444,"agic":6445,"octa":6446,"pert":6447,"perine":6448,"nonco":6449,"apprehens":6450,"antism":6451,"quam":6452,"shin":6453,"shield":6454,"consol":6455,"concert":6456,"elles":6457,"andra":6458,"prom":6459,"exis":6460,"illar":6461,"avel":6462,"endable":6463,"indle":6464,"discrimin":6465,"outf":6466,"para":6467,"parent":6468,"oka":6469,"intent":6470,"rese":6471,"rics":6472,"reduc":6473,"ahu":6474,"carry":6475,"carcin":6476,"haunted":6477,"minth":6478,"rater":6479,"oves":6480,"oved":6481,"trig":6482,"guan":6483,"market":6484,"feathered":6485,"strid":6486,"tings":6487,"Ant":6488,"Angl":6489,"hydrate":6490,"sons":6491,"ushing":6492,"aree":6493,"affir":6494,"ethane":6495,"knife":6496,"cats":6497,"regular":6498,"infinit":6499,"onics":6500,"times":6501,"hypn":6502,"troubl":6503,"diver":6504,"precipit":6505,"odontia":6506,"join":6507,"duplic":6508,"lamy":6509,"sulphur":6510,"optera":6511,"udding":6512,"blooded":6513,"physic":6514,"profit":6515,"lapar":6516,"succin":6517,"floor":6518,"signific":6519,"mannered":6520,"blown":6521,"dolich":6522,"aspir":6523,"tipped":6524,"fruited":6525,"cultiv":6526,"machine":6527,"stomach":6528,"journal":6529,"peritone":6530,"tradition":6531,"lubric":6532,"academ":6533,"opexy":6534,"Bul":6535,"Cop":6536,"Corn":6537,"Du":6538,"Den":6539,"Ele":6540,"Gor":6541,"Good":6542,"MO":6543,"Mass":6544,"Pent":6545,"Ray":6546,"Sim":6547,"Vir":6548,"Ze":6549,"aire":6550,"fem":6551,"fris":6552,"gid":6553,"gover":6554,"gene":6555,"gown":6556,"hs":6557,"hect":6558,"hart":6559,"iableness":6560,"jol":6561,"kor":6562,"kib":6563,"nath":6564,"nub":6565,"noth":6566,"pyl":6567,"pept":6568,"rural":6569,"sett":6570,"tank":6571,"uity":6572,"vinc":6573,"wand":6574,"wish":6575,"wyn":6576,"yed":6577,"zig":6578,"onville":6579,"esian":6580,"anag":6581,"atism":6582,"alder":6583,"edom":6584,"ington":6585,"elism":6586,"remon":6587,"stan":6588,"stent":6589,"store":6590,"usher":6591,"ilated":6592,"olis":6593,"eto":6594,"etch":6595,"acetic":6596,"ulli":6597,"uloid":6598,"ulousness":6599,"urt":6600,"amas":6601,"iste":6602,"isting":6603,"rik":6604,"ecker":6605,"ivoc":6606,"iman":6607,"odial":6608,"perist":6609,"antagon":6610,"lox":6611,"ipping":6612,"confer":6613,"conven":6614,"prolog":6615,"undo":6616,"prein":6617,"uder":6618,"plug":6619,"illas":6620,"search":6621,"oblong":6622,"scale":6623,"scrap":6624,"defer":6625,"nea":6626,"neglig":6627,"ophot":6628,"ostat":6629,"angium":6630,"beer":6631,"beak":6632,"achron":6633,"rane":6634,"lows":6635,"core":6636,"ortic":6637,"wher":6638,"urement":6639,"evel":6640,"diagn":6641,"diabol":6642,"slide":6643,"therapy":6644,"mineral":6645,"barred":6646,"ovate":6647,"oxide":6648,"azot":6649,"istics":6650,"hydrop":6651,"iks":6652,"desm":6653,"iole":6654,"enna":6655,"encing":6656,"solic":6657,"acceler":6658,"ionality":6659,"photoc":6660,"antiqu":6661,"belt":6662,"boned":6663,"icula":6664,"aerob":6665,"cream":6666,"complet":6667,"farm":6668,"rousness":6669,"otherapeut":6670,"banded":6671,"bathy":6672,"hedge":6673,"devot":6674,"frame":6675,"glob":6676,"omeric":6677,"aggreg":6678,"planet":6679,"damn":6680,"locks":6681,"friend":6682,"ogamous":6683,"fallen":6684,"iastic":6685,"familiar":6686,"agogue":6687,"dragon":6688,"Franco":6689,"benefic":6690,"omotor":6691,"gymn":6692,"iflorous":6693,"american":6694,"manifest":6695,"AF":6696,"Av":6697,"Ach":6698,"Bell":6699,"Gab":6700,"Jes":6701,"Lu":6702,"Mich":6703,"Maur":6704,"Ny":6705,"Pa":6706,"Phar":6707,"Rod":6708,"Sem":6709,"Shar":6710,"To":6711,"aunt":6712,"bary":6713,"bure":6714,"cker":6715,"cater":6716,"cush":6717,"cocc":6718,"dled":6719,"ead":6720,"fren":6721,"fancy":6722,"gim":6723,"gau":6724,"ilet":6725,"lite":6726,"lighted":6727,"length":6728,"might":6729,"mild":6730,"nost":6731,"oest":6732,"rs":6733,"tac":6734,"toll":6735,"tired":6736,"vend":6737,"wain":6738,"onate":6739,"esome":6740,"atist":6741,"eners":6742,"aldehyde":6743,"isob":6744,"untra":6745,"itant":6746,"roth":6747,"reform":6748,"strew":6749,"lea":6750,"chow":6751,"chalk":6752,"ilism":6753,"phas":6754,"ido":6755,"idate":6756,"acrom":6757,"thre":6758,"threat":6759,"abas":6760,"entgen":6761,"admir":6762,"opoly":6763,"iven":6764,"perig":6765,"period":6766,"igo":6767,"nond":6768,"shir":6769,"concer":6770,"coid":6771,"spider":6772,"epar":6773,"ianth":6774,"undiv":6775,"ineff":6776,"hybrid":6777,"overd":6778,"pla":6779,"seeming":6780,"heal":6781,"dee":6782,"aval":6783,"ugal":6784,"coming":6785,"both":6786,"ologize":6787,"dispens":6788,"upe":6789,"athemat":6790,"lix":6791,"correspond":6792,"matist":6793,"matri":6794,"actor":6795,"actually":6796,"semil":6797,"urea":6798,"thermo":6799,"herd":6800,"micros":6801,"brazen":6802,"certain":6803,"feel":6804,"feeding":6805,"sermon":6806,"vein":6807,"unsec":6808,"calor":6809,"calam":6810,"sno":6811,"switch":6812,"malt":6813,"chees":6814,"venom":6815,"salv":6816,"enny":6817,"electroph":6818,"uffle":6819,"encycl":6820,"cute":6821,"arks":6822,"distinct":6823,"divis":6824,"bloom":6825,"psycho":6826,"invig":6827,"opterous":6828,"living":6829,"optosis":6830,"urgical":6831,"throat":6832,"fortun":6833,"souled":6834,"ilicate":6835,"ranchiata":6836,"categor":6837,"closed":6838,"stained":6839,"jawed":6840,"revolution":6841,"mountain":6842,"custom":6843,"agglutin":6844,"diamond":6845,"architect":6846,"hundred":6847,"Ari":6848,"Alex":6849,"Bu":6850,"Bre":6851,"Bow":6852,"Cent":6853,"Es":6854,"Est":6855,"Gr":6856,"Gy":6857,"Goth":6858,"Isl":6859,"Kor":6860,"Low":6861,"Ni":6862,"Not":6863,"Pas":6864,"Pap":6865,"Syn":6866,"Tre":6867,"bund":6868,"bash":6869,"brig":6870,"cz":6871,"celi":6872,"dell":6873,"daw":6874,"dling":6875,"fas":6876,"fec":6877,"fag":6878,"frig":6879,"gus":6880,"gingly":6881,"iard":6882,"jail":6883,"kas":6884,"lud":6885,"lash":6886,"luck":6887,"moment":6888,"nemat":6889,"number":6890,"oar":6891,"oun":6892,"pach":6893,"penc":6894,"prag":6895,"sine":6896,"saddle":6897,"tib":6898,"tone":6899,"tiger":6900,"uing":6901,"vale":6902,"wn":6903,"wen":6904,"wad":6905,"wir":6906,"wif":6907,"winn":6908,"wald":6909,"xiph":6910,"indef":6911,"onit":6912,"escal":6913,"anon":6914,"atress":6915,"enary":6916,"icy":6917,"icize":6918,"orious":6919,"unas":6920,"unam":6921,"unref":6922,"itary":6923,"recom":6924,"reconf":6925,"stic":6926,"stink":6927,"chon":6928,"chaff":6929,"raff":6930,"olon":6931,"phac":6932,"phase":6933,"omi":6934,"ionate":6935,"aced":6936,"acchar":6937,"ulcer":6938,"than":6939,"thron":6940,"thesis":6941,"otrich":6942,"ecan":6943,"opus":6944,"term":6945,"ivory":6946,"imed":6947,"agy":6948,"ige":6949,"apoc":6950,"apping":6951,"applic":6952,"quat":6953,"shro":6954,"shag":6955,"shaf":6956,"shirt":6957,"loth":6958,"consul":6959,"spon":6960,"proportion":6961,"undep":6962,"hygro":6963,"plastic":6964,"illes":6965,"keel":6966,"alls":6967,"allic":6968,"allot":6969,"trunk":6970,"arde":6971,"ialized":6972,"cliff":6973,"ophage":6974,"blingly":6975,"bok":6976,"parag":6977,"acking":6978,"assim":6979,"mond":6980,"monkey":6981,"intermed":6982,"ension":6983,"weap":6984,"inton":6985,"moth":6986,"moving":6987,"cory":6988,"actual":6989,"sement":6990,"metrop":6991,"insist":6992,"colleg":6993,"pea":6994,"therapeut":6995,"burden":6996,"guid":6997,"archies":6998,"brac":6999,"ceremon":7000,"decor":7001,"stress":7002,"unsal":7003,"And":7004,"lery":7005,"breeding":7006,"knob":7007,"rhab":7008,"volcan":7009,"laur":7010,"etti":7011,"multis":7012,"oyster":7013,"circul":7014,"equal":7015,"equilib":7016,"pinch":7017,"anticip":7018,"scribed":7019,"occas":7020,"birds":7021,"simpl":7022,"ascular":7023,"safe":7024,"hedral":7025,"imperson":7026,"iety":7027,"agonal":7028,"laps":7029,"nutrit":7030,"liber":7031,"dimin":7032,"fronted":7033,"suffic":7034,"crani":7035,"henia":7036,"tolu":7037,"figur":7038,"orchest":7039,"rography":7040,"yllabic":7041,"uzzle":7042,"combust":7043,"stroke":7044,"pepper":7045,"orrhagia":7046,"powder":7047,"industri":7048,"abstract":7049,"Aur":7050,"Bay":7051,"Barn":7052,"CI":7053,"CM":7054,"DF":7055,"Fe":7056,"Hil":7057,"Had":7058,"Hib":7059,"Hay":7060,"Jar":7061,"Joh":7062,"Ka":7063,"Kol":7064,"Max":7065,"No":7066,"Rus":7067,"Rad":7068,"Rock":7069,"Sand":7070,"TE":7071,"Thom":7072,"Thor":7073,"aemia":7074,"bion":7075,"cuc":7076,"cinn":7077,"camb":7078,"crep":7079,"crem":7080,"date":7081,"dread":7082,"fang":7083,"fals":7084,"felt":7085,"gunn":7086,"het":7087,"hub":7088,"jay":7089,"kie":7090,"knee":7091,"lane":7092,"mamm":7093,"oophor":7094,"pang":7095,"pure":7096,"satin":7097,"tread":7098,"ufact":7099,"onium":7100,"atize":7101,"eny":7102,"enam":7103,"argu":7104,"orted":7105,"unav":7106,"untrans":7107,"unpur":7108,"unsup":7109,"unprov":7110,"role":7111,"reex":7112,"stich":7113,"raven":7114,"olip":7115,"acs":7116,"acut":7117,"acron":7118,"acrid":7119,"ulable":7120,"ulfur":7121,"thur":7122,"thmic":7123,"abal":7124,"amyg":7125,"advis":7126,"oga":7127,"rile":7128,"riff":7129,"igar":7130,"igate":7131,"verbal":7132,"antage":7133,"icalism":7134,"estone":7135,"coin":7136,"ellation":7137,"ellers":7138,"spo":7139,"spit":7140,"spoil":7141,"ianist":7142,"erson":7143,"undi":7144,"ineous":7145,"hypos":7146,"ibranch":7147,"pless":7148,"seen":7149,"seeking":7150,"keen":7151,"truck":7152,"scat":7153,"scented":7154,"ialization":7155,"avi":7156,"dissol":7157,"party":7158,"liament":7159,"taught":7160,"interfer":7161,"intest":7162,"mount":7163,"bery":7164,"coral":7165,"corac":7166,"aha":7167,"peop":7168,"slack":7169,"grained":7170,"therap":7171,"retic":7172,"archae":7173,"thead":7174,"cerat":7175,"cervic":7176,"dece":7177,"strength":7178,"alee":7179,"ongs":7180,"incur":7181,"hydric":7182,"oche":7183,"ritorial":7184,"ported":7185,"ushed":7186,"broom":7187,"affe":7188,"petal":7189,"zoa":7190,"zoon":7191,"known":7192,"canal":7193,"elior":7194,"harsh":7195,"republ":7196,"paid":7197,"prize":7198,"squar":7199,"ationalism":7200,"garn":7201,"praise":7202,"usses":7203,"deliber":7204,"piro":7205,"piec":7206,"phyg":7207,"split":7208,"benzo":7209,"hoods":7210,"downs":7211,"explo":7212,"torment":7213,"immort":7214,"bulb":7215,"drive":7216,"extract":7217,"saint":7218,"opsia":7219,"Leon":7220,"chemical":7221,"ograms":7222,"English":7223,"float":7224,"crank":7225,"scription":7226,"pteryg":7227,"writer":7228,"written":7229,"willow":7230,"noble":7231,"maiden":7232,"shadow":7233,"American":7234,"transcend":7235,"develop":7236,"cholecyst":7237,"arcoma":7238,"legisl":7239,"Aud":7240,"BE":7241,"Bac":7242,"Cre":7243,"Dip":7244,"Eury":7245,"FI":7246,"Fab":7247,"Hu":7248,"Hes":7249,"His":7250,"Kh":7251,"LI":7252,"Mul":7253,"Sid":7254,"Sum":7255,"TC":7256,"Thy":7257,"Tart":7258,"WA":7259,"Xen":7260,"bist":7261,"bable":7262,"cly":7263,"cite":7264,"cary":7265,"cash":7266,"crot":7267,"dob":7268,"dart":7269,"dah":7270,"dash":7271,"eing":7272,"echo":7273,"fran":7274,"fruct":7275,"gow":7276,"gie":7277,"gorg":7278,"gather":7279,"hide":7280,"iw":7281,"iologist":7282,"jump":7283,"lak":7284,"leness":7285,"lax":7286,"mom":7287,"mens":7288,"nu":7289,"nell":7290,"naut":7291,"oos":7292,"pable":7293,"pins":7294,"pagan":7295,"rina":7296,"sme":7297,"tis":7298,"tyl":7299,"ulet":7300,"vene":7301,"wrink":7302,"xim":7303,"yly":7304,"erot":7305,"alam":7306,"island":7307,"orially":7308,"unop":7309,"itu":7310,"iters":7311,"ithe":7312,"itably":7313,"itiveness":7314,"sts":7315,"stric":7316,"states":7317,"chau":7318,"ilder":7319,"olus":7320,"olous":7321,"etz":7322,"essential":7323,"ionize":7324,"thrust":7325,"aband":7326,"emy":7327,"oser":7328,"osing":7329,"osol":7330,"osse":7331,"otry":7332,"utable":7333,"opleg":7334,"terer":7335,"imped":7336,"odent":7337,"odium":7338,"ationary":7339,"igation":7340,"nons":7341,"nonen":7342,"anta":7343,"antir":7344,"shod":7345,"shake":7346,"ifically":7347,"ipal":7348,"ellum":7349,"ellite":7350,"procur":7351,"expos":7352,"astron":7353,"overe":7354,"plasm":7355,"iesis":7356,"seam":7357,"uca":7358,"scall":7359,"scratch":7360,"deut":7361,"cling":7362,"ostrac":7363,"compos":7364,"beh":7365,"flax":7366,"paran":7367,"parat":7368,"paral":7369,"ubst":7370,"assign":7371,"select":7372,"idei":7373,"ideal":7374,"okin":7375,"mentally":7376,"intu":7377,"mourn":7378,"resent":7379,"cork":7380,"acts":7381,"insect":7382,"whirl":7383,"diet":7384,"diac":7385,"slop":7386,"slim":7387,"deriv":7388,"tonian":7389,"grab":7390,"barn":7391,"bras":7392,"twig":7393,"counsel":7394,"ikin":7395,"snob":7396,"aneously":7397,"hemis":7398,"tures":7399,"aphor":7400,"brevi":7401,"affili":7402,"rophia":7403,"handic":7404,"knight":7405,"ometers":7406,"queen":7407,"worked":7408,"schist":7409,"accust":7410,"volution":7411,"riding":7412,"psil":7413,"uras":7414,"draft":7415,"drawing":7416,"rums":7417,"addy":7418,"address":7419,"hypot":7420,"remember":7421,"horiz":7422,"embod":7423,"lime":7424,"limn":7425,"youth":7426,"scrim":7427,"except":7428,"protest":7429,"waist":7430,"ascend":7431,"dried":7432,"ophyt":7433,"hedron":7434,"irable":7435,"taining":7436,"conduc":7437,"virtu":7438,"faint":7439,"euphon":7440,"digit":7441,"vulcan":7442,"tube":7443,"speak":7444,"pretty":7445,"rologist":7446,"washed":7447,"sarco":7448,"ocerat":7449,"stemmed":7450,"catholic":7451,"royal":7452,"sublim":7453,"phantas":7454,"razor":7455,"coffee":7456,"fiery":7457,"christian":7458,"sculpt":7459,"running":7460,"bishop":7461,"phleb":7462,"orthodox":7463,"BI":7464,"Berg":7465,"CE":7466,"DO":7467,"Din":7468,"Dev":7469,"Fair":7470,"Gro":7471,"Gib":7472,"Jul":7473,"Ky":7474,"Kin":7475,"Lept":7476,"Nem":7477,"North":7478,"Ori":7479,"Por":7480,"Ren":7481,"Sen":7482,"Sor":7483,"Sus":7484,"Sav":7485,"Sub":7486,"Var":7487,"Wa":7488,"bitten":7489,"cist":7490,"dab":7491,"dup":7492,"dles":7493,"fty":7494,"feld":7495,"fright":7496,"gence":7497,"gour":7498,"gement":7499,"jon":7500,"jas":7501,"kop":7502,"live":7503,"lath":7504,"mog":7505,"mall":7506,"mash":7507,"munic":7508,"nice":7509,"nour":7510,"pia":7511,"pisc":7512,"rare":7513,"sill":7514,"sial":7515,"size":7516,"trep":7517,"vat":7518,"vow":7519,"vindic":7520,"wow":7521,"wry":7522,"yaw":7523,"zie":7524,"inco":7525,"intrans":7526,"anol":7527,"attribut":7528,"enian":7529,"icard":7530,"icorn":7531,"arr":7532,"aras":7533,"arms":7534,"unal":7535,"unis":7536,"unsuper":7537,"unmer":7538,"unrest":7539,"itiousness":7540,"eliness":7541,"robed":7542,"robor":7543,"revers":7544,"stin":7545,"stur":7546,"steg":7547,"rasp":7548,"raising":7549,"olia":7550,"etin":7551,"idental":7552,"uled":7553,"thys":7554,"asym":7555,"uridae":7556,"osia":7557,"osely":7558,"utt":7559,"uty":7560,"util":7561,"ogony":7562,"riev":7563,"rize":7564,"ivist":7565,"ocell":7566,"nonab":7567,"nonpl":7568,"apoph":7569,"shack":7570,"shrew":7571,"shift":7572,"conch":7573,"conson":7574,"construct":7575,"consider":7576,"spun":7577,"illate":7578,"trist":7579,"screen":7580,"ceiv":7581,"neys":7582,"ffer":7583,"clod":7584,"ophi":7585,"ophobe":7586,"comment":7587,"index":7588,"indict":7589,"bou":7590,"subt":7591,"before":7592,"teeth":7593,"floc":7594,"atha":7595,"athic":7596,"parab":7597,"trail":7598,"traff":7599,"trape":7600,"worts":7601,"assed":7602,"interpret":7603,"synon":7604,"weas":7605,"okines":7606,"moul":7607,"geable":7608,"redist":7609,"colle":7610,"sled":7611,"slaugh":7612,"gras":7613,"grace":7614,"rattle":7615,"mez":7616,"trib":7617,"guess":7618,"tingu":7619,"uncur":7620,"omycosis":7621,"doing":7622,"anthrac":7623,"grum":7624,"portra":7625,"attent":7626,"current":7627,"ixes":7628,"lining":7629,"boring":7630,"bordered":7631,"volt":7632,"Arist":7633,"charged":7634,"commit":7635,"mesmer":7636,"draught":7637,"multil":7638,"aurus":7639,"auricular":7640,"visual":7641,"strain":7642,"deleg":7643,"circular":7644,"grey":7645,"anticon":7646,"otherap":7647,"effic":7648,"impass":7649,"rified":7650,"ophilia":7651,"crook":7652,"locut":7653,"wheat":7654,"emonger":7655,"literal":7656,"historic":7657,"range":7658,"dimens":7659,"burnt":7660,"digest":7661,"turned":7662,"empty":7663,"jejun":7664,"rological":7665,"knowled":7666,"walled":7667,"strike":7668,"striped":7669,"ophyllum":7670,"ituted":7671,"dialect":7672,"thinking":7673,"vigil":7674,"conscious":7675,"osperm":7676,"picture":7677,"trumpet":7678,"sober":7679,"fifty":7680,"wreath":7681,"thromb":7682,"yledon":7683,"pauper":7684,"rufous":7685,"eulog":7686,"Asc":7687,"DD":7688,"Eth":7689,"FO":7690,"Fil":7691,"Frank":7692,"Gi":7693,"Hed":7694,"Hum":7695,"Hard":7696,"Jun":7697,"Krist":7698,"Lan":7699,"Lep":7700,"Lou":7701,"Mend":7702,"Mari":7703,"Na":7704,"Ner":7705,"Pom":7706,"Pri":7707,"Pers":7708,"Rhy":7709,"So":7710,"Sha":7711,"Tro":7712,"Wall":7713,"Zo":7714,"bia":7715,"cia":7716,"dop":7717,"dung":7718,"fow":7719,"fired":7720,"filling":7721,"fitting":7722,"gage":7723,"jor":7724,"latch":7725,"mest":7726,"nab":7727,"nim":7728,"ounce":7729,"pim":7730,"paw":7731,"tir":7732,"vast":7733,"wr":7734,"erect":7735,"onne":7736,"atel":7737,"enoid":7738,"enjoy":7739,"aline":7740,"edict":7741,"isen":7742,"isement":7743,"arb":7744,"orator":7745,"reap":7746,"repl":7747,"stum":7748,"leth":7749,"leys":7750,"chym":7751,"ilite":7752,"ileness":7753,"rache":7754,"olas":7755,"etym":7756,"phere":7757,"phobia":7758,"omere":7759,"idently":7760,"ionable":7761,"osite":7762,"amate":7763,"otter":7764,"otte":7765,"uming":7766,"eco":7767,"impression":7768,"agric":7769,"izingly":7770,"oded":7771,"persu":7772,"perfor":7773,"igan":7774,"verted":7775,"nonres":7776,"anton":7777,"antia":7778,"antich":7779,"quo":7780,"shore":7781,"ifical":7782,"condem":7783,"coy":7784,"coast":7785,"spire":7786,"epiph":7787,"ismus":7788,"hymn":7789,"ibles":7790,"plank":7791,"ucid":7792,"keep":7793,"obas":7794,"obranchiate":7795,"scre":7796,"prise":7797,"neat":7798,"manip":7799,"endos":7800,"ylar":7801,"clud":7802,"ophonic":7803,"comy":7804,"rym":7805,"ango":7806,"disp":7807,"iew":7808,"flatter":7809,"icky":7810,"monot":7811,"weep":7812,"inting":7813,"corp":7814,"artic":7815,"poon":7816,"pour":7817,"pee":7818,"slum":7819,"slug":7820,"ultim":7821,"rowing":7822,"merry":7823,"brate":7824,"mead":7825,"skelet":7826,"brachi":7827,"theast":7828,"theolog":7829,"axial":7830,"eptor":7831,"anthra":7832,"snip":7833,"ontic":7834,"swallow":7835,"swollen":7836,"porter":7837,"turf":7838,"cheap":7839,"pseudop":7840,"reneg":7841,"brous":7842,"wooden":7843,"ixed":7844,"hands":7845,"rotomy":7846,"cannon":7847,"ualism":7848,"erousness":7849,"legs":7850,"electrom":7851,"predict":7852,"uffed":7853,"humid":7854,"dramat":7855,"adequ":7856,"arians":7857,"holes":7858,"dysp":7859,"iculated":7860,"embow":7861,"tails":7862,"confess":7863,"hydroxy":7864,"buoy":7865,"thyre":7866,"farad":7867,"preced":7868,"racem":7869,"racies":7870,"thalam":7871,"radio":7872,"drip":7873,"mitted":7874,"bowed":7875,"organic":7876,"imperial":7877,"spectro":7878,"lift":7879,"words":7880,"oderma":7881,"locked":7882,"mascul":7883,"drug":7884,"ocephaly":7885,"vagin":7886,"uclear":7887,"testing":7888,"varic":7889,"acquis":7890,"acquaint":7891,"busy":7892,"destruct":7893,"orchid":7894,"anatom":7895,"neurop":7896,"negot":7897,"Half":7898,"walking":7899,"parasit":7900,"thirst":7901,"ninety":7902,"normal":7903,"particular":7904,"hazard":7905,"Brook":7906,"ochemical":7907,"alphabet":7908,"luxur":7909,"naphth":7910,"soldier":7911,"occipital":7912,"seventy":7913,"'-":7914,"Ath":7915,"Aut":7916,"Aug":7917,"Blo":7918,"Bour":7919,"Brown":7920,"CR":7921,"Cir":7922,"DM":7923,"Dis":7924,"Dra":7925,"Gran":7926,"Hip":7927,"Hob":7928,"Ki":7929,"Kan":7930,"Kel":7931,"Kur":7932,"Kam":7933,"LT":7934,"Lip":7935,"Lud":7936,"Law":7937,"Maz":7938,"Nik":7939,"Os":7940,"Pin":7941,"Penn":7942,"Rub":7943,"SO":7944,"Sta":7945,"Trin":7946,"Ved":7947,"aest":7948,"aure":7949,"bah":7950,"cec":7951,"cation":7952,"crat":7953,"das":7954,"drom":7955,"eut":7956,"frow":7957,"fram":7958,"fict":7959,"fowl":7960,"fiddle":7961,"give":7962,"gild":7963,"game":7964,"iometer":7965,"jag":7966,"kle":7967,"kra":7968,"kite":7969,"kelet":7970,"lene":7971,"lain":7972,"lank":7973,"lelike":7974,"mush":7975,"nigh":7976,"pud":7977,"piest":7978,"pater":7979,"swo":7980,"sadd":7981,"tene":7982,"tars":7983,"uj":7984,"uin":7985,"vor":7986,"vate":7987,"vide":7988,"veld":7989,"were":7990,"inform":7991,"inspect":7992,"esche":7993,"anaph":7994,"atomic":7995,"isoc":7996,"aren":7997,"orus":7998,"orite":7999,"unver":8000,"unret":8001,"unanim":8002,"itas":8003,"elf":8004,"roentgen":8005,"revel":8006,"stack":8007,"cht":8008,"chance":8009,"chicken":8010,"rament":8011,"olit":8012,"etric":8013,"pho":8014,"phlog":8015,"idial":8016,"idrosis":8017,"accompl":8018,"urine":8019,"enting":8020,"entry":8021,"embl":8022,"adia":8023,"adian":8024,"uten":8025,"utic":8026,"opoe":8027,"ivities":8028,"improv":8029,"ocation":8030,"ocial":8031,"perm":8032,"pering":8033,"igg":8034,"shock":8035,"loon":8036,"loft":8037,"andi":8038,"sprink":8039,"project":8040,"explic":8041,"exhaust":8042,"epile":8043,"ismal":8044,"asty":8045,"aston":8046,"hyg":8047,"overt":8048,"plut":8049,"obo":8050,"obtr":8051,"scint":8052,"deacon":8053,"price":8054,"akin":8055,"enders":8056,"ostatic":8057,"rystall":8058,"boid":8059,"disent":8060,"dispar":8061,"teet":8062,"fless":8063,"athers":8064,"parrot":8065,"ubri":8066,"toy":8067,"weird":8068,"gear":8069,"corner":8070,"corpore":8071,"hoot":8072,"redeem":8073,"artific":8074,"orting":8075,"insinu":8076,"would":8077,"peak":8078,"slight":8079,"foam":8080,"etern":8081,"ova":8082,"skull":8083,"trium":8084,"marriage":8085,"decked":8086,"stral":8087,"axi":8088,"autom":8089,"Chil":8090,"Cham":8091,"kered":8092,"gren":8093,"ochond":8094,"descript":8095,"affirm":8096,"rophobia":8097,"ixt":8098,"handedly":8099,"liner":8100,"ruin":8101,"regret":8102,"patient":8103,"commemor":8104,"doms":8105,"psis":8106,"portun":8107,"penit":8108,"moral":8109,"vital":8110,"buzz":8111,"shape":8112,"otherm":8113,"wait":8114,"tempt":8115,"suppress":8116,"quinone":8117,"drift":8118,"Philo":8119,"ruby":8120,"helic":8121,"quadric":8122,"otropy":8123,"chaet":8124,"getting":8125,"rably":8126,"animal":8127,"layer":8128,"diaz":8129,"semicon":8130,"worthiness":8131,"sesqu":8132,"figure":8133,"clerk":8134,"Black":8135,"pleasant":8136,"villain":8137,"doctor":8138,"amoeb":8139,"beaten":8140,"emporal":8141,"articulate":8142,"hunting":8143,"lysis":8144,"emotional":8145,"Ultra":8146,"industrial":8147,"NET":8148,"pocket":8149,"doubt":8150,"yrinth":8151,"crimson":8152,"prince":8153,"presbyter":8154,"Ay":8155,"Aeg":8156,"Adel":8157,"Ban":8158,"Bos":8159,"Bir":8160,"Cord":8161,"Camp":8162,"DP":8163,"HS":8164,"Hall":8165,"Jon":8166,"Jack":8167,"LE":8168,"Lap":8169,"Lang":8170,"Lew":8171,"NI":8172,"Naz":8173,"Oc":8174,"Pho":8175,"Reg":8176,"Sax":8177,"Tan":8178,"ael":8179,"bry":8180,"bys":8181,"bung":8182,"cud":8183,"dus":8184,"dov":8185,"deli":8186,"eus":8187,"eigh":8188,"gap":8189,"girt":8190,"hm":8191,"him":8192,"hare":8193,"iam":8194,"jog":8195,"jim":8196,"junk":8197,"lint":8198,"latt":8199,"mack":8200,"mint":8201,"nt":8202,"pted":8203,"pint":8204,"pik":8205,"rins":8206,"ratory":8207,"sock":8208,"tard":8209,"tect":8210,"toss":8211,"inization":8212,"inhib":8213,"onc":8214,"esign":8215,"anab":8216,"anarch":8217,"attain":8218,"enol":8219,"edral":8220,"icos":8221,"aron":8222,"arid":8223,"arity":8224,"orse":8225,"orang":8226,"orically":8227,"orax":8228,"unev":8229,"unwar":8230,"eles":8231,"elas":8232,"rema":8233,"reven":8234,"reinst":8235,"station":8236,"stell":8237,"stark":8238,"leaves":8239,"chos":8240,"chiv":8241,"chill":8242,"chore":8243,"chase":8244,"usable":8245,"ilist":8246,"iline":8247,"olater":8248,"phus":8249,"phos":8250,"pharyn":8251,"iden":8252,"idym":8253,"ulic":8254,"ulidae":8255,"asyn":8256,"oscler":8257,"ambo":8258,"otrophy":8259,"otactic":8260,"otaxis":8261,"advers":8262,"oused":8263,"isters":8264,"riot":8265,"eclip":8266,"opper":8267,"tereb":8268,"impet":8269,"imorph":8270,"impart":8271,"impregn":8272,"agers":8273,"izability":8274,"ocl":8275,"oclas":8276,"odus":8277,"odia":8278,"perv":8279,"aple":8280,"anty":8281,"quil":8282,"shak":8283,"shik":8284,"shovel":8285,"conjunct":8286,"coch":8287,"ellidae":8288,"andy":8289,"anders":8290,"spiro":8291,"prolet":8292,"progress":8293,"epalous":8294,"iano":8295,"prep":8296,"ishers":8297,"hyoid":8298,"iba":8299,"illation":8300,"oby":8301,"obel":8302,"allant":8303,"trinit":8304,"scrub":8305,"deed":8306,"pruss":8307,"manufact":8308,"formic":8309,"blot":8310,"indoc":8311,"subsid":8312,"subtle":8313,"fles":8314,"flap":8315,"flirt":8316,"pariet":8317,"assa":8318,"monk":8319,"tok":8320,"ronic":8321,"lowed":8322,"matric":8323,"ahl":8324,"metat":8325,"orts":8326,"ortion":8327,"polyn":8328,"diest":8329,"poetic":8330,"haus":8331,"minic":8332,"eyer":8333,"ofer":8334,"icephal":8335,"skip":8336,"skill":8337,"myc":8338,"azole":8339,"annic":8340,"annot":8341,"feet":8342,"medit":8343,"orean":8344,"ogenetically":8345,"omyc":8346,"ochrome":8347,"pyg":8348,"malign":8349,"hemoglobin":8350,"cheon":8351,"ificator":8352,"rolith":8353,"sales":8354,"brew":8355,"ething":8356,"catac":8357,"culous":8358,"caps":8359,"capsul":8360,"rhom":8361,"caj":8362,"ordination":8363,"unning":8364,"reflex":8365,"predec":8366,"predest":8367,"humor":8368,"agnetic":8369,"ussing":8370,"omatically":8371,"shepher":8372,"hypop":8373,"uki":8374,"remuner":8375,"ginger":8376,"tailor":8377,"confident":8378,"compuls":8379,"distingu":8380,"unched":8381,"teles":8382,"daugh":8383,"symphon":8384,"rification":8385,"ozyg":8386,"ipher":8387,"sweep":8388,"globul":8389,"uminous":8390,"campan":8391,"contradict":8392,"lived":8393,"fires":8394,"fibrin":8395,"Hydro":8396,"satir":8397,"encephalic":8398,"coccy":8399,"throated":8400,"feder":8401,"scarlet":8402,"ocarpus":8403,"loidy":8404,"mongering":8405,"sparrow":8406,"natural":8407,"pleasure":8408,"gemm":8409,"omalacia":8410,"multiplic":8411,"dialog":8412,"ulphur":8413,"demonstr":8414,"White":8415,"diffus":8416,"epsis":8417,"Cerat":8418,"paradox":8419,"Irish":8420,"orbital":8421,"experiment":8422,"husband":8423,"righte":8424,"abdominal":8425,"Crypt":8426,"amalgam":8427,"thousand":8428,"absolut":8429,"annihil":8430,"Bog":8431,"Bart":8432,"Cly":8433,"Coc":8434,"Cory":8435,"Dend":8436,"FT":8437,"Hind":8438,"Kon":8439,"Les":8440,"MM":8441,"Mu":8442,"Mess":8443,"Mark":8444,"Pand":8445,"Pier":8446,"Que":8447,"RP":8448,"Sept":8449,"Ta":8450,"Trich":8451,"Um":8452,"aort":8453,"biv":8454,"bate":8455,"bier":8456,"bisc":8457,"dine":8458,"dyn":8459,"damp":8460,"een":8461,"eug":8462,"fect":8463,"frum":8464,"giness":8465,"iaries":8466,"jin":8467,"jes":8468,"jal":8469,"jamb":8470,"kab":8471,"kum":8472,"kir":8473,"oa":8474,"poc":8475,"pies":8476,"ridae":8477,"sang":8478,"sphyg":8479,"tant":8480,"tass":8481,"trom":8482,"tled":8483,"tire":8484,"tors":8485,"taking":8486,"wab":8487,"wist":8488,"wav":8489,"wang":8490,"yth":8491,"yam":8492,"yach":8493,"zers":8494,"erman":8495,"inol":8496,"inquis":8497,"onomy":8498,"onomat":8499,"esville":8500,"anx":8501,"anast":8502,"anachron":8503,"alge":8504,"isers":8505,"arse":8506,"argy":8507,"armor":8508,"orily":8509,"itidae":8510,"itors":8511,"itously":8512,"reach":8513,"repress":8514,"stil":8515,"stow":8516,"chie":8517,"iless":8518,"ilous":8519,"olu":8520,"oliv":8521,"etra":8522,"essa":8523,"omach":8524,"uline":8525,"uliferous":8526,"thrill":8527,"urgy":8528,"abund":8529,"enta":8530,"otal":8531,"adar":8532,"adulter":8533,"umn":8534,"rivet":8535,"impost":8536,"impos":8537,"imagin":8538,"agus":8539,"oclim":8540,"odian":8541,"perid":8542,"percept":8543,"iga":8544,"antire":8545,"quizz":8546,"iak":8547,"shade":8548,"shark":8549,"shaft":8550,"loch":8551,"atee":8552,"convert":8553,"contribut":8554,"ellus":8555,"spi":8556,"prol":8557,"proport":8558,"epider":8559,"ibi":8560,"ibular":8561,"seer":8562,"ucin":8563,"hey":8564,"health":8565,"obstruct":8566,"tren":8567,"scare":8568,"ializing":8569,"avow":8570,"fors":8571,"forem":8572,"foreg":8573,"endoth":8574,"clas":8575,"clog":8576,"clap":8577,"ophony":8578,"blur":8579,"ostome":8580,"ostoma":8581,"complic":8582,"boil":8583,"subdu":8584,"ologer":8585,"ologue":8586,"dissim":8587,"flight":8588,"outer":8589,"paroch":8590,"parson":8591,"trace":8592,"lique":8593,"atorship":8594,"mone":8595,"mons":8596,"elyn":8597,"enses":8598,"ensed":8599,"wearing":8600,"oks":8601,"awing":8602,"reser":8603,"bere":8604,"correl":8605,"mates":8606,"matism":8607,"metast":8608,"colloqu":8609,"evac":8610,"slid":8611,"slap":8612,"slave":8613,"founder":8614,"pty":8615,"hai":8616,"romorph":8617,"grade":8618,"gravit":8619,"ovari":8620,"mery":8621,"bring":8622,"brill":8623,"bringing":8624,"retard":8625,"guil":8626,"arched":8627,"pedagog":8628,"announc":8629,"marks":8630,"auk":8631,"orns":8632,"few":8633,"twist":8634,"decem":8635,"gency":8636,"inked":8637,"recre":8638,"swoman":8639,"ificate":8640,"ificative":8641,"pseudom":8642,"ucks":8643,"soled":8644,"knit":8645,"linal":8646,"presumpt":8647,"cancer":8648,"ission":8649,"anks":8650,"ankyl":8651,"arii":8652,"denatur":8653,"ordinate":8654,"inese":8655,"homogene":8656,"drab":8657,"sheath":8658,"pense":8659,"surface":8660,"hypoph":8661,"uku":8662,"equival":8663,"microscop":8664,"reading":8665,"ilda":8666,"builder":8667,"divin":8668,"muscul":8669,"zzle":8670,"daint":8671,"precis":8672,"ospheric":8673,"tariff":8674,"symmet":8675,"effer":8676,"kinet":8677,"bake":8678,"missive":8679,"iscus":8680,"argument":8681,"anthropomorph":8682,"provinc":8683,"setting":8684,"euphem":8685,"litig":8686,"sucker":8687,"vuls":8688,"diast":8689,"encephalon":8690,"prehend":8691,"cephalic":8692,"jeopard":8693,"sentimental":8694,"ogamic":8695,"aguer":8696,"nephro":8697,"drying":8698,"bottomed":8699,"ribbon":8700,"holding":8701,"enzy":8702,"rhythm":8703,"hapl":8704,"paced":8705,"Georg":8706,"easy":8707,"uphol":8708,"ognathous":8709,"maxim":8710,"oprotein":8711,"promise":8712,"ocytosis":8713,"bastard":8714,"major":8715,"feeble":8716,"western":8717,"courag":8718,"telegraph":8719,"fratern":8720,"olysin":8721,"Spanish":8722,"Aster":8723,"BC":8724,"BM":8725,"Bak":8726,"Bron":8727,"Brand":8728,"Cad":8729,"Clo":8730,"Cho":8731,"Ery":8732,"Jew":8733,"Kra":8734,"Pot":8735,"Pyr":8736,"SP":8737,"Si":8738,"Sat":8739,"Ster":8740,"Sig":8741,"Spr":8742,"Spar":8743,"Tub":8744,"Van":8745,"bies":8746,"bran":8747,"bart":8748,"basi":8749,"branchi":8750,"cim":8751,"dag":8752,"daff":8753,"ditch":8754,"dirt":8755,"differ":8756,"dwelling":8757,"fight":8758,"funn":8759,"frust":8760,"gav":8761,"gale":8762,"grot":8763,"hn":8764,"hend":8765,"kl":8766,"kak":8767,"lore":8768,"lair":8769,"lott":8770,"lark":8771,"mow":8772,"mull":8773,"nep":8774,"nib":8775,"nith":8776,"naked":8777,"pish":8778,"pity":8779,"rude":8780,"sass":8781,"scour":8782,"tep":8783,"tast":8784,"tuss":8785,"upro":8786,"vous":8787,"wi":8788,"wl":8789,"went":8790,"write":8791,"anese":8792,"atos":8793,"atae":8794,"envir":8795,"alm":8796,"icter":8797,"arer":8798,"orec":8799,"ingle":8800,"unro":8801,"unil":8802,"itol":8803,"ithy":8804,"elae":8805,"rometer":8806,"reward":8807,"reject":8808,"stib":8809,"leaden":8810,"chers":8811,"raf":8812,"olive":8813,"phall":8814,"phras":8815,"idolat":8816,"lyph":8817,"lyric":8818,"ulos":8819,"thanat":8820,"asa":8821,"urally":8822,"entric":8823,"oscul":8824,"otine":8825,"utz":8826,"rive":8827,"terat":8828,"impar":8829,"agal":8830,"aginous":8831,"verat":8832,"nonsyn":8833,"appear":8834,"shif":8835,"share":8836,"shame":8837,"conver":8838,"convol":8839,"consent":8840,"esteem":8841,"coon":8842,"cobal":8843,"cooper":8844,"ellike":8845,"ande":8846,"spondyl":8847,"prohib":8848,"exes":8849,"exempl":8850,"undem":8851,"inea":8852,"hyphen":8853,"udder":8854,"plural":8855,"illum":8856,"heir":8857,"heeled":8858,"obsess":8859,"obscur":8860,"tron":8861,"tres":8862,"scaph":8863,"deal":8864,"prun":8865,"ectasia":8866,"avian":8867,"mangan":8868,"foreb":8869,"foresh":8870,"ylate":8871,"olograph":8872,"disen":8873,"disse":8874,"disput":8875,"been":8876,"beau":8877,"upon":8878,"flint":8879,"flush":8880,"outst":8881,"outsp":8882,"parch":8883,"parac":8884,"param":8885,"trag":8886,"taen":8887,"ickle":8888,"mented":8889,"moot":8890,"semire":8891,"rops":8892,"metac":8893,"ocker":8894,"souther":8895,"inson":8896,"insular":8897,"egal":8898,"whar":8899,"while":8900,"carrying":8901,"lessnesses":8902,"evan":8903,"evis":8904,"ographs":8905,"ographers":8906,"hail":8907,"tonia":8908,"ageable":8909,"romic":8910,"mini":8911,"reticul":8912,"microg":8913,"archa":8914,"archical":8915,"brav":8916,"pedest":8917,"anny":8918,"annoy":8919,"ornis":8920,"feu":8921,"feat":8922,"declar":8923,"sert":8924,"strand":8925,"unsw":8926,"Chi":8927,"calend":8928,"incul":8929,"rigid":8930,"innoc":8931,"rected":8932,"otheca":8933,"malac":8934,"descri":8935,"hemia":8936,"tural":8937,"ancip":8938,"attend":8939,"salic":8940,"brood":8941,"bromo":8942,"breed":8943,"affection":8944,"zole":8945,"itionist":8946,"handled":8947,"solv":8948,"caten":8949,"contest":8950,"rotten":8951,"ruth":8952,"smok":8953,"capped":8954,"inaug":8955,"harvest":8956,"biot":8957,"sulfur":8958,"value":8959,"Arct":8960,"pauc":8961,"uffs":8962,"humeral":8963,"drain":8964,"transport":8965,"atural":8966,"secur":8967,"embell":8968,"iliac":8969,"tetan":8970,"phenol":8971,"hearth":8972,"philanthrop":8973,"modest":8974,"enteric":8975,"torch":8976,"ospher":8977,"thalass":8978,"sympt":8979,"wake":8980,"olyb":8981,"tallow":8982,"suppl":8983,"radic":8984,"motiv":8985,"sauc":8986,"analysis":8987,"lexic":8988,"sacro":8989,"opteran":8990,"popular":8991,"arteri":8992,"litho":8993,"casting":8994,"rability":8995,"begotten":8996,"turning":8997,"ocephalus":8998,"sixty":8999,"pastor":9000,"approach":9001,"someness":9002,"griev":9003,"benzene":9004,"sequential":9005,"destro":9006,"honest":9007,"didn":9008,"vacu":9009,"suspic":9010,"raceous":9011,"lected":9012,"branched":9013,"oietic":9014,"advantage":9015,"Scott":9016,"battle":9017,"valued":9018,"printing":9019,"cosmopol":9020,"hunger":9021,"epitheli":9022,"professional":9023,"odynamic":9024,"Greco":9025,"changing":9026,"origin":9027,"complexioned":9028,"column":9029,"scyph":9030,"hoofed":9031,"shouldered":9032,"ecclesiast":9033,"blossom":9034,"obenzene":9035,"overeign":9036,"BO":9037,"Bob":9038,"Brad":9039,"Cab":9040,"Cot":9041,"Cong":9042,"Coh":9043,"Crist":9044,"EE":9045,"Eug":9046,"Egy":9047,"GA":9048,"GS":9049,"Hop":9050,"Hill":9051,"Hipp":9052,"IP":9053,"Id":9054,"Ich":9055,"Jap":9056,"Ko":9057,"Kil":9058,"Kath":9059,"Lac":9060,"Lag":9061,"Oct":9062,"Pop":9063,"Phal":9064,"SE":9065,"ST":9066,"Sap":9067,"Stra":9068,"Tap":9069,"Win":9070,"Yor":9071,"aum":9072,"bian":9073,"brat":9074,"bidd":9075,"cure":9076,"eum":9077,"ease":9078,"gable":9079,"hitch":9080,"iid":9081,"jou":9082,"john":9083,"kah":9084,"lanc":9085,"lumb":9086,"lump":9087,"mite":9088,"mie":9089,"mier":9090,"named":9091,"pingly":9092,"pann":9093,"rish":9094,"tod":9095,"tied":9096,"tale":9097,"vot":9098,"yon":9099,"zier":9100,"zone":9101,"inized":9102,"anct":9103,"ancer":9104,"anomal":9105,"atrop":9106,"also":9107,"isin":9108,"orist":9109,"unbo":9110,"unmar":9111,"unvit":9112,"elor":9113,"elong":9114,"elitis":9115,"rosy":9116,"reas":9117,"remed":9118,"repet":9119,"revis":9120,"rejo":9121,"reconc":9122,"regener":9123,"reaction":9124,"style":9125,"leb":9126,"lew":9127,"lear":9128,"leted":9129,"leuco":9130,"chip":9131,"usia":9132,"ilating":9133,"phrag":9134,"omus":9135,"omantic":9136,"iones":9137,"acities":9138,"ulch":9139,"ulite":9140,"thwart":9141,"thrift":9142,"assu":9143,"asian":9144,"urist":9145,"abial":9146,"absent":9147,"ento":9148,"empy":9149,"emuls":9150,"emancip":9151,"amite":9152,"amaz":9153,"ameb":9154,"admon":9155,"oglos":9156,"ecal":9157,"opers":9158,"oppress":9159,"imide":9160,"agit":9161,"aggrav":9162,"ocor":9163,"odra":9164,"odec":9165,"noner":9166,"ifs":9167,"ellable":9168,"ellae":9169,"ellated":9170,"spik":9171,"unden":9172,"undet":9173,"inee":9174,"illusion":9175,"seg":9176,"hew":9177,"hears":9178,"prink":9179,"ceed":9180,"neb":9181,"manager":9182,"ako":9183,"ostenosis":9184,"comple":9185,"indent":9186,"bout":9187,"dispos":9188,"beast":9189,"teach":9190,"upright":9191,"ieg":9192,"outed":9193,"parach":9194,"parthen":9195,"worst":9196,"assess":9197,"assur":9198,"assist":9199,"taper":9200,"taint":9201,"tole":9202,"toil":9203,"ensor":9204,"awak":9205,"aways":9206,"resin":9207,"resid":9208,"oneu":9209,"activity":9210,"metabol":9211,"soid":9212,"ithal":9213,"carnal":9214,"pool":9215,"pey":9216,"peas":9217,"ptian":9218,"grap":9219,"oft":9220,"brin":9221,"bride":9222,"microph":9223,"pedic":9224,"iches":9225,"auro":9226,"ornament":9227,"feoff":9228,"seren":9229,"aute":9230,"olds":9231,"unga":9232,"ungen":9233,"incap":9234,"incub":9235,"incrust":9236,"aneousness":9237,"sonville":9238,"omechan":9239,"centrif":9240,"goer":9241,"attest":9242,"hyperbol":9243,"phalang":9244,"palud":9245,"democrat":9246,"polymer":9247,"solar":9248,"culp":9249,"rotund":9250,"ariaceae":9251,"bias":9252,"balsam":9253,"elda":9254,"lake":9255,"predef":9256,"primit":9257,"uffer":9258,"photot":9259,"pursu":9260,"rider":9261,"humili":9262,"ationalist":9263,"mellow":9264,"velvet":9265,"strad":9266,"pike":9267,"dye":9268,"dyed":9269,"dyst":9270,"remitt":9271,"nerve":9272,"nerved":9273,"besh":9274,"secular":9275,"limit":9276,"creep":9277,"unky":9278,"pulp":9279,"divid":9280,"scribing":9281,"telep":9282,"gonna":9283,"immers":9284,"bands":9285,"radical":9286,"audi":9287,"cardinal":9288,"laced":9289,"devouring":9290,"framed":9291,"labi":9292,"organization":9293,"sulpho":9294,"sinist":9295,"circumst":9296,"virgin":9297,"specific":9298,"instinct":9299,"setter":9300,"vicar":9301,"placent":9302,"titan":9303,"linesses":9304,"federal":9305,"sapon":9306,"cholester":9307,"bronze":9308,"ifera":9309,"falcon":9310,"ophysial":9311,"prosely":9312,"happy":9313,"neglect":9314,"hopper":9315,"oplasmic":9316,"raceae":9317,"cleaning":9318,"gutt":9319,"practic":9320,"measure":9321,"dressed":9322,"piercing":9323,"jargon":9324,"consult":9325,"Pyth":9326,"cerebro":9327,"introspect":9328,"structed":9329,"walker":9330,"external":9331,"eighty":9332,"ogastric":9333,"inherit":9334,"Austral":9335,"ococcus":9336,"jewel":9337,"embarrass":9338,"imbric":9339,"ocrystall":9340,"vapour":9341,"descend":9342,"fringed":9343,"phthong":9344,"neighbor":9345,"resurrect":9346,"orrhoea":9347,"amygdal":9348,"Ass":9349,"Cut":9350,"Cob":9351,"Cow":9352,"Caly":9353,"DN":9354,"Dun":9355,"Dom":9356,"Et":9357,"Eri":9358,"Echin":9359,"FR":9360,"Fin":9361,"Gon":9362,"Gay":9363,"Greg":9364,"HA":9365,"HE":9366,"Hon":9367,"Hur":9368,"Hem":9369,"Heli":9370,"IR":9371,"Jen":9372,"Kn":9373,"Ku":9374,"Lut":9375,"Mand":9376,"Mong":9377,"Nat":9378,"Nar":9379,"Nap":9380,"Nord":9381,"Op":9382,"Ox":9383,"Oak":9384,"Raph":9385,"Syl":9386,"Ton":9387,"Winn":9388,"Zyg":9389,"aith":9390,"boss":9391,"cest":9392,"celled":9393,"code":9394,"dad":9395,"dug":9396,"dron":9397,"dual":9398,"dove":9399,"euch":9400,"fad":9401,"fide":9402,"finn":9403,"final":9404,"finned":9405,"gog":9406,"gaw":9407,"giant":9408,"hl":9409,"iantly":9410,"jap":9411,"jee":9412,"kur":9413,"kitt":9414,"killing":9415,"kneed":9416,"lish":9417,"lumber":9418,"mord":9419,"mias":9420,"mott":9421,"nuc":9422,"numb":9423,"oir":9424,"oidean":9425,"pess":9426,"pied":9427,"pawn":9428,"rence":9429,"riloqu":9430,"sard":9431,"tex":9432,"tine":9433,"ties":9434,"tak":9435,"tug":9436,"twe":9437,"tung":9438,"trol":9439,"upr":9440,"vam":9441,"via":9442,"void":9443,"wra":9444,"wom":9445,"wob":9446,"wak":9447,"weld":9448,"waters":9449,"wrath":9450,"ylo":9451,"zable":9452,"erism":9453,"erie":9454,"inde":9455,"instr":9456,"invit":9457,"incorpor":9458,"onent":9459,"enlight":9460,"aliment":9461,"oris":9462,"oras":9463,"orcin":9464,"itia":9465,"itian":9466,"elus":9467,"elier":9468,"rode":9469,"roup":9470,"repar":9471,"reple":9472,"recal":9473,"stol":9474,"stable":9475,"steth":9476,"stigmat":9477,"leis":9478,"leigh":9479,"checker":9480,"ilis":9481,"ilizing":9482,"older":9483,"etus":9484,"etum":9485,"phonic":9486,"phthal":9487,"idel":9488,"idge":9489,"idities":9490,"idered":9491,"acial":9492,"accur":9493,"acral":9494,"accompan":9495,"thion":9496,"entit":9497,"emata":9498,"otus":9499,"adorn":9500,"ousing":9501,"ogan":9502,"riest":9503,"oppos":9504,"ivate":9505,"ags":9506,"agar":9507,"occur":9508,"oden":9509,"perme":9510,"apit":9511,"antiv":9512,"quill":9513,"sustain":9514,"shr":9515,"shrub":9516,"loos":9517,"coph":9518,"coul":9519,"androg":9520,"androus":9521,"spad":9522,"spike":9523,"exerc":9524,"exorc":9525,"preach":9526,"pluck":9527,"oba":9528,"oble":9529,"obot":9530,"obate":9531,"obser":9532,"tral":9533,"scam":9534,"scape":9535,"deg":9536,"dehyd":9537,"prism":9538,"printed":9539,"avoid":9540,"mania":9541,"manner":9542,"endors":9543,"yland":9544,"clusive":9545,"commiss":9546,"comprehens":9547,"indist":9548,"independ":9549,"indemn":9550,"anged":9551,"angelic":9552,"suber":9553,"dispers":9554,"dissent":9555,"being":9556,"fluct":9557,"outd":9558,"traged":9559,"cten":9560,"tains":9561,"cyon":9562,"cyto":9563,"atorially":9564,"interest":9565,"fulmin":9566,"fuller":9567,"ensian":9568,"ensively":9569,"ieres":9570,"ideous":9571,"award":9572,"hoo":9573,"glu":9574,"glar":9575,"glam":9576,"redec":9577,"semig":9578,"semian":9579,"arts":9580,"ahan":9581,"yses":9582,"colic":9583,"poke":9584,"slick":9585,"fove":9586,"answer":9587,"heres":9588,"letic":9589,"meet":9590,"oxys":9591,"skel":9592,"geries":9593,"thear":9594,"decid":9595,"decad":9596,"seraph":9597,"stru":9598,"axy":9599,"autot":9600,"olding":9601,"mensu":9602,"igning":9603,"anthous":9604,"blem":9605,"swine":9606,"relation":9607,"relie":9608,"arean":9609,"goos":9610,"ancest":9611,"aired":9612,"ificatory":9613,"affron":9614,"pets":9615,"pett":9616,"catalog":9617,"presup":9618,"presub":9619,"contamin":9620,"contempl":9621,"ariidae":9622,"border":9623,"rhagia":9624,"denomin":9625,"accep":9626,"sulphon":9627,"valet":9628,"cracker":9629,"charm":9630,"refin":9631,"commut":9632,"homolog":9633,"purchas":9634,"pressure":9635,"urably":9636,"urableness":9637,"urability":9638,"makers":9639,"added":9640,"prayer":9641,"foots":9642,"faces":9643,"extend":9644,"greed":9645,"transpar":9646,"config":9647,"trouble":9648,"plicated":9649,"pulmon":9650,"divul":9651,"entertain":9652,"Stan":9653,"otypes":9654,"imming":9655,"immig":9656,"ergic":9657,"summar":9658,"radiot":9659,"vesic":9660,"ophyce":9661,"sacrific":9662,"fraught":9663,"arthritis":9664,"Ind":9665,"treason":9666,"thesia":9667,"judging":9668,"opodium":9669,"electroly":9670,"aggle":9671,"camel":9672,"chemic":9673,"attered":9674,"playing":9675,"sleek":9676,"profan":9677,"paleo":9678,"glyc":9679,"Hyper":9680,"urgic":9681,"echin":9682,"suffer":9683,"fleck":9684,"hypothec":9685,"washing":9686,"acquies":9687,"plume":9688,"opolis":9689,"obiology":9690,"ippus":9691,"Hebra":9692,"acoust":9693,"drops":9694,"granul":9695,"woolly":9696,"pecul":9697,"ocarcin":9698,"maybe":9699,"pronounc":9700,"nickel":9701,"cerebr":9702,"epithel":9703,"ochemistry":9704,"steeple":9705,"Megal":9706,"militar":9707,"ahedron":9708,"pancreat":9709,"obranchia":9710,"squirrel":9711,"shoulder":9712,"ipotent":9713,"pyramid":9714,"prompt":9715,"oplegia":9716,"floccul":9717,"algebra":9718,"Ae":9719,"Amar":9720,"Bet":9721,"Buc":9722,"Buck":9723,"Boy":9724,"Cav":9725,"Dul":9726,"Ep":9727,"Ear":9728,"FA":9729,"Fel":9730,"Gir":9731,"High":9732,"King":9733,"Lav":9734,"MD":9735,"Mun":9736,"Olym":9737,"Pant":9738,"Pont":9739,"Ran":9740,"Rab":9741,"Rud":9742,"Sad":9743,"Tib":9744,"VS":9745,"awe":9746,"avers":9747,"afore":9748,"bant":9749,"bote":9750,"budd":9751,"cib":9752,"caf":9753,"cave":9754,"dign":9755,"drown":9756,"dental":9757,"dextr":9758,"eject":9759,"fuc":9760,"fuss":9761,"fying":9762,"gip":9763,"gish":9764,"gone":9765,"glow":9766,"iker":9767,"kenn":9768,"kitch":9769,"math":9770,"nett":9771,"nimble":9772,"oom":9773,"oul":9774,"olet":9775,"oons":9776,"pings":9777,"pamph":9778,"rise":9779,"rings":9780,"rue":9781,"rators":9782,"sull":9783,"scow":9784,"tink":9785,"tatt":9786,"vom":9787,"varn":9788,"watt":9789,"eros":9790,"inary":9791,"anin":9792,"anorth":9793,"atious":9794,"ativity":9795,"icus":9796,"arrest":9797,"unwe":9798,"unfe":9799,"untw":9800,"unmed":9801,"itically":9802,"itousness":9803,"itiner":9804,"elast":9805,"rean":9806,"reins":9807,"stab":9808,"stann":9809,"strict":9810,"leman":9811,"lete":9812,"chia":9813,"challen":9814,"ravel":9815,"olly":9816,"etian":9817,"omist":9818,"omeg":9819,"idation":9820,"acclimat":9821,"ulted":9822,"ulled":9823,"urid":9824,"abond":9825,"oside":9826,"otonic":9827,"adopt":9828,"rifer":9829,"ripen":9830,"opes":9831,"opor":9832,"opsy":9833,"opped":9834,"ivy":9835,"ivistic":9836,"imus":9837,"immed":9838,"agent":9839,"agement":9840,"izard":9841,"ocom":9842,"igated":9843,"igram":9844,"antry":9845,"antie":9846,"quist":9847,"quir":9848,"shor":9849,"iflu":9850,"ippe":9851,"contain":9852,"coinc":9853,"couch":9854,"ellent":9855,"spas":9856,"spine":9857,"spath":9858,"spout":9859,"progn":9860,"exam":9861,"exact":9862,"epin":9863,"epiz":9864,"iancy":9865,"iances":9866,"undy":9867,"asth":9868,"astical":9869,"ineal":9870,"ishingly":9871,"uda":9872,"sew":9873,"seat":9874,"obliv":9875,"alli":9876,"scep":9877,"dean":9878,"devi":9879,"ects":9880,"ective":9881,"manic":9882,"forer":9883,"former":9884,"akis":9885,"ylon":9886,"claw":9887,"ugu":9888,"ostal":9889,"ostomatous":9890,"comfort":9891,"indign":9892,"subtil":9893,"bef":9894,"bey":9895,"beach":9896,"behav":9897,"parted":9898,"tragic":9899,"worded":9900,"atorium":9901,"achi":9902,"result":9903,"hoy":9904,"gla":9905,"soil":9906,"egu":9907,"egreg":9908,"carbur":9909,"polish":9910,"diph":9911,"diagram":9912,"illeg":9913,"pounder":9914,"sling":9915,"slate":9916,"slang":9917,"pton":9918,"romant":9919,"mina":9920,"bars":9921,"barked":9922,"herpet":9923,"merchant":9924,"bris":9925,"skins":9926,"myster":9927,"burs":9928,"brace":9929,"brack":9930,"ichord":9931,"ashi":9932,"axed":9933,"unsol":9934,"owner":9935,"owned":9936,"onga":9937,"eptive":9938,"hydraz":9939,"gris":9940,"grub":9941,"iko":9942,"genic":9943,"ained":9944,"innate":9945,"anee":9946,"othorax":9947,"sonnet":9948,"desulfur":9949,"bedded":9950,"hemic":9951,"relev":9952,"turbin":9953,"airn":9954,"rolite":9955,"venge":9956,"salmon":9957,"encumber":9958,"catcher":9959,"canker":9960,"rule":9961,"queer":9962,"caes":9963,"schemat":9964,"harm":9965,"ringing":9966,"synd":9967,"unfri":9968,"vention":9969,"pattern":9970,"prior":9971,"wares":9972,"erna":9973,"melt":9974,"yllable":9975,"restra":9976,"viper":9977,"tenu":9978,"bonnet":9979,"ocycl":9980,"ocytic":9981,"phyto":9982,"uka":9983,"extrem":9984,"extempor":9985,"gyro":9986,"transpl":9987,"atures":9988,"splash":9989,"created":9990,"compact":9991,"Shel":9992,"anticom":9993,"winding":9994,"ertion":9995,"scribe":9996,"omorpha":9997,"otypy":9998,"dogs":9999,"iacs":10000,"cherry":10001,"imput":10002,"adenitis":10003,"onymic":10004,"looks":10005,"dipter":10006,"arthrosis":10007,"Indian":10008,"mutual":10009,"ophorus":10010,"chemistry":10011,"attering":10012,"vertible":10013,"institutional":10014,"foli":10015,"reviv":10016,"revoc":10017,"mistress":10018,"odermic":10019,"alytic":10020,"drink":10021,"turnip":10022,"emplo":10023,"laying":10024,"papill":10025,"chrome":10026,"masters":10027,"ocratical":10028,"brief":10029,"sanit":10030,"suffrag":10031,"licent":10032,"blowing":10033,"frivol":10034,"frizz":10035,"dishon":10036,"vocal":10037,"griff":10038,"climbing":10039,"total":10040,"hepatic":10041,"odontoid":10042,"ganglion":10043,"Cycl":10044,"caval":10045,"rhynch":10046,"planted":10047,"washer":10048,"suspens":10049,"seeing":10050,"hilar":10051,"marty":10052,"Myx":10053,"elegraph":10054,"heroic":10055,"binding":10056,"horses":10057,"metaphys":10058,"widow":10059,"sibil":10060,"international":10061,"fossil":10062,"prophet":10063,"allevi":10064,"arctic":10065,"myrmec":10066,"government":10067,"insurrect":10068,"nectar":10069,"ifoliate":10070,"celebr":10071,"tobacco":10072,"heathen":10073,"Sphaer":10074,"grinding":10075,"skirted":10076,"eagle":10077,"thoughted":10078,"Jesuit":10079,"rhabd":10080,"Aph":10081,"Arab":10082,"But":10083,"Bri":10084,"Burn":10085,"Brun":10086,"Cant":10087,"Cay":10088,"Carp":10089,"Cephal":10090,"Dow":10091,"Dry":10092,"Ever":10093,"Fra":10094,"Fur":10095,"Gard":10096,"Has":10097,"Haz":10098,"Ju":10099,"Jess":10100,"Jam":10101,"Just":10102,"Jah":10103,"Kas":10104,"Kim":10105,"LL":10106,"Mit":10107,"NP":10108,"NU":10109,"Pon":10110,"Pitt":10111,"Ru":10112,"SA":10113,"SI":10114,"Ten":10115,"Tol":10116,"Tab":10117,"Tham":10118,"Ve":10119,"Xanth":10120,"aught":10121,"boc":10122,"baff":10123,"bele":10124,"bunk":10125,"bump":10126,"cter":10127,"cated":10128,"clow":10129,"crag":10130,"cigar":10131,"dall":10132,"dition":10133,"fon":10134,"fis":10135,"fisted":10136,"gull":10137,"gets":10138,"hic":10139,"hik":10140,"hunt":10141,"huge":10142,"iy":10143,"iologic":10144,"jell":10145,"kot":10146,"kier":10147,"kiest":10148,"lave":10149,"mudd":10150,"nation":10151,"nip":10152,"nay":10153,"pah":10154,"padd":10155,"punk":10156,"pudding":10157,"rarch":10158,"rere":10159,"rants":10160,"sau":10161,"sink":10162,"samb":10163,"sister":10164,"uche":10165,"vad":10166,"vical":10167,"vard":10168,"vascular":10169,"wam":10170,"xis":10171,"yester":10172,"zation":10173,"zir":10174,"erupt":10175,"atl":10176,"atar":10177,"atian":10178,"enous":10179,"alable":10180,"alike":10181,"edic":10182,"isco":10183,"isian":10184,"iculture":10185,"arrog":10186,"unel":10187,"uninf":10188,"uneff":10189,"item":10190,"itely":10191,"itone":10192,"elers":10193,"retr":10194,"rebo":10195,"rete":10196,"strig":10197,"strep":10198,"stagn":10199,"stump":10200,"lep":10201,"lemon":10202,"leader":10203,"chus":10204,"rableness":10205,"olated":10206,"olitan":10207,"eties":10208,"etho":10209,"phe":10210,"phin":10211,"omethane":10212,"idle":10213,"idist":10214,"ididae":10215,"acan":10216,"ulu":10217,"thly":10218,"asphy":10219,"urch":10220,"urian":10221,"abular":10222,"entia":10223,"embal":10224,"osphen":10225,"osarcoma":10226,"adec":10227,"adable":10228,"uto":10229,"umar":10230,"ecraft":10231,"opyr":10232,"opneum":10233,"ivation":10234,"implic":10235,"agi":10236,"agr":10237,"agous":10238,"agli":10239,"ocere":10240,"oclastic":10241,"ocracies":10242,"permut":10243,"vertic":10244,"nonconf":10245,"apes":10246,"apop":10247,"anto":10248,"antial":10249,"antee":10250,"quake":10251,"irus":10252,"shi":10253,"shall":10254,"shining":10255,"shrink":10256,"loom":10257,"coth":10258,"coup":10259,"counc":10260,"elline":10261,"spy":10262,"spice":10263,"sprit":10264,"proter":10265,"proton":10266,"promot":10267,"prospect":10268,"explan":10269,"expression":10270,"epe":10271,"ismic":10272,"unda":10273,"undev":10274,"astig":10275,"uds":10276,"overpro":10277,"illess":10278,"illage":10279,"segreg":10280,"segment":10281,"heels":10282,"obj":10283,"obsc":10284,"ardo":10285,"scram":10286,"scrup":10287,"scraw":10288,"pride":10289,"avit":10290,"endum":10291,"blush":10292,"bladed":10293,"compound":10294,"ologizing":10295,"disper":10296,"bez":10297,"beater":10298,"beaked":10299,"teg":10300,"teacher":10301,"ieu":10302,"flike":10303,"parcel":10304,"interject":10305,"enser":10306,"mise":10307,"wealth":10308,"intoler":10309,"mould":10310,"ranial":10311,"rician":10312,"matter":10313,"mative":10314,"glers":10315,"glamor":10316,"rede":10317,"semiv":10318,"sof":10319,"sov":10320,"soot":10321,"soup":10322,"whor":10323,"whale":10324,"collabor":10325,"oides":10326,"political":10327,"dik":10328,"pouch":10329,"slumber":10330,"derog":10331,"foun":10332,"romous":10333,"grasp":10334,"graft":10335,"gravel":10336,"thermal":10337,"minis":10338,"minute":10339,"barric":10340,"bargain":10341,"skid":10342,"mycet":10343,"burst":10344,"guys":10345,"guilt":10346,"arche":10347,"feit":10348,"headedly":10349,"uncal":10350,"unciation":10351,"uncircum":10352,"unsus":10353,"Chry":10354,"Chlor":10355,"Ang":10356,"eptate":10357,"incis":10358,"genetic":10359,"aines":10360,"ocha":10361,"ochromat":10362,"onda":10363,"innov":10364,"pycn":10365,"poss":10366,"poses":10367,"posable":10368,"sway":10369,"centric":10370,"porous":10371,"airs":10372,"airy":10373,"aphth":10374,"affl":10375,"ethic":10376,"ennes":10377,"demand":10378,"panthe":10379,"polyp":10380,"encir":10381,"amby":10382,"elephant":10383,"culum":10384,"isses":10385,"borg":10386,"rhomb":10387,"rhaps":10388,"caper":10389,"steat":10390,"accred":10391,"synerg":10392,"valent":10393,"ionalism":10394,"unner":10395,"election":10396,"crap":10397,"crazy":10398,"charging":10399,"uffing":10400,"squaw":10401,"purse":10402,"ridicul":10403,"agnosis":10404,"belief":10405,"ohist":10406,"viable":10407,"deline":10408,"omatosis":10409,"iffs":10410,"piper":10411,"cirro":10412,"equivoc":10413,"iferousness":10414,"benevol":10415,"hydroly":10416,"vitri":10417,"thyroid":10418,"ballad":10419,"harden":10420,"crypto":10421,"joined":10422,"concret":10423,"missible":10424,"bullet":10425,"amphic":10426,"extravag":10427,"lasm":10428,"bowl":10429,"lacer":10430,"ophilist":10431,"witness":10432,"crooked":10433,"idential":10434,"local":10435,"whey":10436,"escency":10437,"opteris":10438,"gamet":10439,"should":10440,"euph":10441,"pelt":10442,"castle":10443,"fiber":10444,"Hyd":10445,"sediment":10446,"drill":10447,"cornered":10448,"Ornith":10449,"iolate":10450,"papy":10451,"juris":10452,"ospasm":10453,"ospondyl":10454,"cellar":10455,"botan":10456,"magist":10457,"rolls":10458,"flagellate":10459,"ocarpic":10460,"palaeo":10461,"chanter":10462,"hurst":10463,"saving":10464,"Turko":10465,"around":10466,"packed":10467,"prosop":10468,"machin":10469,"puppet":10470,"amido":10471,"convex":10472,"convey":10473,"random":10474,"flavored":10475,"epigram":10476,"akespe":10477,"breathed":10478,"journ":10479,"quarrel":10480,"victim":10481,"Acanth":10482,"wisdom":10483,"phaner":10484,"eaten":10485,"oparas":10486,"plagiar":10487,"ostomous":10488,"puer":10489,"issue":10490,"Chaet":10491,"dandy":10492,"chisis":10493,"naphthal":10494,"arithmet":10495,"odendron":10496,"duodec":10497,"ifolious":10498,"scandal":10499,"molecular":10500,"fragment":10501,"syllog":10502,"arachn":10503,"Welsh":10504,"endocrin":10505,"Hellen":10506,"peacock":10507,"nothing":10508,"strewn":10509,"ophageal":10510,"Hibern":10511,"trapez":10512,"daughter":10513,"upholster":10514,"Adri":10515,"Bed":10516,"Bus":10517,"Band":10518,"Brig":10519,"Beth":10520,"CL":10521,"CP":10522,"CT":10523,"DB":10524,"DU":10525,"Eph":10526,"East":10527,"Esk":10528,"Eld":10529,"Ess":10530,"Euph":10531,"Europ":10532,"Fort":10533,"Gri":10534,"Hom":10535,"Haw":10536,"IA":10537,"IO":10538,"Lepid":10539,"Mod":10540,"Math":10541,"Mith":10542,"Nab":10543,"Pis":10544,"Pra":10545,"Pul":10546,"RM":10547,"Ric":10548,"Sed":10549,"Sib":10550,"Sak":10551,"Sau":10552,"Smith":10553,"South":10554,"UN":10555,"VA":10556,"Viv":10557,"WS":10558,"Wend":10559,"bagg":10560,"cil":10561,"cres":10562,"catt":10563,"dox":10564,"dorm":10565,"darn":10566,"eager":10567,"fry":10568,"fanc":10569,"foll":10570,"fame":10571,"fusc":10572,"frug":10573,"fuzz":10574,"goth":10575,"gilt":10576,"hush":10577,"hagg":10578,"husk":10579,"iations":10580,"iosis":10581,"jung":10582,"kis":10583,"kow":10584,"kha":10585,"lau":10586,"miest":10587,"mule":10588,"molyb":10589,"nug":10590,"oist":10591,"pung":10592,"rho":10593,"ruck":10594,"same":10595,"tup":10596,"tith":10597,"wack":10598,"wrest":10599,"yod":10600,"yarn":10601,"zero":10602,"incarn":10603,"only":10604,"esters":10605,"aning":10606,"anom":10607,"anos":10608,"anagram":10609,"atia":10610,"enet":10611,"enger":10612,"enanti":10613,"icles":10614,"armo":10615,"ario":10616,"orot":10617,"uncar":10618,"unbes":10619,"itro":10620,"rook":10621,"rex":10622,"recl":10623,"react":10624,"stau":10625,"stamp":10626,"stood":10627,"chess":10628,"chatt":10629,"chested":10630,"channel":10631,"ilion":10632,"ilver":10633,"olent":10634,"olos":10635,"etor":10636,"etize":10637,"etown":10638,"phae":10639,"phthis":10640,"omys":10641,"idene":10642,"idase":10643,"acing":10644,"ulia":10645,"thum":10646,"those":10647,"thatch":10648,"asbest":10649,"urism":10650,"abys":10651,"abhor":10652,"embr":10653,"osus":10654,"osoma":10655,"amon":10656,"amous":10657,"ammed":10658,"amni":10659,"otting":10660,"adap":10661,"ogal":10662,"ogel":10663,"ogens":10664,"ecess":10665,"ivery":10666,"imens":10667,"again":10668,"oca":10669,"pere":10670,"persuas":10671,"igrade":10672,"verm":10673,"nonrel":10674,"nonrep":10675,"nontrans":10676,"nonspec":10677,"nonsens":10678,"appra":10679,"qued":10680,"shine":10681,"shee":10682,"loo":10683,"lover":10684,"lough":10685,"lobul":10686,"ifted":10687,"iffe":10688,"conic":10689,"confl":10690,"conspir":10691,"concord":10692,"congreg":10693,"coil":10694,"cout":10695,"spel":10696,"spook":10697,"spleen":10698,"spindle":10699,"excurs":10700,"ianic":10701,"astric":10702,"inequ":10703,"oversp":10704,"illin":10705,"uced":10706,"aeol":10707,"heed":10708,"heimer":10709,"ober":10710,"obar":10711,"alliter":10712,"scrag":10713,"dear":10714,"prent":10715,"ayne":10716,"neust":10717,"avail":10718,"mancy":10719,"forget":10720,"clip":10721,"clair":10722,"ophane":10723,"opharyngeal":10724,"uged":10725,"blan":10726,"bland":10727,"blade":10728,"osteg":10729,"ostomata":10730,"comic":10731,"commission":10732,"complement":10733,"angios":10734,"bouch":10735,"bought":10736,"boiler":10737,"beating":10738,"beaver":10739,"ieval":10740,"flum":10741,"parabol":10742,"parliament":10743,"ubiqu":10744,"trach":10745,"trades":10746,"traitor":10747,"assent":10748,"cytop":10749,"cycle":10750,"toff":10751,"syring":10752,"acha":10753,"roned":10754,"reson":10755,"resub":10756,"cored":10757,"corrup":10758,"corrobor":10759,"glauc":10760,"redo":10761,"artite":10762,"articular":10763,"metro":10764,"metab":10765,"ithic":10766,"insk":10767,"egot":10768,"whistle":10769,"carac":10770,"carab":10771,"carcer":10772,"carbol":10773,"urethro":10774,"diphthong":10775,"pox":10776,"peep":10777,"fought":10778,"anson":10779,"grape":10780,"grading":10781,"ults":10782,"roses":10783,"meek":10784,"geront":10785,"archal":10786,"braw":10787,"braz":10788,"twitch":10789,"decre":10790,"ormal":10791,"veh":10792,"veil":10793,"strange":10794,"uncate":10795,"iley":10796,"Anton":10797,"calf":10798,"hydrin":10799,"snar":10800,"snatch":10801,"inna":10802,"recuper":10803,"othy":10804,"swept":10805,"sonic":10806,"cently":10807,"despot":10808,"hemip":10809,"chei":10810,"pseudob":10811,"cured":10812,"salut":10813,"palp":10814,"itioned":10815,"handy":10816,"solen":10817,"preser":10818,"prescript":10819,"contempor":10820,"cula":10821,"earnest":10822,"smut":10823,"smell":10824,"smug":10825,"smelling":10826,"bored":10827,"office":10828,"ragon":10829,"legal":10830,"repur":10831,"infus":10832,"synap":10833,"forms":10834,"commens":10835,"uffy":10836,"photos":10837,"psor":10838,"melon":10839,"multiv":10840,"adding":10841,"topsy":10842,"tenant":10843,"bonn":10844,"surviv":10845,"circle":10846,"noon":10847,"gypsy":10848,"cloak":10849,"ortho":10850,"aero":10851,"cinemat":10852,"cinchon":10853,"comput":10854,"engross":10855,"lection":10856,"Marc":10857,"vituper":10858,"buy":10859,"ifiedly":10860,"muscular":10861,"excav":10862,"protuber":10863,"uncture":10864,"precept":10865,"occipit":10866,"logic":10867,"waiter":10868,"summ":10869,"simon":10870,"lights":10871,"vesicul":10872,"ophyta":10873,"mitting":10874,"helminth":10875,"itorial":10876,"labour":10877,"sweat":10878,"quadrup":10879,"mutton":10880,"tinct":10881,"tinsel":10882,"courte":10883,"urned":10884,"wheeled":10885,"otropically":10886,"camer":10887,"iodide":10888,"factory":10889,"prodig":10890,"europ":10891,"lifer":10892,"sense":10893,"jacket":10894,"odermat":10895,"standing":10896,"fibrill":10897,"iderite":10898,"flour":10899,"nitros":10900,"fourth":10901,"burned":10902,"Schiz":10903,"Orth":10904,"placed":10905,"emption":10906,"initial":10907,"title":10908,"adoes":10909,"Quaker":10910,"uvial":10911,"bergite":10912,"bosomed":10913,"falls":10914,"agua":10915,"approb":10916,"vocifer":10917,"obiological":10918,"something":10919,"spiny":10920,"stepping":10921,"sequest":10922,"figured":10923,"ocoele":10924,"dilat":10925,"perioste":10926,"gynaec":10927,"chondri":10928,"positional":10929,"perfection":10930,"yoke":10931,"seeded":10932,"favour":10933,"multiple":10934,"esthesis":10935,"phyllo":10936,"willy":10937,"studded":10938,"garden":10939,"meaning":10940,"itudes":10941,"cannib":10942,"wearied":10943,"budget":10944,"improvis":10945,"fashioned":10946,"consciousness":10947,"eloqu":10948,"ospermous":10949,"dichotom":10950,"hunter":10951,"itarianism":10952,"skew":10953,"melodra":10954,"ifully":10955,"ifulness":10956,"tawny":10957,"tuned":10958,"glucos":10959,"ulturist":10960,"Juda":10961,"establishment":10962,"function":10963,"learned":10964,"Italian":10965,"stirring":10966,"ectomize":10967,"russian":10968,"politico":10969,"Negro":10970,"propagand":10971,"dollar":10972,"beauty":10973,"omycetes":10974,"formative":10975,"conceptual":10976,"methane":10977,"tulip":10978,"decarbon":10979,"bureauc":10980,"weapon":10981,"oclimat":10982,"destroying":10983,"Ast":10984,"Aver":10985,"Aub":10986,"Afric":10987,"Broad":10988,"Ced":10989,"Cul":10990,"Coch":10991,"Coll":10992,"Celt":10993,"EP":10994,"Eur":10995,"FC":10996,"Fern":10997,"Hun":10998,"How":10999,"Hav":11000,"IN":11001,"LP":11002,"Lon":11003,"Lis":11004,"Lad":11005,"Mak":11006,"Nah":11007,"Og":11008,"Oss":11009,"Pit":11010,"Pad":11011,"Pav":11012,"Pha":11013,"Rot":11014,"Rand":11015,"Som":11016,"Sac":11017,"Sund":11018,"TN":11019,"Tay":11020,"Thal":11021,"Wat":11022,"Was":11023,"Water":11024,"aesthetic":11025,"bine":11026,"bric":11027,"bending":11028,"cric":11029,"cune":11030,"crescent":11031,"dain":11032,"dance":11033,"dwar":11034,"eid":11035,"fter":11036,"fath":11037,"fting":11038,"fels":11039,"frock":11040,"fidd":11041,"foster":11042,"gt":11043,"gne":11044,"gedness":11045,"gently":11046,"gaud":11047,"hass":11048,"hock":11049,"hope":11050,"iatory":11051,"jov":11052,"jux":11053,"kre":11054,"kink":11055,"mok":11056,"mille":11057,"nis":11058,"nir":11059,"nite":11060,"nard":11061,"nomin":11062,"pion":11063,"pam":11064,"pok":11065,"punt":11066,"pott":11067,"rind":11068,"sord":11069,"trow":11070,"titt":11071,"tangle":11072,"vatic":11073,"waste":11074,"yel":11075,"yog":11076,"zia":11077,"zine":11078,"eress":11079,"inan":11080,"insp":11081,"iners":11082,"intoxic":11083,"invalid":11084,"eser":11085,"anor":11086,"anec":11087,"atric":11088,"env":11089,"enas":11090,"enyl":11091,"english":11092,"alex":11093,"isod":11094,"isia":11095,"isingly":11096,"iscope":11097,"icult":11098,"arite":11099,"unent":11100,"unite":11101,"unmor":11102,"itoid":11103,"elim":11104,"elize":11105,"retra":11106,"reme":11107,"retract":11108,"rejuven":11109,"stig":11110,"stabil":11111,"lech":11112,"chak":11113,"chann":11114,"usal":11115,"rael":11116,"olize":11117,"olymph":11118,"etty":11119,"etail":11120,"phs":11121,"phaen":11122,"omia":11123,"ombro":11124,"idig":11125,"idious":11126,"idios":11127,"aculum":11128,"theg":11129,"thimble":11130,"ureless":11131,"abra":11132,"absc":11133,"abeth":11134,"absin":11135,"entine":11136,"emerg":11137,"oseness":11138,"osophy":11139,"amort":11140,"adal":11141,"advoc":11142,"riger":11143,"opping":11144,"opithec":11145,"opportun":11146,"opoietic":11147,"tera":11148,"ivated":11149,"imos":11150,"imple":11151,"imbib":11152,"agle":11153,"agam":11154,"agged":11155,"ocin":11156,"octop":11157,"odous":11158,"odge":11159,"igs":11160,"igenic":11161,"verd":11162,"vermic":11163,"nonev":11164,"api":11165,"apar":11166,"apital":11167,"quib":11168,"quack":11169,"quaint":11170,"loe":11171,"lobed":11172,"consign":11173,"congress":11174,"eston":11175,"cov":11176,"could":11177,"coerc":11178,"ellas":11179,"ellia":11180,"spra":11181,"spade":11182,"spinal":11183,"spray":11184,"proc":11185,"prostat":11186,"exer":11187,"excre":11188,"extern":11189,"experi":11190,"exagger":11191,"epimer":11192,"ersburg":11193,"undra":11194,"undity":11195,"asters":11196,"premed":11197,"preoccup":11198,"ishments":11199,"hym":11200,"plike":11201,"obl":11202,"obs":11203,"obic":11204,"obil":11205,"obrom":11206,"trate":11207,"degener":11208,"prised":11209,"prank":11210,"ayo":11211,"ayable":11212,"neura":11213,"neural":11214,"maneu":11215,"forced":11216,"endered":11217,"ylous":11218,"ylation":11219,"ophren":11220,"blas":11221,"blunder":11222,"blunt":11223,"blame":11224,"ostate":11225,"ostomies":11226,"ostasis":11227,"compress":11228,"ryn":11229,"rypt":11230,"ologized":11231,"disk":11232,"discer":11233,"team":11234,"teut":11235,"teenth":11236,"fling":11237,"trav":11238,"lien":11239,"monet":11240,"toes":11241,"ensible":11242,"misc":11243,"rontal":11244,"resign":11245,"oneural":11246,"corros":11247,"hoar":11248,"glot":11249,"glum":11250,"reduct":11251,"reddish":11252,"seme":11253,"semir":11254,"semide":11255,"metas":11256,"whim":11257,"wholes":11258,"cars":11259,"carrot":11260,"diab":11261,"diad":11262,"slur":11263,"slope":11264,"eternal":11265,"barley":11266,"hermit":11267,"herni":11268,"maph":11269,"merit":11270,"rets":11271,"retent":11272,"abling":11273,"burr":11274,"gues":11275,"azin":11276,"azure":11277,"copic":11278,"automat":11279,"unsat":11280,"Chap":11281,"Chrys":11282,"olded":11283,"oree":11284,"owning":11285,"calvin":11286,"ramine":11287,"grate":11288,"snug":11289,"sniff":11290,"aneity":11291,"pyren":11292,"ritual":11293,"sonia":11294,"pseudod":11295,"curric":11296,"unten":11297,"ethnic":11298,"itises":11299,"panegy":11300,"cataph":11301,"prescri":11302,"ometries":11303,"control":11304,"buty":11305,"ankled":11306,"capac":11307,"cause":11308,"legend":11309,"harness":11310,"lesome":11311,"accident":11312,"arsenic":11313,"warden":11314,"formable":11315,"inescent":11316,"ionalist":11317,"electrop":11318,"ecks":11319,"onica":11320,"predep":11321,"photograph":11322,"squat":11323,"homo":11324,"warp":11325,"timer":11326,"psia":11327,"mesh":11328,"auric":11329,"veloc":11330,"belle":11331,"believ":11332,"ohm":11333,"holid":11334,"uroid":11335,"remod":11336,"facing":11337,"nois":11338,"benign":11339,"confir":11340,"confirm":11341,"tsville":11342,"unks":11343,"spiral":11344,"flowering":11345,"pulpit":11346,"telec":11347,"daub":11348,"hardened":11349,"expend":11350,"crystal":11351,"othermic":11352,"radiate":11353,"filter":11354,"bait":11355,"bully":11356,"radial":11357,"amphig":11358,"mitig":11359,"rusty":11360,"sacer":11361,"fraud":11362,"fraction":11363,"arthrod":11364,"quadrat":11365,"gloom":11366,"ophilism":11367,"fullest":11368,"wittedness":11369,"sinu":11370,"appell":11371,"tubul":11372,"virg":11373,"choir":11374,"opteron":11375,"servant":11376,"ophagia":11377,"gauge":11378,"finished":11379,"poppy":11380,"physical":11381,"crus":11382,"lapid":11383,"lantern":11384,"nitrogen":11385,"yellowish":11386,"thood":11387,"drinking":11388,"algic":11389,"ivalent":11390,"vagabond":11391,"drawer":11392,"cabinet":11393,"ospinal":11394,"sphaer":11395,"nihil":11396,"citizen":11397,"plumed":11398,"jugate":11399,"murder":11400,"trichlor":11401,"ophthalmia":11402,"pterid":11403,"bugs":11404,"folded":11405,"pension":11406,"family":11407,"osauria":11408,"osaurian":11409,"streak":11410,"strept":11411,"ozoa":11412,"positions":11413,"educated":11414,"album":11415,"iques":11416,"osporous":11417,"planting":11418,"mirth":11419,"ocystic":11420,"dialy":11421,"produce":11422,"document":11423,"convinc":11424,"ticket":11425,"closing":11426,"augment":11427,"claimed":11428,"guttur":11429,"mixt":11430,"epigraph":11431,"junction":11432,"magneto":11433,"ninth":11434,"sailor":11435,"journey":11436,"appeas":11437,"official":11438,"reproach":11439,"resolv":11440,"analytic":11441,"robust":11442,"inflamm":11443,"otoxic":11444,"spicy":11445,"painted":11446,"sheriff":11447,"epitom":11448,"odynamics":11449,"applaud":11450,"cylinder":11451,"plagi":11452,"acerb":11453,"pillar":11454,"omaniacal":11455,"changed":11456,"ocardia":11457,"hidden":11458,"whisper":11459,"ophenol":11460,"ounding":11461,"opoiesis":11462,"illionth":11463,"squee":11464,"oplank":11465,"inspiring":11466,"Romano":11467,"theatrical":11468,"ampere":11469,"together":11470,"Odont":11471,"conditioned":11472,"disciplin":11473,"cuckoo":11474,"circuit":11475,"yielding":11476,"fabric":11477,"invigor":11478,"Islam":11479,"fascin":11480,"peopled":11481,"synonym":11482,"rhombo":11483,"environ":11484,"oglossal":11485,"instrument":11486,"diphther":11487,"Ax":11488,"Aly":11489,"Aqu":11490,"Bah":11491,"Bou":11492,"Brid":11493,"Buch":11494,"Balk":11495,"Boe":11496,"Bibl":11497,"Budd":11498,"Cand":11499,"Cort":11500,"Cour":11501,"Camb":11502,"Cla":11503,"Claud":11504,"Fay":11505,"Finn":11506,"Fried":11507,"GE":11508,"Gur":11509,"HO":11510,"Hos":11511,"Hey":11512,"Jay":11513,"Jov":11514,"Jose":11515,"Jeff":11516,"Jacqu":11517,"Kre":11518,"Kle":11519,"Kos":11520,"Kay":11521,"Lock":11522,"Lith":11523,"Mam":11524,"Mell":11525,"Meth":11526,"Nes":11527,"Ow":11528,"Pr":11529,"Pil":11530,"Pip":11531,"Pep":11532,"Pow":11533,"Pale":11534,"Pear":11535,"Plac":11536,"Ry":11537,"Rol":11538,"Rum":11539,"Roy":11540,"Sud":11541,"Soph":11542,"Stro":11543,"Spart":11544,"Sabb":11545,"TP":11546,"TV":11547,"Ted":11548,"Tus":11549,"Till":11550,"Tob":11551,"Tall":11552,"Titan":11553,"Vul":11554,"Vict":11555,"WI":11556,"Wald":11557,"Yan":11558,"Yah":11559,"biz":11560,"byl":11561,"biest":11562,"banner":11563,"cun":11564,"cag":11565,"cale":11566,"cress":11567,"dith":11568,"dram":11569,"fim":11570,"fres":11571,"font":11572,"frit":11573,"friction":11574,"gli":11575,"gorm":11576,"grog":11577,"gift":11578,"gutter":11579,"hin":11580,"hoc":11581,"hull":11582,"huff":11583,"iors":11584,"iography":11585,"iencies":11586,"jab":11587,"jak":11588,"joll":11589,"kt":11590,"kom":11591,"kad":11592,"kho":11593,"lian":11594,"lae":11595,"lens":11596,"ligh":11597,"map":11598,"mies":11599,"mire":11600,"mele":11601,"muff":11602,"mizz":11603,"pith":11604,"porn":11605,"pair":11606,"pix":11607,"pithec":11608,"rha":11609,"rula":11610,"render":11611,"rhea":11612,"siz":11613,"sable":11614,"sah":11615,"sans":11616,"sigh":11617,"section":11618,"snee":11619,"told":11620,"tuck":11621,"tomb":11622,"taste":11623,"tantal":11624,"uros":11625,"uve":11626,"vint":11627,"vah":11628,"wah":11629,"wired":11630,"wreck":11631,"zar":11632,"eri":11633,"inase":11634,"esco":11635,"esce":11636,"anous":11637,"anhyd":11638,"atron":11639,"atax":11640,"enidae":11641,"enlar":11642,"enumer":11643,"alab":11644,"alysis":11645,"edit":11646,"educt":11647,"isoch":11648,"isomer":11649,"arus":11650,"orer":11651,"orin":11652,"oriness":11653,"unif":11654,"unip":11655,"unche":11656,"unvol":11657,"itar":11658,"itly":11659,"itness":11660,"itial":11661,"itability":11662,"elous":11663,"rov":11664,"robot":11665,"rees":11666,"reth":11667,"reinter":11668,"retrans":11669,"reiter":11670,"stry":11671,"stony":11672,"chid":11673,"chari":11674,"ilin":11675,"raco":11676,"raised":11677,"rachi":11678,"ethy":11679,"ethe":11680,"essel":11681,"idy":11682,"acred":11683,"account":11684,"ulid":11685,"ulist":11686,"ulence":11687,"ulently":11688,"ulatively":11689,"ulators":11690,"thr":11691,"thra":11692,"things":11693,"asphal":11694,"aspers":11695,"urite":11696,"abac":11697,"abras":11698,"above":11699,"abnorm":11700,"emes":11701,"otion":11702,"otroph":11703,"otyledon":11704,"adher":11705,"uti":11706,"utely":11707,"umatic":11708,"istan":11709,"rio":11710,"rious":11711,"riven":11712,"ecter":11713,"ecret":11714,"opa":11715,"opel":11716,"opular":11717,"teria":11718,"terrest":11719,"imn":11720,"imy":11721,"agro":11722,"agist":11723,"aggrand":11724,"ocate":11725,"perd":11726,"peria":11727,"perman":11728,"percuss":11729,"igger":11730,"nonvis":11731,"nonequ":11732,"nondist":11733,"apos":11734,"apsul":11735,"antian":11736,"antenn":11737,"quater":11738,"ircular":11739,"loan":11740,"loath":11741,"congen":11742,"conject":11743,"convuls":11744,"este":11745,"cough":11746,"andry":11747,"spum":11748,"spend":11749,"spinous":11750,"expi":11751,"extermin":11752,"explain":11753,"ersome":11754,"prejudic":11755,"ishnesses":11756,"udo":11757,"ibranchiate":11758,"seem":11759,"seated":11760,"uces":11761,"ucco":11762,"heav":11763,"height":11764,"obac":11765,"obile":11766,"tred":11767,"trell":11768,"trend":11769,"arding":11770,"scum":11771,"deoxid":11772,"prene":11773,"avas":11774,"mance":11775,"ylos":11776,"opharyn":11777,"blond":11778,"comet":11779,"combat":11780,"boo":11781,"boiling":11782,"dissem":11783,"discontinu":11784,"tean":11785,"teens":11786,"upa":11787,"flamm":11788,"athia":11789,"paragraph":11790,"taff":11791,"ickers":11792,"monod":11793,"mongr":11794,"internal":11795,"enson":11796,"ensiveness":11797,"syne":11798,"misanthrop":11799,"acephal":11800,"reserv":11801,"berger":11802,"ranean":11803,"corall":11804,"glory":11805,"actically":11806,"redress":11807,"semist":11808,"superfic":11809,"solec":11810,"columb":11811,"carav":11812,"oiditis":11813,"undered":11814,"polic":11815,"died":11816,"diop":11817,"diphenyl":11818,"poth":11819,"hau":11820,"graded":11821,"mines":11822,"rower":11823,"ovo":11824,"hern":11825,"iceous":11826,"mere":11827,"brus":11828,"brist":11829,"retch":11830,"rette":11831,"meeting":11832,"ska":11833,"micr":11834,"gua":11835,"archist":11836,"brave":11837,"aza":11838,"ynous":11839,"hallow":11840,"marine":11841,"margar":11842,"ferv":11843,"ichi":11844,"decur":11845,"decim":11846,"serge":11847,"serving":11848,"plebe":11849,"ledness":11850,"unced":11851,"unsent":11852,"unsav":11853,"alein":11854,"Chem":11855,"Chama":11856,"medull":11857,"ignment":11858,"owns":11859,"counted":11860,"calib":11861,"omycin":11862,"anthem":11863,"incumb":11864,"irement":11865,"ateship":11866,"ramp":11867,"hydat":11868,"ikon":11869,"pork":11870,"desert":11871,"relax":11872,"turkey":11873,"goes":11874,"atti":11875,"pseudor":11876,"pseudol":11877,"pseudof":11878,"rena":11879,"sals":11880,"broker":11881,"affin":11882,"affected":11883,"eths":11884,"Alc":11885,"Ald":11886,"itionary":11887,"paneled":11888,"knack":11889,"ambly":11890,"ambigu":11891,"catar":11892,"preserv":11893,"issimo":11894,"anking":11895,"ualness":11896,"bord":11897,"ragal":11898,"steer":11899,"steal":11900,"hara":11901,"ringed":11902,"infil":11903,"infall":11904,"infection":11905,"balanced":11906,"transvers":11907,"transmut":11908,"formular":11909,"ventriloqu":11910,"inescence":11911,"iasm":11912,"ecked":11913,"rals":11914,"photom":11915,"purpos":11916,"etts":11917,"ernum":11918,"melting":11919,"rumin":11920,"multim":11921,"veling":11922,"ports":11923,"ohed":11924,"tops":11925,"deliver":11926,"holm":11927,"holy":11928,"phytop":11929,"alkalin":11930,"biting":11931,"oscopically":11932,"extinct":11933,"iculus":11934,"iculum":11935,"iculation":11936,"gyps":11937,"horror":11938,"fluent":11939,"defin":11940,"definit":11941,"secl":11942,"embol":11943,"iliate":11944,"iliary":11945,"confeder":11946,"cinct":11947,"creed":11948,"tetrap":11949,"burgh":11950,"pinac":11951,"computer":11952,"trout":11953,"farc":11954,"zzled":11955,"scrib":11956,"uncontra":11957,"rectomy":11958,"daisy":11959,"torrent":11960,"cryst":11961,"tarant":11962,"othermal":11963,"waisted":11964,"hipped":11965,"bulk":11966,"amphit":11967,"psychos":11968,"quinque":11969,"millenn":11970,"onymy":11971,"said":11972,"rifying":11973,"bells":11974,"ematous":11975,"lament":11976,"araj":11977,"devout":11978,"quadru":11979,"Leuc":11980,"treated":11981,"iscip":11982,"otrope":11983,"iodic":11984,"deton":11985,"detract":11986,"roots":11987,"mouths":11988,"McG":11989,"pillow":11990,"played":11991,"eteer":11992,"societ":11993,"stands":11994,"iatrics":11995,"glycol":11996,"dimethyl":11997,"entiality":11998,"flying":11999,"celest":12000,"encephala":12001,"points":12002,"bags":12003,"platitudin":12004,"classic":12005,"rologic":12006,"awned":12007,"throb":12008,"pasteur":12009,"fortune":12010,"obiotic":12011,"sickle":12012,"hibern":12013,"candid":12014,"sawing":12015,"phosphat":12016,"discuss":12017,"nyct":12018,"slipper":12019,"dropping":12020,"iberian":12021,"agogic":12022,"odonta":12023,"ubercul":12024,"education":12025,"rographic":12026,"tresses":12027,"compliment":12028,"cloths":12029,"culture":12030,"happen":12031,"susp":12032,"lieuten":12033,"doctr":12034,"onymous":12035,"closure":12036,"technical":12037,"qualified":12038,"ocarbon":12039,"hanging":12040,"tubercular":12041,"iloquy":12042,"breadth":12043,"harmonic":12044,"consist":12045,"pepton":12046,"otomist":12047,"rescence":12048,"victor":12049,"consuming":12050,"oproct":12051,"wounded":12052,"Darwin":12053,"alphab":12054,"Platy":12055,"Rhin":12056,"raxis":12057,"allegor":12058,"university":12059,"dulc":12060,"marshal":12061,"explos":12062,"Bolshev":12063,"otypical":12064,"arithm":12065,"employment":12066,"obedient":12067,"reciproc":12068,"lunged":12069,"sophistic":12070,"tranquill":12071,"propriet":12072,"ochromatic":12073,"phrase":12074,"orhynch":12075,"chestnut":12076,"beetle":12077,"giddy":12078,"governor":12079,"shafted":12080,"sponge":12081,"republican":12082,"traffic":12083,"August":12084,"teetot":12085,"fleshed":12086,"Spring":12087,"Ichthy":12088,"Aes":12089,"Asp":12090,"Ary":12091,"Amy":12092,"Amal":12093,"Bud":12094,"Boh":12095,"Bert":12096,"Barth":12097,"Cu":12098,"Cos":12099,"Cec":12100,"Clay":12101,"Eg":12102,"Euc":12103,"FM":12104,"Fro":12105,"Fle":12106,"Gas":12107,"Hir":12108,"Heg":12109,"Hans":12110,"Jos":12111,"Kent":12112,"Kend":12113,"Kenn":12114,"Lit":12115,"Loc":12116,"Lob":12117,"Litt":12118,"Mant":12119,"Mir":12120,"Mann":12121,"Mik":12122,"Mars":12123,"Maj":12124,"Nick":12125,"OP":12126,"PP":12127,"Pass":12128,"Pick":12129,"Parth":12130,"RN":12131,"Ron":12132,"Rem":12133,"Rhe":12134,"Rox":12135,"Reb":12136,"SC":12137,"Sir":12138,"Siphon":12139,"Tac":12140,"Tory":12141,"VO":12142,"Vas":12143,"Vill":12144,"Way":12145,"aig":12146,"bros":12147,"bale":12148,"buk":12149,"bunch":12150,"baker":12151,"baked":12152,"cio":12153,"cote":12154,"casc":12155,"dive":12156,"dru":12157,"ditt":12158,"dotted":12159,"dinner":12160,"eun":12161,"euth":12162,"fers":12163,"fain":12164,"felic":12165,"frill":12166,"frut":12167,"focal":12168,"freck":12169,"gou":12170,"geless":12171,"greek":12172,"hig":12173,"hak":12174,"hating":12175,"jus":12176,"jang":12177,"jets":12178,"jelly":12179,"ku":12180,"kay":12181,"kang":12182,"kath":12183,"kov":12184,"loll":12185,"maw":12186,"mastic":12187,"ners":12188,"nak":12189,"nunc":12190,"nettle":12191,"pous":12192,"prig":12193,"paved":12194,"puzzle":12195,"rary":12196,"ringly":12197,"rently":12198,"rantly":12199,"sly":12200,"sant":12201,"site":12202,"selling":12203,"sovereign":12204,"tally":12205,"tape":12206,"uates":12207,"uosity":12208,"vist":12209,"vier":12210,"veter":12211,"vile":12212,"wim":12213,"witt":12214,"wander":12215,"yum":12216,"yte":12217,"zas":12218,"erotic":12219,"into":12220,"onin":12221,"onization":12222,"esite":12223,"escri":12224,"anical":12225,"anker":12226,"atas":12227,"atous":12228,"atio":12229,"envel":12230,"alto":12231,"alchem":12232,"isal":12233,"isor":12234,"isser":12235,"isection":12236,"icted":12237,"armac":12238,"orable":12239,"oridae":12240,"ordered":12241,"oradi":12242,"unes":12243,"unid":12244,"unem":12245,"unall":12246,"unend":12247,"unint":12248,"unty":12249,"unmut":12250,"uninv":12251,"itum":12252,"itableness":12253,"elid":12254,"elist":12255,"else":12256,"elimin":12257,"roon":12258,"romatic":12259,"rea":12260,"recomp":12261,"remiss":12262,"rebell":12263,"stroph":12264,"stear":12265,"leas":12266,"lever":12267,"leap":12268,"lepro":12269,"lease":12270,"leech":12271,"chs":12272,"chaw":12273,"usan":12274,"ilable":12275,"ilaginous":12276,"olled":12277,"pheric":12278,"essay":12279,"essive":12280,"omination":12281,"acles":12282,"uler":12283,"ulian":12284,"thia":12285,"ascertain":12286,"urers":12287,"urated":12288,"abness":12289,"absur":12290,"abbrevi":12291,"emal":12292,"emeter":12293,"osulph":12294,"adel":12295,"adas":12296,"adine":12297,"adhes":12298,"ogical":12299,"ogged":12300,"umental":12301,"iston":12302,"riers":12303,"terers":12304,"territorial":12305,"imen":12306,"imman":12307,"ocul":12308,"octo":12309,"oclast":12310,"oding":12311,"odox":12312,"pertin":12313,"perturb":12314,"igin":12315,"vernal":12316,"verruc":12317,"nonir":12318,"nonjur":12319,"apl":12320,"apic":12321,"antec":12322,"quette":12323,"such":12324,"suited":12325,"shiv":12326,"shah":12327,"shrim":12328,"shaded":12329,"loa":12330,"loved":12331,"icals":12332,"ifl":12333,"ifid":12334,"consec":12335,"congrat":12336,"confound":12337,"esta":12338,"esty":12339,"coarse":12340,"ellary":12341,"andria":12342,"andrian":12343,"spore":12344,"spira":12345,"prow":12346,"prolong":12347,"propit":12348,"exhal":12349,"epy":12350,"epoch":12351,"ianly":12352,"astroph":12353,"inean":12354,"inebri":12355,"overpl":12356,"ibus":12357,"seph":12358,"seas":12359,"ucent":12360,"heb":12361,"heen":12362,"heated":12363,"obium":12364,"obsequ":12365,"obtus":12366,"obranchiata":12367,"alless":12368,"trud":12369,"trink":12370,"ardia":12371,"scol":12372,"prising":12373,"ectal":12374,"ectasis":12375,"aville":12376,"mancip":12377,"ffe":12378,"yla":12379,"yles":12380,"clang":12381,"clude":12382,"cluded":12383,"ophistic":12384,"ugly":12385,"ugos":12386,"compt":12387,"indetermin":12388,"angul":12389,"boul":12390,"boff":12391,"bough":12392,"boule":12393,"suburban":12394,"subsist":12395,"discre":12396,"dissip":12397,"bees":12398,"fled":12399,"flock":12400,"flutter":12401,"atholic":12402,"outsh":12403,"park":12404,"parathy":12405,"ubin":12406,"trash":12407,"trachy":12408,"trachel":12409,"assin":12410,"assem":12411,"assail":12412,"assumpt":12413,"monop":12414,"interpol":12415,"toise":12416,"iered":12417,"misch":12418,"achis":12419,"achus":12420,"gees":12421,"geom":12422,"rancy":12423,"corded":12424,"matize":12425,"matron":12426,"rediv":12427,"redef":12428,"artist":12429,"ropy":12430,"metrically":12431,"sovi":12432,"iths":12433,"caric":12434,"eva":12435,"pollen":12436,"pollut":12437,"polem":12438,"peer":12439,"slit":12440,"haft":12441,"romed":12442,"therium":12443,"ratively":12444,"ovis":12445,"oving":12446,"types":12447,"hery":12448,"leting":12449,"lettered":12450,"brum":12451,"rett":12452,"return":12453,"mew":12454,"oxic":12455,"sketch":12456,"azed":12457,"marking":12458,"thea":12459,"ouk":12460,"ichlor":12461,"orner":12462,"plect":12463,"unson":12464,"Chim":12465,"medi":12466,"mediat":12467,"igner":12468,"ongo":12469,"doch":12470,"anthes":12471,"inck":12472,"incip":12473,"incident":12474,"hydrated":12475,"grud":12476,"iking":12477,"ikins":12478,"snak":12479,"snail":12480,"genesis":12481,"ochord":12482,"pyroph":12483,"pyrid":12484,"recru":12485,"swar":12486,"swiv":12487,"swamp":12488,"centro":12489,"goal":12490,"ixing":12491,"demur":12492,"demean":12493,"knuckle":12494,"amba":12495,"ambass":12496,"cataly":12497,"gedly":12498,"presc":12499,"fisher":12500,"issance":12501,"regal":12502,"regiment":12503,"smile":12504,"capular":12505,"sched":12506,"schism":12507,"dened":12508,"synton":12509,"valv":12510,"balne":12511,"balance":12512,"balloon":12513,"formid":12514,"venturous":12515,"electrod":12516,"crash":12517,"refresh":12518,"warn":12519,"deput":12520,"humble":12521,"psamm":12522,"multin":12523,"aurian":12524,"versed":12525,"phyte":12526,"macer":12527,"nook":12528,"oscopist":12529,"oscopies":12530,"extir":12531,"defect":12532,"pots":12533,"ebulli":12534,"emboss":12535,"crew":12536,"hydrochlor":12537,"spired":12538,"nause":12539,"trod":12540,"shapen":12541,"farmer":12542,"zza":12543,"excus":12544,"omorphy":12545,"omorphae":12546,"operation":12547,"opericard":12548,"persist":12549,"basic":12550,"basalt":12551,"torped":12552,"waver":12553,"kinetic":12554,"supp":12555,"amphip":12556,"simplic":12557,"drib":12558,"driver":12559,"driving":12560,"milli":12561,"million":12562,"dedic":12563,"deduct":12564,"mits":12565,"rusted":12566,"diplo":12567,"acetate":12568,"Inter":12569,"organized":12570,"vanad":12571,"bills":12572,"boding":12573,"bodies":12574,"judge":12575,"judged":12576,"rimmed":12577,"gnat":12578,"rocket":12579,"virt":12580,"escing":12581,"orrhe":12582,"shooting":12583,"folks":12584,"production":12585,"finish":12586,"financ":12587,"bloody":12588,"piled":12589,"pilot":12590,"arterial":12591,"plays":12592,"jacks":12593,"inerved":12594,"freeze":12595,"liturg":12596,"voice":12597,"places":12598,"eroot":12599,"vault":12600,"pointing":12601,"freak":12602,"cellul":12603,"trypan":12604,"rologically":12605,"awning":12606,"dicty":12607,"choled":12608,"gressive":12609,"approxim":12610,"ilingual":12611,"oceras":12612,"hairy":12613,"alties":12614,"rainbow":12615,"glutton":12616,"connected":12617,"hepta":12618,"costal":12619,"scriptural":12620,"goddess":12621,"fluoride":12622,"holders":12623,"dilig":12624,"semipro":12625,"gangli":12626,"sexual":12627,"tumult":12628,"rhyme":12629,"albumen":12630,"seeds":12631,"oshes":12632,"personal":12633,"Rosen":12634,"growth":12635,"fairy":12636,"nominal":12637,"puppy":12638,"tropical":12639,"ocentesis":12640,"gigant":12641,"hagi":12642,"jacent":12643,"measuring":12644,"pectin":12645,"carniv":12646,"dressing":12647,"ocarb":12648,"prefect":12649,"steady":12650,"melanchol":12651,"pallad":12652,"appeal":12653,"rheumat":12654,"frozen":12655,"phyllous":12656,"ruling":12657,"maxill":12658,"electricity":12659,"felon":12660,"rapture":12661,"spreading":12662,"timbered":12663,"Rhiz":12664,"igraphy":12665,"throwing":12666,"ahedral":12667,"satisfied":12668,"runner":12669,"linked":12670,"absorb":12671,"dendro":12672,"oracic":12673,"righted":12674,"fantas":12675,"wreathed":12676,"aniline":12677,"ectomized":12678,"agnetism":12679,"expansion":12680,"duoden":12681,"fiend":12682,"sneak":12683,"embroidered":12684,"Crypto":12685,"narcot":12686,"alveolar":12687,"Caes":12688,"cousin":12689,"enchyma":12690,"memorial":12691,"evolutionary":12692,"authentic":12693,"Gymn":12694,"pylor":12695,"otherapeutics":12696,"matrimon":12697,"encycloped":12698,"intestinal":12699,"Hispan":12700,"municip":12701,"okinesis":12702,"phoenic":12703,"scintill":12704,"sphygm":12705,"efferves":12706,"miniatur":12707,"proselyt":12708,"ocrystalline":12709,"asphyx":12710,"sacerdot":12711,"AI":12712,"AU":12713,"Alo":12714,"Agu":12715,"Abra":12716,"Acro":12717,"Bag":12718,"Bill":12719,"Ball":12720,"Bull":12721,"Bened":12722,"Cra":12723,"Cran":12724,"Cyr":12725,"Doc":12726,"Dob":12727,"Eud":12728,"Fl":12729,"Fri":12730,"GM":12731,"Gel":12732,"Gol":12733,"Gom":12734,"Gam":12735,"Gav":12736,"Gust":12737,"Glad":12738,"Greek":12739,"Hend":12740,"Kab":12741,"Kaz":12742,"Kirk":12743,"LM":12744,"Lie":12745,"Lys":12746,"Mi":12747,"Mish":12748,"Mech":12749,"Middle":12750,"OT":12751,"Ost":12752,"Oliv":12753,"Pall":12754,"Pros":12755,"Row":12756,"Rav":12757,"Rey":12758,"Ross":12759,"Sur":12760,"Sec":12761,"Sass":12762,"Scy":12763,"Sto":12764,"Sans":12765,"Sou":12766,"Spi":12767,"Swed":12768,"Scler":12769,"Tag":12770,"Tele":12771,"Ves":12772,"Vis":12773,"Vic":12774,"Vel":12775,"Wah":12776,"__":12777,"aemon":12778,"bous":12779,"bann":12780,"bitt":12781,"bitch":12782,"cep":12783,"cable":12784,"cose":12785,"cree":12786,"cule":12787,"cnid":12788,"caffe":12789,"dang":12790,"done":12791,"dump":12792,"dasy":12793,"frol":12794,"fenn":12795,"frown":12796,"frang":12797,"fiction":12798,"fighter":12799,"gat":12800,"gros":12801,"gily":12802,"gaff":12803,"geld":12804,"gaster":12805,"given":12806,"huck":12807,"haven":12808,"iences":12809,"iya":12810,"jit":12811,"jow":12812,"jah":12813,"jaz":12814,"jong":12815,"japan":12816,"kos":12817,"kim":12818,"kap":12819,"liss":12820,"lase":12821,"litt":12822,"mae":12823,"muss":12824,"muse":12825,"mote":12826,"morning":12827,"melior":12828,"nae":12829,"nox":12830,"next":12831,"oor":12832,"oag":12833,"pund":12834,"pak":12835,"pind":12836,"piness":12837,"pinc":12838,"puck":12839,"pogon":12840,"puzz":12841,"paddle":12842,"rers":12843,"suns":12844,"sley":12845,"sunk":12846,"siph":12847,"tand":12848,"till":12849,"toph":12850,"tik":12851,"tweed":12852,"tame":12853,"tune":12854,"troll":12855,"task":12856,"uist":12857,"uke":12858,"ube":12859,"uplic":12860,"vand":12861,"vies":12862,"vina":12863,"wadd":12864,"wasp":12865,"wrack":12866,"yok":12867,"zu":12868,"zin":12869,"zor":12870,"zib":12871,"zite":12872,"ziest":12873,"eras":12874,"erem":12875,"inver":12876,"ineness":12877,"inhal":12878,"inizing":12879,"inhum":12880,"inette":12881,"injur":12882,"inhabit":12883,"onis":12884,"onid":12885,"onde":12886,"onidae":12887,"onomic":12888,"oncus":12889,"eson":12890,"esic":12891,"anid":12892,"anate":12893,"ancon":12894,"ativ":12895,"atrice":12896,"atrophia":12897,"enism":12898,"alms":12899,"icid":12900,"arly":12901,"arous":12902,"armon":12903,"aromat":12904,"orum":12905,"orine":12906,"orne":12907,"orific":12908,"uning":12909,"ungl":12910,"unbra":12911,"unexp":12912,"unjust":12913,"unpart":12914,"itre":12915,"iteness":12916,"itize":12917,"itta":12918,"itations":12919,"itute":12920,"elen":12921,"elation":12922,"elate":12923,"roscope":12924,"reh":12925,"reun":12926,"reel":12927,"rehab":12928,"recover":12929,"requis":12930,"recollect":12931,"recommend":12932,"stult":12933,"stanch":12934,"chum":12935,"chok":12936,"chias":12937,"chatter":12938,"chival":12939,"chinned":12940,"usions":12941,"rains":12942,"olation":12943,"oller":12944,"phi":12945,"phoc":12946,"phoid":12947,"omest":12948,"omial":12949,"omize":12950,"omerous":12951,"omuscular":12952,"idio":12953,"idaceae":12954,"acri":12955,"acism":12956,"thetically":12957,"thief":12958,"asin":12959,"ascar":12960,"ascope":12961,"abort":12962,"emiss":12963,"emias":12964,"osi":12965,"amia":12966,"amped":12967,"amines":12968,"otch":12969,"otoc":12970,"otate":12971,"otric":12972,"adj":12973,"adol":12974,"aders":12975,"adial":12976,"utop":12977,"utive":12978,"utric":12979,"utions":12980,"uttered":12981,"ogic":12982,"ogone":12983,"rime":12984,"riving":12985,"rized":12986,"opac":12987,"ivating":12988,"aginal":12989,"izabeth":12990,"odist":12991,"odies":12992,"peril":12993,"perplex":12994,"igator":12995,"nonsup":12996,"apat":12997,"apot":12998,"antile":12999,"quindec":13000,"iral":13001,"iris":13002,"shab":13003,"shred":13004,"shots":13005,"shaken":13006,"lout":13007,"loop":13008,"lobe":13009,"loads":13010,"loading":13011,"ifug":13012,"ifuge":13013,"ifiability":13014,"ipa":13015,"constr":13016,"coo":13017,"coqu":13018,"covet":13019,"ellid":13020,"elliform":13021,"spent":13022,"spill":13023,"spind":13024,"provis":13025,"probos":13026,"exeg":13027,"extingu":13028,"epine":13029,"epib":13030,"asthen":13031,"preconf":13032,"preponder":13033,"udin":13034,"ibo":13035,"iberal":13036,"plated":13037,"plaint":13038,"illions":13039,"seaf":13040,"oben":13041,"obtain":13042,"obliqu":13043,"trunc":13044,"ardi":13045,"ardy":13046,"ardly":13047,"scree":13048,"score":13049,"scream":13050,"scald":13051,"defe":13052,"deject":13053,"dealing":13054,"degrad":13055,"dehydrogen":13056,"manly":13057,"forcement":13058,"akh":13059,"endent":13060,"endow":13061,"yler":13062,"ylind":13063,"ylamine":13064,"clitor":13065,"bla":13066,"blend":13067,"blier":13068,"bliest":13069,"blink":13070,"blike":13071,"ostent":13072,"ostosis":13073,"ostemon":13074,"ostyle":13075,"compart":13076,"complac":13077,"indel":13078,"anglic":13079,"boast":13080,"boiled":13081,"subordin":13082,"displeas":13083,"bewitch":13084,"flot":13085,"flop":13086,"outsw":13087,"ubs":13088,"trained":13089,"traumat":13090,"worry":13091,"tau":13092,"cyr":13093,"mongol":13094,"toast":13095,"syr":13096,"seless":13097,"wears":13098,"weaving":13099,"awl":13100,"aryten":13101,"mooth":13102,"moidal":13103,"rances":13104,"ricin":13105,"coroll":13106,"corrod":13107,"matern":13108,"hou":13109,"actively":13110,"redel":13111,"redep":13112,"reduction":13113,"ropism":13114,"whin":13115,"whist":13116,"collo":13117,"carbox":13118,"diather":13119,"pew":13120,"slat":13121,"ptive":13122,"ratus":13123,"barge":13124,"eyeb":13125,"ofrontal":13126,"bristle":13127,"oxime":13128,"skept":13129,"microt":13130,"germ":13131,"guy":13132,"guide":13133,"annul":13134,"mare":13135,"fervent":13136,"theater":13137,"theosoph":13138,"ichn":13139,"ichs":13140,"orned":13141,"feast":13142,"twink":13143,"served":13144,"please":13145,"aship":13146,"stren":13147,"autod":13148,"unsatis":13149,"olden":13150,"ilee":13151,"ungent":13152,"Anast":13153,"Ante":13154,"Angel":13155,"ogenes":13156,"igns":13157,"aterally":13158,"counten":13159,"afforest":13160,"calm":13161,"doodle":13162,"incrimin":13163,"ikh":13164,"posts":13165,"postpon":13166,"ainted":13167,"inners":13168,"rites":13169,"positive":13170,"bleach":13171,"swin":13172,"swash":13173,"stercor":13174,"centen":13175,"desic":13176,"hemian":13177,"rels":13178,"goof":13179,"pseudot":13180,"curt":13181,"renn":13182,"renov":13183,"venen":13184,"ethical":13185,"ethmoid":13186,"ennate":13187,"petrol":13188,"pettic":13189,"petiol":13190,"zoan":13191,"demip":13192,"soliloqu":13193,"catap":13194,"elebr":13195,"president":13196,"ometab":13197,"contem":13198,"fishing":13199,"rott":13200,"issing":13201,"arias":13202,"ariaceous":13203,"arietal":13204,"smitten":13205,"ulla":13206,"capon":13207,"captain":13208,"rhexis":13209,"cauc":13210,"eliqu":13211,"scholar":13212,"harp":13213,"syncop":13214,"syndic":13215,"balm":13216,"volum":13217,"volley":13218,"wardness":13219,"oley":13220,"Arg":13221,"pathy":13222,"ients":13223,"refriger":13224,"committ":13225,"predist":13226,"predetermin":13227,"prized":13228,"deplor":13229,"humored":13230,"humbug":13231,"domic":13232,"domestic":13233,"praec":13234,"oya":13235,"sheer":13236,"versive":13237,"cleist":13238,"clever":13239,"dying":13240,"extro":13241,"reader":13242,"crip":13243,"ebus":13244,"secund":13245,"embos":13246,"hammed":13247,"ygraph":13248,"limber":13249,"unking":13250,"unkind":13251,"lectomy":13252,"Margar":13253,"naught":13254,"vitre":13255,"winded":13256,"enteritis":13257,"Stock":13258,"blooming":13259,"hardy":13260,"expir":13261,"occi":13262,"logical":13263,"racted":13264,"rodont":13265,"tarn":13266,"wafer":13267,"radiation":13268,"effemin":13269,"unrever":13270,"filth":13271,"filament":13272,"lighting":13273,"adenoma":13274,"audate":13275,"sorb":13276,"belliger":13277,"ophyre":13278,"latin":13279,"rustic":13280,"sacrif":13281,"helmet":13282,"diploc":13283,"between":13284,"labyrinth":13285,"italian":13286,"courtes":13287,"passing":13288,"rapid":13289,"hexa":13290,"choke":13291,"esced":13292,"anthropic":13293,"bacill":13294,"detach":13295,"Thes":13296,"idiot":13297,"ophagist":13298,"follow":13299,"uddled":13300,"finch":13301,"omniv":13302,"putty":13303,"fields":13304,"pilgrim":13305,"player":13306,"ladies":13307,"ladder":13308,"profic":13309,"nuts":13310,"rabble":13311,"digital":13312,"empted":13313,"placement":13314,"lays":13315,"lawn":13316,"vulner":13317,"manned":13318,"cystic":13319,"ocratically":13320,"prett":13321,"cephalous":13322,"ucleate":13323,"Const":13324,"fleet":13325,"enthron":13326,"rixes":13327,"sphere":13328,"fried":13329,"olithiasis":13330,"scarce":13331,"Columb":13332,"falling":13333,"goody":13334,"business":13335,"sickness":13336,"leafed":13337,"somely":13338,"picked":13339,"septem":13340,"opathology":13341,"aja":13342,"abolism":13343,"iferously":13344,"hurt":13345,"fluorid":13346,"lottic":13347,"cathedral":13348,"blindness":13349,"ozooid":13350,"ophysiology":13351,"anatomic":13352,"uttering":13353,"judicial":13354,"bankrupt":13355,"mammal":13356,"zygomatic":13357,"strobil":13358,"convict":13359,"paying":13360,"martyr":13361,"guarded":13362,"claiming":13363,"ilitar":13364,"practical":13365,"constitutional":13366,"measured":13367,"stringed":13368,"mixed":13369,"study":13370,"ienne":13371,"careous":13372,"romance":13373,"calcane":13374,"possessed":13375,"froth":13376,"phagous":13377,"articulation":13378,"normally":13379,"vinegar":13380,"ethylene":13381,"electrical":13382,"cerebral":13383,"ruled":13384,"carpous":13385,"sodden":13386,"Syro":13387,"pirit":13388,"oparalysis":13389,"oprote":13390,"gymnos":13391,"horsep":13392,"exterior":13393,"association":13394,"expert":13395,"chromatic":13396,"existent":13397,"pictorial":13398,"vernacular":13399,"somnambul":13400,"stretch":13401,"orbicular":13402,"fenest":13403,"academic":13404,"russet":13405,"barreled":13406,"stalked":13407,"recipro":13408,"vassal":13409,"Japanese":13410,"scroful":13411,"ophobic":13412,"otaxy":13413,"sprung":13414,"volatil":13415,"enthusiast":13416,"polymorph":13417,"czar":13418,"pieces":13419,"okinetic":13420,"horizont":13421,"apophysis":13422,"slaughter":13423,"knowledge":13424,"Rhynch":13425,"letharg":13426,"meadow":13427,"endotheli":13428,"cosmopolitan":13429,"centrifug":13430,"kitchen":13431,"european":13432,"choledoch":13433,"AN":13434,"Ail":13435,"Amor":13436,"Bil":13437,"Bad":13438,"Bod":13439,"Bard":13440,"Bath":13441,"Bass":13442,"Benn":13443,"Beck":13444,"Cres":13445,"Cole":13446,"Cze":13447,"Clad":13448,"DR":13449,"Did":13450,"Dion":13451,"Dum":13452,"Dian":13453,"Dub":13454,"Denn":13455,"Dani":13456,"ET":13457,"Ech":13458,"Eli":13459,"FF":13460,"FL":13461,"Fed":13462,"Fir":13463,"GB":13464,"Gw":13465,"Gob":13466,"Gru":13467,"Hab":13468,"Hep":13469,"Hud":13470,"Holl":13471,"Iv":13472,"Jod":13473,"Kass":13474,"Kok":13475,"Khal":13476,"Liv":13477,"Lond":13478,"Mang":13479,"March":13480,"ND":13481,"Nan":13482,"Nam":13483,"Num":13484,"Ore":13485,"Oce":13486,"Pi":13487,"Pac":13488,"Pag":13489,"Pay":13490,"Pres":13491,"Park":13492,"Parn":13493,"RB":13494,"Ra":13495,"Rec":13496,"Rex":13497,"Rib":13498,"Roch":13499,"SM":13500,"Son":13501,"Sag":13502,"Sard":13503,"Say":13504,"Scar":13505,"Sche":13506,"Satur":13507,"Scho":13508,"TT":13509,"Tem":13510,"Tak":13511,"Tup":13512,"UC":13513,"Va":13514,"Vinc":13515,"Vern":13516,"Wes":13517,"Wis":13518,"Wak":13519,"Willi":13520,"Yo":13521,"ait":13522,"bage":13523,"bibl":13524,"cs":13525,"cron":13526,"coss":13527,"caster":13528,"came":13529,"dated":13530,"dick":13531,"dement":13532,"dele":13533,"doss":13534,"dura":13535,"duk":13536,"danger":13537,"dazz":13538,"eed":13539,"ebon":13540,"ejac":13541,"fess":13542,"fod":13543,"fate":13544,"fred":13545,"fizz":13546,"french":13547,"giv":13548,"gant":13549,"gies":13550,"gout":13551,"gub":13552,"gates":13553,"gush":13554,"holog":13555,"henic":13556,"hinder":13557,"iatively":13558,"jav":13559,"jok":13560,"jett":13561,"kul":13562,"kies":13563,"kale":13564,"kept":13565,"lus":13566,"laut":13567,"leless":13568,"mik":13569,"muk":13570,"muzz":13571,"nd":13572,"nun":13573,"nant":13574,"nau":13575,"nostic":13576,"ought":13577,"pne":13578,"pout":13579,"psel":13580,"pust":13581,"rising":13582,"sia":13583,"smar":13584,"sale":13585,"saur":13586,"sawn":13587,"sboro":13588,"sunny":13589,"tia":13590,"tund":13591,"tenn":13592,"tamp":13593,"tilt":13594,"uet":13595,"vant":13596,"vary":13597,"vou":13598,"vouch":13599,"wap":13600,"wich":13601,"wrec":13602,"waff":13603,"wield":13604,"wench":13605,"yet":13606,"yow":13607,"ycle":13608,"eria":13609,"errant":13610,"error":13611,"inx":13612,"inaceous":13613,"inert":13614,"onyl":13615,"onna":13616,"esman":13617,"anod":13618,"anathemat":13619,"atra":13620,"atary":13621,"atrophy":13622,"atrices":13623,"encom":13624,"enize":13625,"eningly":13626,"enburg":13627,"enched":13628,"alley":13629,"altar":13630,"icent":13631,"icule":13632,"oron":13633,"orah":13634,"orchi":13635,"unover":13636,"unta":13637,"unaw":13638,"unho":13639,"unmet":13640,"unins":13641,"unpe":13642,"unhal":13643,"unker":13644,"unaff":13645,"unhar":13646,"unchar":13647,"unters":13648,"unmod":13649,"unspec":13650,"unclass":13651,"unresist":13652,"unbrut":13653,"itur":13654,"itress":13655,"itatively":13656,"elman":13657,"elated":13658,"eliest":13659,"robe":13660,"roct":13661,"roach":13662,"repos":13663,"rehear":13664,"stuck":13665,"strag":13666,"stilt":13667,"lei":13668,"leur":13669,"league":13670,"choc":13671,"uspid":13672,"ilical":13673,"olan":13674,"olian":13675,"olla":13676,"etia":13677,"etism":13678,"essor":13679,"omim":13680,"omically":13681,"omachy":13682,"omaxillary":13683,"idical":13684,"ionidae":13685,"acat":13686,"acled":13687,"acule":13688,"ulac":13689,"ulmon":13690,"thie":13691,"thren":13692,"thrown":13693,"thouse":13694,"thrice":13695,"asch":13696,"ascal":13697,"urtic":13698,"uresis":13699,"aby":13700,"abad":13701,"abrid":13702,"abomin":13703,"emus":13704,"embark":13705,"emblaz":13706,"osomal":13707,"osilicate":13708,"amps":13709,"otor":13710,"adult":13711,"adjudic":13712,"adjut":13713,"oger":13714,"umbra":13715,"umbon":13716,"istor":13717,"istered":13718,"riate":13719,"ecy":13720,"eces":13721,"ecum":13722,"econd":13723,"opine":13724,"opium":13725,"opros":13726,"opening":13727,"opposit":13728,"ivered":13729,"impal":13730,"implement":13731,"agron":13732,"izement":13733,"oce":13734,"ocot":13735,"octor":13736,"pereg":13737,"percent":13738,"ignon":13739,"versal":13740,"noncur":13741,"noncred":13742,"appy":13743,"antith":13744,"antisc":13745,"irish":13746,"irrh":13747,"irrational":13748,"supre":13749,"shaking":13750,"shelled":13751,"shanked":13752,"lour":13753,"loaded":13754,"ifiably":13755,"ipel":13756,"ipos":13757,"conqu":13758,"consequ":13759,"consolid":13760,"coz":13761,"coher":13762,"coven":13763,"courage":13764,"ellin":13765,"ellor":13766,"ellos":13767,"andard":13768,"andibular":13769,"spond":13770,"spons":13771,"spruc":13772,"procre":13773,"proced":13774,"probri":13775,"promul":13776,"exempt":13777,"excommunic":13778,"ianite":13779,"isma":13780,"undiff":13781,"asta":13782,"astich":13783,"astring":13784,"asthenia":13785,"precent":13786,"preval":13787,"previs":13788,"ishably":13789,"hyet":13790,"hylo":13791,"hypor":13792,"overl":13793,"overst":13794,"overab":13795,"plus":13796,"plaster":13797,"plagu":13798,"illike":13799,"seign":13800,"ucan":13801,"aeum":13802,"obey":13803,"allis":13804,"ardon":13805,"scant":13806,"scrat":13807,"scept":13808,"scaff":13809,"scull":13810,"ialities":13811,"ialised":13812,"ialising":13813,"defl":13814,"devit":13815,"dealer":13816,"deodor":13817,"prong":13818,"ecting":13819,"avar":13820,"avid":13821,"manlike":13822,"foramin":13823,"fornic":13824,"akan":13825,"akia":13826,"ylite":13827,"cluding":13828,"opher":13829,"ophily":13830,"ugo":13831,"ugher":13832,"uggest":13833,"blam":13834,"blubber":13835,"bladder":13836,"comer":13837,"ryman":13838,"ryville":13839,"anging":13840,"angia":13841,"boar":13842,"boks":13843,"ologian":13844,"discom":13845,"disbur":13846,"disgu":13847,"disgust":13848,"disillusion":13849,"beho":13850,"begu":13851,"teur":13852,"upbra":13853,"ieh":13854,"flin":13855,"flab":13856,"flip":13857,"floss":13858,"aths":13859,"outfl":13860,"parish":13861,"paraly":13862,"paramet":13863,"ubt":13864,"ubic":13865,"ackle":13866,"assum":13867,"icket":13868,"cyber":13869,"atoriness":13870,"intercess":13871,"fulfill":13872,"mised":13873,"sels":13874,"achian":13875,"mentation":13876,"awan":13877,"rond":13878,"aryship":13879,"intri":13880,"mox":13881,"moved":13882,"mounted":13883,"resup":13884,"resident":13885,"cors":13886,"corne":13887,"hoid":13888,"gless":13889,"seman":13890,"semia":13891,"arty":13892,"superst":13893,"supervis":13894,"ega":13895,"eger":13896,"whig":13897,"whiff":13898,"carrier":13899,"carriage":13900,"ureted":13901,"eves":13902,"undert":13903,"wove":13904,"welled":13905,"directed":13906,"poul":13907,"poik":13908,"slab":13909,"slot":13910,"sland":13911,"isee":13912,"haut":13913,"romal":13914,"thern":13915,"thermot":13916,"miner":13917,"bara":13918,"barber":13919,"herm":13920,"hermaph":13921,"maint":13922,"merchand":13923,"retriev":13924,"mezz":13925,"gered":13926,"burglar":13927,"pedal":13928,"annin":13929,"linger":13930,"iedly":13931,"decas":13932,"asiatic":13933,"sery":13934,"heading":13935,"plei":13936,"axe":13937,"uncul":13938,"unciv":13939,"unclo":13940,"uncred":13941,"uncular":13942,"autoch":13943,"unsign":13944,"Chin":13945,"ilement":13946,"ungar":13947,"medioc":13948,"Andre":13949,"menstr":13950,"ogenies":13951,"igny":13952,"doom":13953,"incter":13954,"incand":13955,"rams":13956,"grid":13957,"pyel":13958,"ritch":13959,"ritical":13960,"ymal":13961,"sonant":13962,"sonite":13963,"centered":13964,"hemer":13965,"turg":13966,"turtle":13967,"cheese":13968,"attor":13969,"attack":13970,"attempt":13971,"curly":13972,"untim":13973,"ughs":13974,"broth":13975,"brev":13976,"breach":13977,"rophile":13978,"petaled":13979,"ixation":13980,"Alb":13981,"uctor":13982,"demagnet":13983,"polygon":13984,"polygam":13985,"knotted":13986,"eleaf":13987,"prespec":13988,"ifyingly":13989,"contum":13990,"contempt":13991,"culmin":13992,"canvas":13993,"butcher":13994,"anky":13995,"ariant":13996,"smel":13997,"capill":13998,"capric":13999,"ailer":14000,"rhet":14001,"steward":14002,"denot":14003,"dense":14004,"leship":14005,"repent":14006,"infest":14007,"synthes":14008,"valer":14009,"valor":14010,"volunt":14011,"byr":14012,"transmig":14013,"unfur":14014,"launch":14015,"lasting":14016,"formity":14017,"patent":14018,"patched":14019,"unna":14020,"photop":14021,"photod":14022,"squel":14023,"squire":14024,"purpur":14025,"warmed":14026,"warming":14027,"erns":14028,"mesos":14029,"mels":14030,"rump":14031,"uchi":14032,"addling":14033,"pray":14034,"wayed":14035,"yllous":14036,"portent":14037,"shead":14038,"penic":14039,"surv":14040,"survey":14041,"cleans":14042,"equis":14043,"bitumin":14044,"grease":14045,"clover":14046,"eks":14047,"potential":14048,"phony":14049,"sidered":14050,"splinter":14051,"groom":14052,"rison":14053,"distract":14054,"winds":14055,"windy":14056,"faring":14057,"divor":14058,"philop":14059,"operative":14060,"telev":14061,"baller":14062,"cosmet":14063,"precip":14064,"dogmat":14065,"dogger":14066,"target":14067,"symbi":14068,"waiting":14069,"olymer":14070,"efflu":14071,"templ":14072,"hetero":14073,"bander":14074,"batter":14075,"motion":14076,"impec":14077,"auditor":14078,"ozy":14079,"chlorophyll":14080,"acetone":14081,"Indon":14082,"quadris":14083,"urnal":14084,"ophoria":14085,"locomot":14086,"wheeler":14087,"judgment":14088,"justic":14089,"hexap":14090,"otropous":14091,"provoc":14092,"iodo":14093,"faun":14094,"gastrop":14095,"folly":14096,"mistrust":14097,"odea":14098,"billy":14099,"crink":14100,"crunch":14101,"odermal":14102,"fibered":14103,"iments":14104,"mask":14105,"enchant":14106,"rabbin":14107,"glyph":14108,"glypt":14109,"glycos":14110,"megas":14111,"horns":14112,"Hymen":14113,"dimer":14114,"avern":14115,"digress":14116,"uscult":14117,"ynamic":14118,"lava":14119,"lawyer":14120,"wither":14121,"rounded":14122,"toxin":14123,"mastig":14124,"fastness":14125,"cases":14126,"jealous":14127,"sticks":14128,"sufficient":14129,"stocking":14130,"antipar":14131,"actylous":14132,"ospec":14133,"ospong":14134,"grammat":14135,"uterine":14136,"botry":14137,"hypothes":14138,"irostral":14139,"tabular":14140,"bucket":14141,"smanship":14142,"obiosis":14143,"ocervical":14144,"bronchi":14145,"grief":14146,"northeast":14147,"sawed":14148,"apsular":14149,"glutin":14150,"trichin":14151,"scriptive":14152,"hurry":14153,"acoustic":14154,"pledge":14155,"famil":14156,"enza":14157,"enzym":14158,"ACS":14159,"ogonium":14160,"unlust":14161,"prerec":14162,"ozoon":14163,"ozoan":14164,"ophysical":14165,"pleasing":14166,"ruption":14167,"favored":14168,"ethere":14169,"tressed":14170,"neuros":14171,"neurot":14172,"bidden":14173,"iparity":14174,"thisis":14175,"Macro":14176,"pacific":14177,"wanton":14178,"rophyte":14179,"lobby":14180,"parasitic":14181,"scoff":14182,"hierarch":14183,"uphe":14184,"junctive":14185,"garde":14186,"tutor":14187,"iloquent":14188,"romancy":14189,"killer":14190,"bumble":14191,"valuing":14192,"valuation":14193,"gastroenter":14194,"apostroph":14195,"mobil":14196,"otomous":14197,"hazel":14198,"patriot":14199,"Norman":14200,"maintain":14201,"scapular":14202,"hatted":14203,"fixed":14204,"inferior":14205,"sectional":14206,"threaded":14207,"structur":14208,"pendicular":14209,"austral":14210,"epistol":14211,"plague":14212,"rhinocer":14213,"niggard":14214,"erythrin":14215,"mystic":14216,"hounds":14217,"Sabbat":14218,"coloured":14219,"original":14220,"odiagnosis":14221,"attach":14222,"oglobul":14223,"waggon":14224,"rontgen":14225,"spaced":14226,"plasmod":14227,"Silver":14228,"blessed":14229,"ochromic":14230,"compassion":14231,"Italo":14232,"tourist":14233,"productive":14234,"otheism":14235,"wrapped":14236,"instruction":14237,"speckle":14238,"Pleuro":14239,"quartz":14240,"cauter":14241,"sightedness":14242,"vaccin":14243,"scientific":14244,"bachelor":14245,"glazed":14246,"canonical":14247,"conventional":14248,"othecal":14249,"strumental":14250,"tranquil":14251,"Tetra":14252,"principled":14253,"scissor":14254,"Dicty":14255,"emascul":14256,"frequency":14257,"marginal":14258,"Actin":14259,"gossip":14260,"epilog":14261,"lamyde":14262,"zigz":14263,"fecund":14264,"burdened":14265,"laurel":14266,"accustom":14267,"consonant":14268,"weasel":14269,"nabob":14270,"osclerosis":14271,"shepherd":14272,"trencher":14273,"hendec":14274,"parchment":14275,"southern":14276,"Pythag":14277,"peculiar":14278,"ocarcinoma":14279,"sullen":14280,"illegitim":14281,"ocyclic":14282,"European":14283,"bureaucrat":14284,"AG":14285,"AL":14286,"Are":14287,"Amo":14288,"Aber":14289,"Bi":14290,"Bess":14291,"Bom":14292,"Bran":14293,"Bush":14294,"Batt":14295,"Bru":14296,"Belle":14297,"Cic":14298,"Cum":14299,"Cest":14300,"Cuc":14301,"Cost":14302,"Cann":14303,"Dag":14304,"Day":14305,"Dou":14306,"Ec":14307,"Eup":14308,"Eust":14309,"Fu":14310,"Four":14311,"GI":14312,"GO":14313,"GP":14314,"Grat":14315,"Gorg":14316,"Hut":14317,"Hec":14318,"Hex":14319,"Hier":14320,"Homer":14321,"IM":14322,"Ib":14323,"Ix":14324,"Iz":14325,"Ith":14326,"Ish":14327,"Iber":14328,"Jav":14329,"Kit":14330,"Koh":14331,"Lil":14332,"Lig":14333,"Lov":14334,"Laz":14335,"Linn":14336,"MU":14337,"Mom":14338,"Mut":14339,"Mull":14340,"Nin":14341,"Nip":14342,"Nev":14343,"Nich":14344,"Nash":14345,"Nicol":14346,"Om":14347,"Pre":14348,"Pach":14349,"Plan":14350,"Res":14351,"Rick":14352,"Ruth":14353,"Roz":14354,"Raj":14355,"Sant":14356,"Scol":14357,"Spe":14358,"Saf":14359,"Sym":14360,"Sphen":14361,"Script":14362,"Simon":14363,"TR":14364,"Tr":14365,"Tad":14366,"Top":14367,"Tir":14368,"Try":14369,"Tric":14370,"Tyn":14371,"Tenn":14372,"Tyr":14373,"UI":14374,"Valer":14375,"Wind":14376,"Wyn":14377,"Zer":14378,"Zan":14379,"Zar":14380,"aemic":14381,"aesth":14382,"auscult":14383,"bost":14384,"boll":14385,"cue":14386,"caff":14387,"ciform":14388,"dut":14389,"dud":14390,"dill":14391,"drow":14392,"dren":14393,"dunn":14394,"dizz":14395,"drear":14396,"eh":14397,"eart":14398,"easter":14399,"fatt":14400,"gism":14401,"gins":14402,"guns":14403,"gane":14404,"gings":14405,"gemin":14406,"hec":14407,"hover":14408,"hans":14409,"irous":14410,"jem":14411,"jos":14412,"jest":14413,"jured":14414,"jazz":14415,"kiness":14416,"khed":14417,"lal":14418,"lind":14419,"lah":14420,"lare":14421,"luk":14422,"mm":14423,"mated":14424,"mure":14425,"mage":14426,"member":14427,"mugg":14428,"niv":14429,"nex":14430,"nian":14431,"nast":14432,"naz":14433,"nou":14434,"nomen":14435,"oism":14436,"pace":14437,"pence":14438,"punn":14439,"pastic":14440,"rens":14441,"rily":14442,"ricalness":14443,"sest":14444,"send":14445,"sacc":14446,"suscept":14447,"tous":14448,"tite":14449,"tost":14450,"tinn":14451,"tasting":14452,"urot":14453,"von":14454,"vian":14455,"vial":14456,"vens":14457,"vious":14458,"vort":14459,"vised":14460,"vomit":14461,"wat":14462,"wite":14463,"wau":14464,"wrig":14465,"willed":14466,"yx":14467,"yas":14468,"zim":14469,"erts":14470,"inel":14471,"inium":14472,"inally":14473,"inhab":14474,"onion":14475,"onous":14476,"onav":14477,"onucle":14478,"esqu":14479,"anan":14480,"anine":14481,"atizing":14482,"enin":14483,"enist":14484,"encer":14485,"enix":14486,"enberg":14487,"enigmat":14488,"alar":14489,"alus":14490,"alion":14491,"along":14492,"alistically":14493,"eded":14494,"isive":14495,"isson":14496,"isance":14497,"isochron":14498,"icom":14499,"icness":14500,"icine":14501,"icting":14502,"aros":14503,"orl":14504,"orid":14505,"orius":14506,"unus":14507,"unia":14508,"unpo":14509,"unoff":14510,"unhom":14511,"unrid":14512,"unrem":14513,"unlab":14514,"unhuman":14515,"unauthor":14516,"untrust":14517,"itite":14518,"itization":14519,"itates":14520,"elion":14521,"eley":14522,"elcosis":14523,"elucid":14524,"roo":14525,"rou":14526,"rodis":14527,"rogu":14528,"roomed":14529,"reted":14530,"repor":14531,"rebut":14532,"regress":14533,"reaching":14534,"recompens":14535,"staph":14536,"static":14537,"stucco":14538,"leer":14539,"leak":14540,"leagu":14541,"chiff":14542,"chuk":14543,"chanal":14544,"chrism":14545,"usse":14546,"ilator":14547,"ilio":14548,"ilateral":14549,"rame":14550,"rained":14551,"raught":14552,"olle":14553,"olaryng":14554,"phol":14555,"phlor":14556,"phoria":14557,"essing":14558,"iders":14559,"idyll":14560,"iont":14561,"acal":14562,"acup":14563,"acumin":14564,"ulan":14565,"thig":14566,"thong":14567,"thrum":14568,"asha":14569,"aska":14570,"uru":14571,"urge":14572,"abus":14573,"abric":14574,"abelle":14575,"abouts":14576,"enti":14577,"enton":14578,"entes":14579,"entary":14580,"emate":14581,"emend":14582,"osch":14583,"osine":14584,"osier":14585,"osmic":14586,"osym":14587,"oschisis":14588,"amat":14589,"oti":14590,"otis":14591,"otid":14592,"adin":14593,"adro":14594,"admiss":14595,"uteness":14596,"utional":14597,"ogra":14598,"ogging":14599,"umped":14600,"rike":14601,"ribon":14602,"rived":14603,"ecar":14604,"opur":14605,"opot":14606,"opidae":14607,"opore":14608,"opsid":14609,"ivo":14610,"imi":14611,"image":14612,"imping":14613,"imps":14614,"immor":14615,"imprec":14616,"imprison":14617,"agri":14618,"agne":14619,"agium":14620,"agru":14621,"agglomer":14622,"octon":14623,"ocene":14624,"odical":14625,"perib":14626,"peries":14627,"perce":14628,"permiss":14629,"perspic":14630,"nonun":14631,"nonent":14632,"nonfor":14633,"nontermin":14634,"nondetermin":14635,"apath":14636,"apoth":14637,"aplan":14638,"appointed":14639,"antation":14640,"quel":14641,"quip":14642,"quets":14643,"quench":14644,"iric":14645,"irate":14646,"irref":14647,"shill":14648,"shank":14649,"shatter":14650,"shamm":14651,"loup":14652,"loof":14653,"loaf":14654,"loves":14655,"lofty":14656,"ifiableness":14657,"ipl":14658,"conjur":14659,"congest":14660,"congru":14661,"estra":14662,"coats":14663,"cooked":14664,"couple":14665,"ellular":14666,"spare":14667,"spinning":14668,"prox":14669,"protr":14670,"progen":14671,"propos":14672,"procra":14673,"proved":14674,"exoc":14675,"expost":14676,"exhum":14677,"exclus":14678,"exhilar":14679,"epot":14680,"ianna":14681,"undil":14682,"undece":14683,"astra":14684,"astragal":14685,"ineer":14686,"preins":14687,"precomp":14688,"hyph":14689,"plos":14690,"plunder":14691,"pluvi":14692,"illos":14693,"sear":14694,"ucu":14695,"ucing":14696,"heard":14697,"hebet":14698,"obes":14699,"obat":14700,"trying":14701,"scru":14702,"owa":14703,"ialise":14704,"debil":14705,"ceal":14706,"ceeding":14707,"ayers":14708,"avo":14709,"avant":14710,"avia":14711,"ylated":14712,"ylli":14713,"clon":14714,"cliqu":14715,"ophleb":14716,"uger":14717,"blastic":14718,"commis":14719,"inds":14720,"indiffer":14721,"angio":14722,"bole":14723,"disquis":14724,"disquiet":14725,"discern":14726,"bek":14727,"tees":14728,"tebral":14729,"flut":14730,"flagg":14731,"athan":14732,"parro":14733,"parall":14734,"tavern":14735,"atoria":14736,"atorian":14737,"monost":14738,"monster":14739,"montic":14740,"interpre":14741,"intercal":14742,"interior":14743,"toot":14744,"tourn":14745,"ensory":14746,"misunderstand":14747,"awful":14748,"intemper":14749,"mound":14750,"moose":14751,"mouch":14752,"geus":14753,"geared":14754,"resyn":14755,"resusc":14756,"oneiro":14757,"cort":14758,"cores":14759,"corym":14760,"matril":14761,"glau":14762,"actyle":14763,"actyly":14764,"redempt":14765,"mets":14766,"ortable":14767,"soiled":14768,"insan":14769,"egon":14770,"whack":14771,"colt":14772,"carbo":14773,"evas":14774,"illegal":14775,"slander":14776,"sliding":14777,"dery":14778,"haught":14779,"thered":14780,"thermic":14781,"minisc":14782,"ratern":14783,"barrow":14784,"herbar":14785,"herald":14786,"maids":14787,"mercer":14788,"letta":14789,"british":14790,"retali":14791,"skate":14792,"skyl":14793,"skunk":14794,"micron":14795,"microphot":14796,"guill":14797,"guild":14798,"guided":14799,"arches":14800,"bram":14801,"brake":14802,"pedant":14803,"copro":14804,"marvel":14805,"marsup":14806,"margin":14807,"theologic":14808,"ourous":14809,"ornamental":14810,"feeling":14811,"feature":14812,"twine":14813,"decal":14814,"decont":14815,"declin":14816,"decentral":14817,"pleur":14818,"ledom":14819,"vehem":14820,"strug":14821,"strung":14822,"axing":14823,"uncre":14824,"uncap":14825,"unculus":14826,"unsin":14827,"unsed":14828,"unsanct":14829,"Chel":14830,"ungain":14831,"counting":14832,"calum":14833,"omyces":14834,"doz":14835,"dood":14836,"incred":14837,"hydron":14838,"hydrom":14839,"grist":14840,"snor":14841,"snout":14842,"snipe":14843,"ocher":14844,"oches":14845,"inni":14846,"innab":14847,"anean":14848,"pyth":14849,"swel":14850,"swag":14851,"ource":14852,"sternal":14853,"sonian":14854,"ednesses":14855,"malic":14856,"malap":14857,"porcel":14858,"desper":14859,"descens":14860,"desulphur":14861,"beds":14862,"bedlam":14863,"hemp":14864,"hemorrh":14865,"turbo":14866,"turban":14867,"turbid":14868,"ancement":14869,"vening":14870,"sallow":14871,"breathe":14872,"pals":14873,"palis":14874,"afflu":14875,"wooded":14876,"ennia":14877,"petros":14878,"demic":14879,"demig":14880,"demoral":14881,"panel":14882,"encia":14883,"fts":14884,"handle":14885,"solution":14886,"orphy":14887,"catching":14888,"linen":14889,"controlled":14890,"canvass":14891,"issant":14892,"ariat":14893,"smir":14894,"ualist":14895,"rhine":14896,"offer":14897,"rages":14898,"scher":14899,"denit":14900,"denud":14901,"rington":14902,"reput":14903,"repud":14904,"repugn":14905,"accru":14906,"infat":14907,"inflex":14908,"sulfo":14909,"valve":14910,"bals":14911,"balan":14912,"ordinated":14913,"transform":14914,"transgress":14915,"laund":14916,"Ark":14917,"Arm":14918,"Arn":14919,"formul":14920,"ventral":14921,"elected":14922,"ereal":14923,"predel":14924,"photomic":14925,"squal":14926,"squab":14927,"squad":14928,"purpose":14929,"ettos":14930,"ettled":14931,"timed":14932,"pressive":14933,"mesoth":14934,"multit":14935,"auri":14936,"praised":14937,"restrict":14938,"proofing":14939,"zealous":14940,"porting":14941,"housew":14942,"equi":14943,"facult":14944,"nought":14945,"oscopes":14946,"oscopical":14947,"extended":14948,"grew":14949,"iculi":14950,"chiro":14951,"chiropter":14952,"hormon":14953,"cumber":14954,"besp":14955,"aeron":14956,"ilius":14957,"phonetic":14958,"splay":14959,"splitting":14960,"ciner":14961,"cinch":14962,"jective":14963,"grocer":14964,"rises":14965,"distill":14966,"lectic":14967,"Shakespe":14968,"trough":14969,"windowed":14970,"aminate":14971,"ertown":14972,"larg":14973,"larcen":14974,"division":14975,"scriber":14976,"omorphosis":14977,"protection":14978,"furrow":14979,"persian":14980,"daemon":14981,"races":14982,"osphaer":14983,"odontic":14984,"ergat":14985,"roduct":14986,"pictur":14987,"Elk":14988,"Ell":14989,"filtr":14990,"supple":14991,"suppos":14992,"supplic":14993,"concession":14994,"boarding":14995,"baum":14996,"similar":14997,"singular":14998,"effort":14999,"sorry":15000,"lasis":15001,"oeuv":15002,"ematically":15003,"rubric":15004,"cockney":15005,"bows":15006,"bowdler":15007,"lamell":15008,"looker":15009,"devast":15010,"devoted":15011,"quadril":15012,"keyed":15013,"banker":15014,"treaty":15015,"tinker":15016,"identate":15017,"ophoran":15018,"omerism":15019,"passage":15020,"condyl":15021,"ioso":15022,"judg":15023,"opodan":15024,"opodia":15025,"aptist":15026,"circumspect":15027,"rasia":15028,"respir":15029,"detox":15030,"Thur":15031,"Thorn":15032,"ophaga":15033,"shooter":15034,"spectrophot":15035,"putter":15036,"emanship":15037,"ombs":15038,"physician":15039,"aments":15040,"crud":15041,"freezing":15042,"option":15043,"optical":15044,"succor":15045,"End":15046,"Eng":15047,"histor":15048,"histori":15049,"alypt":15050,"unmort":15051,"ogenicity":15052,"vaunt":15053,"diazo":15054,"diaphan":15055,"propelled":15056,"fastid":15057,"covering":15058,"aqua":15059,"cephaly":15060,"frontal":15061,"vaginal":15062,"gallant":15063,"sixth":15064,"cocain":15065,"grammatic":15066,"blower":15067,"sphac":15068,"knowing":15069,"uvian":15070,"pastoral":15071,"sarcos":15072,"auspic":15073,"citron":15074,"gesticul":15075,"sapph":15076,"unperson":15077,"traction":15078,"aspis":15079,"spinster":15080,"Malac":15081,"abolition":15082,"connex":15083,"keepers":15084,"stepped":15085,"ilicic":15086,"anesthet":15087,"nicot":15088,"folds":15089,"holds":15090,"necroph":15091,"uncompl":15092,"scopic":15093,"famed":15094,"ogonous":15095,"prerem":15096,"chalaz":15097,"ephemer":15098,"iantness":15099,"ophysics":15100,"educational":15101,"racks":15102,"osporic":15103,"cacod":15104,"anglement":15105,"Stein":15106,"ittering":15107,"oecious":15108,"rudder":15109,"ruddy":15110,"produced":15111,"wigged":15112,"doctrin":15113,"ogeographical":15114,"leucocy":15115,"odyne":15116,"dorso":15117,"kiln":15118,"wicked":15119,"diffract":15120,"difficult":15121,"epsia":15122,"realm":15123,"wilder":15124,"osterior":15125,"practiced":15126,"Polym":15127,"orships":15128,"advised":15129,"flavor":15130,"telephon":15131,"epiglott":15132,"objection":15133,"cooled":15134,"rheum":15135,"reprob":15136,"pistol":15137,"westward":15138,"itudinous":15139,"pinnate":15140,"conscient":15141,"positively":15142,"execution":15143,"pestil":15144,"patriarch":15145,"reverber":15146,"electron":15147,"electrically":15148,"resisting":15149,"weights":15150,"anterior":15151,"rogenic":15152,"cogniz":15153,"pherical":15154,"mechanical":15155,"benef":15156,"cicer":15157,"talking":15158,"promised":15159,"diplomat":15160,"involuc":15161,"osmotic":15162,"apparently":15163,"military":15164,"fellowship":15165,"nurse":15166,"thaum":15167,"indigo":15168,"accout":15169,"Gallic":15170,"appendic":15171,"Phys":15172,"stretched":15173,"sylvan":15174,"despond":15175,"anilide":15176,"inspired":15177,"breeze":15178,"stupid":15179,"epiece":15180,"endeav":15181,"glacial":15182,"lazy":15183,"coupled":15184,"believing":15185,"ogynous":15186,"supral":15187,"omycetous":15188,"crawl":15189,"stamped":15190,"neighbour":15191,"elliptic":15192,"hippoc":15193,"Freder":15194,"oxylon":15195,"appointment":15196,"treatment":15197,"lachrym":15198,"bismuth":15199,"camphor":15200,"jubil":15201,"Brahman":15202,"ordained":15203,"departmental":15204,"ostraca":15205,"ofibroma":15206,"scholastic":15207,"remonstr":15208,"Gabri":15209,"mighty":15210,"pencil":15211,"trunked":15212,"Russo":15213,"garnish":15214,"transcendental":15215,"clype":15216,"phantasmag":15217,"Oriental":15218,"racheal":15219,"keleton":15220,"chosen":15221,"indoctr":15222,"omycete":15223,"enzyme":15224,"pessim":15225,"gipsy":15226,"zircon":15227,"unsuspect":15228,"anecdot":15229,"absinth":15230,"blasphem":15231,"eunuch":15232,"soviet":15233,"hermaphrod":15234,"ribonucle":15235,"AO":15236,"Af":15237,
[...]
