{"version":"1.0","truncation":null,"padding":null,"added_tokens":[{"id":0,"content":"[<START>]","single_word":false,"lstrip":false,"rstrip":false,"normalized":false,"special":true},{"id":1,"content":"[<END>]","single_word":false,"lstrip":false,"rstrip":false,"normalized":false,"special":true},{"id":2,"content":" ","single_word":false,"lstrip":false,"rstrip":false,"normalized":false,"special":true}],"normalizer":null,"pre_tokenizer":{"type":"Whitespace"},"post_processor":null,"decoder":null,"model":{"type":"BPE","dropout":null,"unk_token":null,"continuing_subword_prefix":null,"end_of_word_suffix":null,"fuse_unk":false,"byte_fallback":false,"vocab":{"!":0,"&":1,"'":2,",":3,"-":4,".":5,"/":6,"0":7,"1":8,"2":9,"3":10,"4":11,"5":12,"6":13,"7":14,"8":15,"9":16,"A":17,"B":18,"C":19,"D":20,"E":21,"F":22,"G":23,"H":24,"I":25,"J":26,"K":27,"L":28,"M":29,"N":30,"O":31,"P":32,"Q":33,"R":34,"S":35,"T":36,"U":37,"V":38,"W":39,"X":40,"Y":41,"Z":42,"[":43,"]":44,"_":45,"a":46,"b":47,"c":48,"d":49,"e":50,"f":51,"g":52,"h":53,"i":54,"j":55,"k":56,"l":57,"m":58,"n":59,"o":60,"p":61,"q":62,"r":63,"s":64,"t":65,"u":66,"v":67,"w":68,"x":69,"y":70,"z":71,"er":72,"in":73,"on":74,"es":75,"an":76,"at":77,"en":78,"al":79,"ed":80,"is":81,"ic":82,"ar":83,"or":84,"ing":85,"un":86,"it":87,"el":88,"ro":89,"re":90,"st":91,"le":92,"ch":93,"us":94,"il":95,"ra":96,"ol":97,"et":98,"ph":99,"ess":100,"om":101,"id":102,"ly":103,"ion":104,"ac":105,"ul":106,"th":107,"as":108,"ur":109,"ab":110,"ent":111,"em":112,"os":113,"am":114,"ot":115,"ad":116,"ous":117,"ut":118,"og":119,"um":120,"ist":121,"ri":122,"ec":123,"op":124,"ter":125,"iv":126,"im":127,"ag":128,"iz":129,"oc":130,"od":131,"per":132,"ation":133,"ig":134,"ver":135,"non":136,"ap":137,"ant":138,"qu":139,"ia":140,"ir":141,"su":142,"sh":143,"ness":144,"lo":145,"ical":146,"ate":147,"if":148,"ip":149,"con":150,"est":151,"co":152,"ell":153,"and":154,"sp":155,"pro":156,"ex":157,"ep":158,"ian":159,"ism":160,"ers":161,"und":162,"ast":163,"ine":164,"able":165,"pre":166,"ish":167,"hy":168,"ud":169,"over":170,"ib":171,"pl":172,"ill":173,"ies":174,"se":175,"ity":176,"uc":177,"ae":178,"ke":179,"he":180,"ob":181,"all":182,"ite":183,"tr":184,"ard":185,"sc":186,"ow":187,"ial":188,"de":189,"pr":190,"ce":191,"ect":192,"ay":193,"ne":194,"av":195,"man":196,"for":197,"ak":198,"ff":199,"end":200,"yl":201,"cl":202,"ive":203,"oph":204,"ug":205,"bl":206,"ost":207,"com":208,"ry":209,"ated":210,"ind":211,"ang":212,"bo":213,"sub":214,"olog":215,"eness":216,"dis":217,"be":218,"te":219,"up":220,"ie":221,"fl":222,"ath":223,"out":224,"ted":225,"par":226,"ically":227,"ub":228,"ize":229,"tra":230,"ct":231,"ack":232,"wor":233,"li":234,"ass":235,"ta":236,"ick":237,"ht":238,"cy":239,"ator":240,"mon":241,"inter":242,"to":243,"ful":244,"ely":245,"ens":246,"ier":247,"sy":248,"mis":249,"sel":250,"ide":251,"ach":252,"we":253,"ok":254,"ment":255,"ious":256,"ust":257,"raph":258,"ating":259,"aw":260,"ace":261,"ron":262,"ary":263,"int":264,"mo":265,"ge":266,"res":267,"ber":268,"one":269,"ran":270,"ric":271,"low":272,"cor":273,"mat":274,"ho":275,"gl":276,"act":277,"red":278,"sem":279,"art":280,"ah":281,"super":282,"rop":283,"met":284,"ock":285,"ort":286,"so":287,"ys":288,"self":289,"ith":290,"ins":291,"eg":292,"ingly":293,"ium":294,"wh":295,"col":296,"car":297,"ure":298,"less":299,"oid":300,"ev":301,"ility":302,"under":303,"wo":304,"well":305,"pol":306,"di":307,"ille":308,"po":309,"ally":310,"ograph":311,"pe":312,"sl":313,"der":314,"fo":315,"pt":316,"ise":317,"ized":318,"iness":319,"ha":320,"ton":321,"ular":322,"eter":323,"idae":324,"ans":325,"age":326,"rom":327,"gra":328,"ther":329,"ight":330,"min":331,"ult":332,"row":333,"rat":334,"bar":335,"ey":336,"ov":337,"like":338,"of":339,"ty":340,"her":341,"ma":342,"ice":343,"ros":344,"mer":345,"let":346,"br":347,"ret":348,"ship":349,"me":350,"ization":351,"ox":352,"sk":353,"mic":354,"my":355,"ence":356,"ger":357,"abl":358,"bur":359,"ose":360,"tri":361,"gu":362,"arch":363,"bra":364,"az":365,"ative":366,"yn":367,"hal":368,"ped":369,"cop":370,"ann":371,"ling":372,"ene":373,"mar":374,"ville":375,"fer":376,"the":377,"ou":378,"cer":379,"ied":380,"ich":381,"au":382,"orn":383,"fe":384,"tw":385,"dec":386,"asi":387,"izing":388,"ser":389,"head":390,"orm":391,"ple":392,"led":393,"ve":394,"ash":395,"str":396,"ax":397,"ting":398,"unc":399,"aut":400,"uns":401,"ale":402,"Ch":403,"old":404,"ile":405,"ung":406,"med":407,"An":408,"ively":409,"ree":410,"men":411,"ore":412,"ogen":413,"ily":414,"iest":415,"ign":416,"ker":417,"ater":418,"own":419,"ong":420,"coun":421,"ability":422,"af":423,"cal":424,"ept":425,"omy":426,"istic":427,"do":428,"anth":429,"inc":430,"rig":431,"quasi":432,"ire":433,"ates":434,"ram":435,"hyd":436,"gr":437,"ably":438,"ik":439,"post":440,"sn":441,"gen":442,"ain":443,"ink":444,"ont":445,"och":446,"ond":447,"inn":448,"ane":449,"seud":450,"py":451,"rit":452,"pos":453,"ble":454,"ings":455,"ym":456,"rec":457,"oth":458,"sw":459,"our":460,"ations":461,"ster":462,"son":463,"edness":464,"igh":465,"ler":466,"ableness":467,"ome":468,"ology":469,"mal":470,"osis":471,"etic":472,"cent":473,"por":474,"des":475,"ush":476,"bed":477,"hem":478,"back":479,"rel":480,"are":481,"tur":482,"go":483,"anc":484,"ance":485,"ities":486,"che":487,"air":488,"ific":489,"aph":490,"rol":491,"att":492,"pseud":493,"ue":494,"cur":495,"ren":496,"ised":497,"unt":498,"ven":499,"ugh":500,"sal":501,"hyper":502,"uck":503,"bro":504,"bre":505,"phal":506,"pal":507,"tic":508,"aff":509,"counter":510,"ement":511,"io":512,"roph":513,"wood":514,"eth":515,"enn":516,"pet":517,"ix":518,"zo":519,"ors":520,"iform":521,"ck":522,"Al":523,"uct":524,"dem":525,"ition":526,"ously":527,"itis":528,"pan":529,"poly":530,"iveness":531,"lor":532,"enc":533,"ft":534,"ered":535,"hand":536,"sol":537,"kn":538,"orph":539,"amb":540,"cat":541,"lin":542,"ged":543,"ele":544,"pres":545,"ify":546,"omet":547,"ible":548,"cont":549,"land":550,"cul":551,"fish":552,"rot":553,"can":554,"ru":555,"que":556,"ear":557,"but":558,"iss":559,"atory":560,"ists":561,"reg":562,"ank":563,"ari":564,"sm":565,"ual":566,"oman":567,"ising":568,"bor":569,"ull":570,"cap":571,"ail":572,"rh":573,"ase":574,"erous":575,"ca":576,"off":577,"work":578,"ons":579,"itt":580,"rag":581,"oss":582,"ery":583,"leg":584,"eli":585,"sch":586,"edly":587,"ina":588,"atic":589,"ste":590,"har":591,"aceae":592,"den":593,"bi":594,"les":595,"ring":596,"rep":597,"acc":598,"inf":599,"aceous":600,"ict":601,"itic":602,"syn":603,"half":604,"sul":605,"ory":606,"val":607,"ars":608,"ions":609,"bal":610,"ord":611,"vol":612,"eld":613,"by":614,"trans":615,"ward":616,"unf":617,"ole":618,"la":619,"ousness":620,"Ar":621,"last":622,"form":623,"vent":624,"ines":625,"ias":626,"ional":627,"pat":628,"unn":629,"elect":630,"cra":631,"ient":632,"eck":633,"ott":634,"char":635,"ref":636,"pa":637,"comm":638,"ping":639,"onic":640,"ere":641,"pred":642,"pri":643,"uff":644,"ral":645,"phot":646,"squ":647,"hom":648,"pur":649,"ee":650,"rid":651,"uth":652,"eless":653,"war":654,"ett":655,"dep":656,"ern":657,"hum":658,"ational":659,"anti":660,"dom":661,"tim":662,"ps":663,"press":664,"mes":665,"mel":666,"ura":667,"dra":668,"agn":669,"rum":670,"uch":671,"mak":672,"ined":673,"mult":674,"gar":675,"ics":676,"add":677,"aur":678,"pra":679,"vis":680,"vel":681,"oy":682,"way":683,"rog":684,"yll":685,"bel":686,"rest":687,"ird":688,"proof":689,"stra":690,"ze":691,"port":692,"ress":693,"oh":694,"top":695,"vi":696,"uss":697,"del":698,"ade":699,"arian":700,"omat":701,"she":702,"hol":703,"ten":704,"iously":705,"foot":706,"ological":707,"vers":708,"pen":709,"iff":710,"bon":711,"ocy":712,"uro":713,"pi":714,"inal":715,"phy":716,"sur":717,"itch":718,"twice":719,"cle":720,"cir":721,"alk":722,"hous":723,"hyp":724,"iousness":725,"dy":726,"ency":727,"uk":728,"equ":729,"mac":730,"rem":731,"ored":732,"micro":733,"fac":734,"no":735,"sil":736,"esis":737,"bit":738,"ometer":739,"oscop":740,"ext":741,"cut":742,"gre":743,"rin":744,"icul":745,"ross":746,"gy":747,"ner":748,"read":749,"chi":750,"tran":751,"amp":752,"clo":753,"oll":754,"cri":755,"ek":756,"atur":757,"hor":758,"aster":759,"cum":760,"org":761,"bes":762,"not":763,"ught":764,"iferous":765,"flu":766,"ye":767,"def":768,"ather":769,"wise":770,"ark":771,"pot":772,"eral":773,"orth":774,"ging":775,"eb":776,"sec":777,"aer":778,"ild":779,"oma":780,"emb":781,"ologist":782,"tail":783,"ld":784,"ley":785,"ially":786,"right":787,"ham":788,"ets":789,"yg":790,"ili":791,"phon":792,"sid":793,"spl":794,"ben":795,"conf":796,"cin":797,"lim":798,"you":799,"ently":800,"ts":801,"ters":802,"sych":803,"cre":804,"tet":805,"els":806,"burg":807,"ject":808,"hydro":809,"Pro":810,"als":811,"pin":812,"comp":813,"unk":814,"izes":815,"weed":816,"rist":817,"ana":818,"umb":819,"rown":820,"gro":821,"spir":822,"water":823,"mor":824,"ris":825,"flow":826,"eng":827,"dist":828,"ss":829,"lect":830,"Mar":831,"long":832,"na":833,"ette":834,"vit":835,"nesses":836,"Sh":837,"bu":838,"use":839,"ified":840,"ography":841,"ites":842,"antic":843,"world":844,"thy":845,"tro":846,"wind":847,"shap":848,"phen":849,"amin":850,"unch":851,"plic":852,"hear":853,"ert":854,"lar":855,"pul":856,"hood":857,"far":858,"div":859,"down":860,"mus":861,"ries":862,"otic":863,"zz":864,"arp":865,"phil":866,"ote":867,"gal":868,"scri":869,"ving":870,"exc":871,"atch":872,"uncon":873,"omorph":874,"prot":875,"mod":876,"ule":877,"ved":878,"fur":879,"ame":880,"enter":881,"ave":882,"ield":883,"mind":884,"unct":885,"oper":886,"ification":887,"fully":888,"St":889,"bol":890,"iter":891,"rous":892,"mid":893,"ited":894,"pers":895,"semi":896,"bas":897,"tel":898,"fore":899,"gon":900,"ata":901,"ball":902,"wing":903,"oty":904,"izer":905,"cross":906,"rect":907,"cos":908,"ella":909,"da":910,"ental":911,"blo":912,"hard":913,"exp":914,"tor":915,"prec":916,"imm":917,"occ":918,"ering":919,"dog":920,"log":921,"rac":922,"osph":923,"odont":924,"erg":925,"rod":926,"cry":927,"jo":928,"tar":929,"ingness":930,"thal":931,"other":932,"stone":933,"ula":934,"sym":935,"wa":936,"headed":937,"pic":938,"bird":939,"iac":940,"ibility":941,"sum":942,"cher":943,"radi":944,"oly":945,"eff":946,"ks":947,"tem":948,"unre":949,"du":950,"hip":951,"heter":952,"kin":953,"tal":954,"El":955,"fil":956,"sup":957,"ogn":958,"conc":959,"board":960,"ba":961,"miss":962,"atively":963,"bul":964,"band":965,"ural":966,"ened":967,"ew":968,"rad":969,"amph":970,"line":971,"sim":972,"asc":973,"psych":974,"bat":975,"quin":976,"isms":977,"dri":978,"pit":979,"ages":980,"mot":981,"ulate":982,"ishness":983,"imp":984,"mill":985,"ti":986,"Car":987,"ean":988,"shaped":989,"ately":990,"uses":991,"ides":992,"light":993,"aden":994,"ked":995,"sing":996,"high":997,"ves":998,"ony":999,"ured":1000,"aud":1001,"ef":1002,"extra":1003,"Ph":1004,"sor":1005,"las":1006,"sa":1007,"anal":1008,"rif":1009,"bell":1010,"ute":1011,"ophy":1012,"iate":1013,"king":1014,"lat":1015,"oe":1016,"oz":1017,"ese":1018,"house":1019,"ded":1020,"obia":1021,"ying":1022,"mit":1023,"rup":1024,"chy":1025,"emat":1026,"don":1027,"rub":1028,"lex":1029,"black":1030,"hearted":1031,"rust":1032,"chlor":1033,"cock":1034,"isation":1035,"card":1036,"iph":1037,"ka":1038,"unp":1039,"rew":1040,"bow":1041,"lam":1042,"mil":1043,"fulness":1044,"ellow":1045,"look":1046,"lac":1047,"ators":1048,"bin":1049,"pent":1050,"rate":1051,"sac":1052,"book":1053,"ants":1054,"hed":1055,"ara":1056,"hel":1057,"dip":1058,"lip":1059,"aria":1060,"itor":1061,"ats":1062,"iser":1063,"dev":1064,"fra":1065,"ira":1066,"aring":1067,"acet":1068,"antly":1069,"wort":1070,"ranch":1071,"bet":1072,"arn":1073,"arth":1074,"In":1075,"lab":1076,"swe":1077,"tain":1078,"ops":1079,"quad":1080,"key":1081,"white":1082,"organ":1083,"ban":1084,"bec":1085,"arc":1086,"ital":1087,"glo":1088,"ms":1089,"thor":1090,"Le":1091,"tre":1092,"ophil":1093,"umin":1094,"full":1095,"ike":1096,"mut":1097,"isc":1098,"thes":1099,"tin":1100,"wit":1101,"ister":1102,"cour":1103,"cro":1104,"ius":1105,"ident":1106,"urn":1107,"ophor":1108,"omer":1109,"sulph":1110,"pass":1111,"arg":1112,"aved":1113,"aking":1114,"van":1115,"cond":1116,"bill":1117,"ios":1118,"loc":1119,"sin":1120,"unst":1121,"uble":1122,"oxy":1123,"whe":1124,"ibl":1125,"bod":1126,"jud":1127,"opod":1128,"electro":1129,"rap":1130,"three":1131,"ester":1132,"rim":1133,"ologic":1134,"emia":1135,"aker":1136,"just":1137,"inv":1138,"ishly":1139,"agg":1140,"istically":1141,"elike":1142,"fire":1143,"gn":1144,"ired":1145,"plan":1146,"rock":1147,"chn":1148,"apt":1149,"two":1150,"ancy":1151,"app":1152,"ender":1153,"ifying":1154,"hex":1155,"tub":1156,"ids":1157,"eyed":1158,"circum":1159,"vir":1160,"ched":1161,"otrop":1162,"ude":1163,"part":1164,"faced":1165,"aries":1166,"cho":1167,"ras":1168,"esc":1169,"opter":1170,"serv":1171,"bing":1172,"yr":1173,"ai":1174,"orr":1175,"resp":1176,"matic":1177,"day":1178,"enic":1179,"neum":1180,"box":1181,"aryn":1182,"anthrop":1183,"yeah":1184,"prov":1185,"cam":1186,"gam":1187,"chem":1188,"astic":1189,"Am":1190,"iod":1191,"tric":1192,"Ne":1193,"bac":1194,"det":1195,"fa":1196,"ming":1197,"elled":1198,"ographic":1199,"gast":1200,"atter":1201,"ening":1202,"Th":1203,"ises":1204,"ola":1205,"ump":1206,"vert":1207,"fact":1208,"ality":1209,"unw":1210,"idd":1211,"idi":1212,"ution":1213,"ogram":1214,"ophag":1215,"ysis":1216,"atin":1217,"berry":1218,"ison":1219,"its":1220,"sho":1221,"icalness":1222,"elling":1223,"spec":1224,"rough":1225,"imper":1226,"ians":1227,"inst":1228,"ena":1229,"otomy":1230,"pod":1231,"cha":1232,"contra":1233,"maker":1234,"fol":1235,"get":1236,"ky":1237,"rev":1238,"oplast":1239,"prod":1240,"ments":1241,"set":1242,"elle":1243,"spect":1244,"ga":1245,"mist":1246,"eled":1247,"emon":1248,"udd":1249,"eric":1250,"eu":1251,"fin":1252,"hab":1253,"iet":1254,"liv":1255,"lif":1256,"root":1257,"oste":1258,"word":1259,"blood":1260,"pel":1261,"sen":1262,"omn":1263,"aged":1264,"oct":1265,"ake":1266,"cot":1267,"put":1268,"pop":1269,"ioned":1270,"ums":1271,"mouth":1272,"Mc":1273,"field":1274,"pil":1275,"woman":1276,"arter":1277,"eman":1278,"play":1279,"jack":1280,"omb":1281,"dam":1282,"vic":1283,"iner":1284,"phys":1285,"ode":1286,"ibly":1287,"fir":1288,"lad":1289,"sle":1290,"idal":1291,"ament":1292,"hyl":1293,"bil":1294,"nos":1295,"path":1296,"ino":1297,"prof":1298,"after":1299,"cr":1300,"free":1301,"lit":1302,"ool":1303,"making":1304,"bush":1305,"cu":1306,"gent":1307,"ilt":1308,"ope":1309,"Un":1310,"cast":1311,"agon":1312,"ephal":1313,"lap":1314,"nut":1315,"ete":1316,"opt":1317,"oder":1318,"lessness":1319,"soc":1320,"rip":1321,"suc":1322,"illa":1323,"colored":1324,"lock":1325,"pale":1326,"stand":1327,"flower":1328,"fib":1329,"lan":1330,"ux":1331,"iment":1332,"iat":1333,"lib":1334,"mas":1335,"ream":1336,"ider":1337,"pseudo":1338,"En":1339,"ior":1340,"inae":1341,"ench":1342,"lem":1343,"ultra":1344,"flo":1345,"hist":1346,"rab":1347,"rang":1348,"une":1349,"gly":1350,"meg":1351,"nit":1352,"yellow":1353,"horn":1354,"rical":1355,"anim":1356,"aly":1357,"rost":1358,"that":1359,"new":1360,"cord":1361,"Hy":1362,"dim":1363,"oon":1364,"smo":1365,"ubl":1366,"esh":1367,"beg":1368,"sed":1369,"intra":1370,"elic":1371,"omen":1372,"omic":1373,"tho":1374,"iron":1375,"short":1376,"ianism":1377,"four":1378,"green":1379,"ced":1380,"nal":1381,"sens":1382,"icular":1383,"orous":1384,"ulation":1385,"ots":1386,"dr":1387,"orial":1388,"burn":1389,"double":1390,"aver":1391,"dig":1392,"sign":1393,"urg":1394,"ford":1395,"sun":1396,"vo":1397,"ones":1398,"olic":1399,"ential":1400,"ander":1401,"heart":1402,"ophobia":1403,"rich":1404,"gold":1405,"iable":1406,"sper":1407,"corn":1408,"Sch":1409,"sat":1410,"usc":1411,"turn":1412,"gle":1413,"rant":1414,"oric":1415,"unm":1416,"ished":1417,"ney":1418,"bound":1419,"ogenic":1420,"ech":1421,"fly":1422,"inate":1423,"alg":1424,"unic":1425,"ita":1426,"emp":1427,"ibleness":1428,"Or":1429,"ever":1430,"len":1431,"plac":1432,"oscope":1433,"cel":1434,"iol":1435,"lay":1436,"oil":1437,"ration":1438,"ero":1439,"ection":1440,"ynam":1441,"time":1442,"best":1443,"lav":1444,"pig":1445,"star":1446,"law":1447,"ini":1448,"ener":1449,"emic":1450,"empt":1451,"va":1452,"vul":1453,"with":1454,"ald":1455,"dia":1456,"unh":1457,"chor":1458,"ower":1459,"night":1460,"pap":1461,"round":1462,"encephal":1463,"nar":1464,"ination":1465,"ano":1466,"arm":1467,"unex":1468,"chrom":1469,"prop":1470,"angu":1471,"tox":1472,"point":1473,"jur":1474,"mast":1475,"init":1476,"ali":1477,"oses":1478,"tongu":1479,"tu":1480,"ico":1481,"fishes":1482,"unb":1483,"ival":1484,"spe":1485,"mann":1486,"fast":1487,"ining":1488,"inous":1489,"amm":1490,"cover":1491,"cyst":1492,"ket":1493,"ray":1494,"aded":1495,"ece":1496,"preh":1497,"tetra":1498,"tit":1499,"onia":1500,"ocephal":1501,"noncon":1502,"aqu":1503,"magn":1504,"ocrat":1505,"pret":1506,"cephal":1507,"bag":1508,"cas":1509,"fron":1510,"je":1511,"vag":1512,"ato":1513,"ives":1514,"boy":1515,"gel":1516,"town":1517,"oral":1518,"ado":1519,"ucle":1520,"bab":1521,"ken":1522,"sent":1523,"ures":1524,"fre":1525,"stick":1526,"omed":1527,"ulated":1528,"plat":1529,"oblast":1530,"Con":1531,"side":1532,"antim":1533,"blue":1534,"ences":1535,"ometry":1536,"inic":1537,"ape":1538,"sea":1539,"draw":1540,"bri":1541,"gall":1542,"lig":1543,"net":1544,"san":1545,"six":1546,"ora":1547,"suff":1548,"bull":1549,"cab":1550,"coc":1551,"lic":1552,"lers":1553,"liness":1554,"sand":1555,"worm":1556,"hole":1557,"Gu":1558,"stock":1559,"iled":1560,"antip":1561,"class":1562,"tax":1563,"actyl":1564,"fle":1565,"hu":1566,"test":1567,"enth":1568,"leaved":1569,"ilities":1570,"ety":1571,"ads":1572,"iting":1573,"osp":1574,"amine":1575,"gram":1576,"minded":1577,"bic":1578,"ela":1579,"ilo":1580,"rix":1581,"ivity":1582,"semic":1583,"Qu":1584,"big":1585,"blow":1586,"cess":1587,"cell":1588,"elec":1589,"ionist":1590,"ended":1591,"cod":1592,"sph":1593,"vet":1594,"athy":1595,"ales":1596,"itive":1597,"ria":1598,"tern":1599,"ologically":1600,"Mon":1601,"fri":1602,"lith":1603,"pant":1604,"omies":1605,"uter":1606,"try":1607,"rolog":1608,"unsh":1609,"chron":1610,"ason":1611,"irt":1612,"rong":1613,"know":1614,"Per":1615,"bot":1616,"uv":1617,"wall":1618,"eling":1619,"ida":1620,"cow":1621,"ards":1622,"berg":1623,"snow":1624,"mag":1625,"ni":1626,"hypo":1627,"ectomy":1628,"awn":1629,"ighted":1630,"bos":1631,"cran":1632,"dic":1633,"hen":1634,"til":1635,"vin":1636,"romat":1637,"thro":1638,"iver":1639,"deep":1640,"cycl":1641,"soft":1642,"fed":1643,"ges":1644,"master":1645,"past":1646,"ange":1647,"sky":1648,"sweet":1649,"born":1650,"iro":1651,"var":1652,"wash":1653,"alism":1654,"ils":1655,"olith":1656,"acqu":1657,"rian":1658,"aim":1659,"mad":1660,"sar":1661,"open":1662,"ante":1663,"roll":1664,"ometric":1665,"looking":1666,"aus":1667,"cit":1668,"dish":1669,"gest":1670,"pon":1671,"sap":1672,"room":1673,"ches":1674,"iums":1675,"Her":1676,"oo":1677,"tap":1678,"any":1679,"allo":1680,"alize":1681,"unin":1682,"uring":1683,"ogam":1684,"flag":1685,"idea":1686,"therm":1687,"Re":1688,"bib":1689,"hot":1690,"iation":1691,"pneum":1692,"tab":1693,"onian":1694,"stall":1695,"chol":1696,"scar":1697,"gress":1698,"ances":1699,"Cor":1700,"Col":1701,"pip":1702,"ror":1703,"imet":1704,"illing":1705,"fort":1706,"Ger":1707,"aul":1708,"fall":1709,"iced":1710,"agu":1711,"izz":1712,"undis":1713,"plum":1714,"boat":1715,"struct":1716,"ood":1717,"tree":1718,"opol":1719,"nonre":1720,"appro":1721,"illed":1722,"good":1723,"buck":1724,"mous":1725,"rent":1726,"sman":1727,"voc":1728,"iling":1729,"obi":1730,"ending":1731,"subst":1732,"Bar":1733,"bus":1734,"fat":1735,"tol":1736,"urs":1737,"ocer":1738,"acy":1739,"ocarp":1740,"dol":1741,"sick":1742,"leaf":1743,"istical":1744,"ays":1745,"neph":1746,"aven":1747,"inesses":1748,"hair":1749,"bron":1750,"ding":1751,"hib":1752,"som":1753,"inted":1754,"alt":1755,"etically":1756,"uria":1757,"tered":1758,"palae":1759,"horse":1760,"dry":1761,"gri":1762,"wed":1763,"unper":1764,"elet":1765,"bear":1766,"tooth":1767,"ces":1768,"pick":1769,"ateness":1770,"ativeness":1771,"aled":1772,"reen":1773,"chan":1774,"osity":1775,"loid":1776,"tract":1777,"aux":1778,"fing":1779,"jug":1780,"mur":1781,"nor":1782,"inu":1783,"rain":1784,"aked":1785,"monger":1786,"benz":1787,"Be":1788,"Har":1789,"cand":1790,"mol":1791,"saw":1792,"some":1793,"win":1794,"itation":1795,"stem":1796,"asp":1797,"ager":1798,"aps":1799,"ipp":1800,"spor":1801,"clim":1802,"bled":1803,"eye":1804,"spirit":1805,"vas":1806,"stat":1807,"stri":1808,"usion":1809,"flat":1810,"He":1811,"cad":1812,"sept":1813,"tot":1814,"ani":1815,"phosph":1816,"spin":1817,"disc":1818,"glut":1819,"grand":1820,"stere":1821,"single":1822,"De":1823,"Mal":1824,"rose":1825,"ract":1826,"lym":1827,"ents":1828,"opath":1829,"trich":1830,"aj":1831,"bott":1832,"gh":1833,"mand":1834,"then":1835,"abol":1836,"emin":1837,"conn":1838,"kee":1839,"soul":1840,"hep":1841,"penn":1842,"tip":1843,"alist":1844,"acid":1845,"cost":1846,"ophthal":1847,"worth":1848,"ways":1849,"script":1850,"Mer":1851,"mos":1852,"run":1853,"ses":1854,"uh":1855,"ala":1856,"step":1857,"ilic":1858,"thick":1859,"ada":1860,"rib":1861,"ifer":1862,"sequ":1863,"angi":1864,"boro":1865,"human":1866,"silver":1867,"fig":1868,"iers":1869,"ny":1870,"now":1871,"anes":1872,"allow":1873,"phar":1874,"izable":1875,"brid":1876,"hur":1877,"unpro":1878,"aco":1879,"umber":1880,"pled":1881,"lessly":1882,"gener":1883,"AS":1884,"god":1885,"chin":1886,"cler":1887,"ologies":1888,"cular":1889,"neck":1890,"pter":1891,"Anti":1892,"Cal":1893,"bug":1894,"nic":1895,"sess":1896,"recon":1897,"omin":1898,"ading":1899,"outs":1900,"ogenesis":1901,"fluor":1902,"Pan":1903,"fold":1904,"gor":1905,"hold":1906,"iaceae":1907,"lot":1908,"nec":1909,"vest":1910,"anis":1911,"uncom":1912,"ivers":1913,"oco":1914,"ophyll":1915,"oidal":1916,"grass":1917,"dil":1918,"ea":1919,"zer":1920,"ema":1921,"ama":1922,"peri":1923,"iast":1924,"Mel":1925,"Non":1926,"aint":1927,"pens":1928,"rite":1929,"ching":1930,"asis":1931,"unders":1932,"scop":1933,"blast":1934,"slip":1935,"present":1936,"call":1937,"drop":1938,"ko":1939,"rer":1940,"antis":1941,"moon":1942,"semip":1943,"cath":1944,"dest":1945,"fam":1946,"rated":1947,"viv":1948,"enz":1949,"aling":1950,"rein":1951,"ols":1952,"ift":1953,"eller":1954,"precon":1955,"neuro":1956,"lier":1957,"color":1958,"oxid":1959,"Bra":1960,"fal":1961,"gyn":1962,"anic":1963,"irl":1964,"iber":1965,"meter":1966,"mark":1967,"oes":1968,"rug":1969,"sav":1970,"writ":1971,"used":1972,"ime":1973,"agog":1974,"odon":1975,"spar":1976,"AC":1977,"tom":1978,"osaur":1979,"ogon":1980,"what":1981,"ographer":1982,"small":1983,"wards":1984,"footed":1985,"gang":1986,"hon":1987,"ioc":1988,"iated":1989,"wide":1990,"escent":1991,"orch":1992,"unl":1993,"elt":1994,"chond":1995,"otted":1996,"umer":1997,"oped":1998,"apy":1999,"ishing":2000,"prer":2001,"blind":2002,"ographical":2003,"retro":2004,"ogenous":2005,"aryng":2006,"Bl":2007,"Cy":2008,"dro":2009,"ril":2010,"sville":2011,"ually":2012,"vice":2013,"stre":2014,"chal":2015,"Sal":2016,"eph":2017,"gas":2018,"ozo":2019,"sex":2020,"vie":2021,"unim":2022,"ades":2023,"rosis":2024,"position":2025,"Par":2026,"cav":2027,"did":2028,"iant":2029,"tle":2030,"uous":2031,"ona":2032,"ared":2033,"reat":2034,"ophys":2035,"uber":2036,"Ed":2037,"cup":2038,"gran":2039,"natur":2040,"rill":2041,"yle":2042,"anat":2043,"educ":2044,"quis":2045,"scler":2046,"many":2047,"plex":2048,"pleas":2049,"gem":2050,"tum":2051,"eler":2052,"ulating":2053,"quer":2054,"ected":2055,"need":2056,"inder":2057,"rupt":2058,"Tur":2059,"cet":2060,"cant":2061,"face":2062,"hod":2063,"rhy":2064,"alb":2065,"ston":2066,"omal":2067,"ury":2068,"perf":2069,"ifies":2070,"ranchi":2071,"broad":2072,"earth":2073,"fru":2074,"ju":2075,"rically":2076,"yo":2077,"onom":2078,"itan":2079,"itable":2080,"raw":2081,"rack":2082,"ask":2083,"utter":2084,"apor":2085,"seed":2086,"bling":2087,"rank":2088,"Co":2089,"dys":2090,"fav":2091,"home":2092,"iqu":2093,"pid":2094,"rut":2095,"ya":2096,"arist":2097,"acter":2098,"uls":2099,"ospor":2100,"supra":2101,"plant":2102,"dead":2103,"clad":2104,"whip":2105,"wool":2106,"Ber":2107,"Pal":2108,"dent":2109,"iot":2110,"mir":2111,"yer":2112,"aro":2113,"itut":2114,"eme":2115,"hemat":2116,"judic":2117,"cac":2118,"cate":2119,"pack":2120,"tam":2121,"ether":2122,"achy":2123,"resh":2124,"actin":2125,"action":2126,"coll":2127,"ground":2128,"brom":2129,"kind":2130,"was":2131,"incon":2132,"ature":2133,"alized":2134,"olite":2135,"igen":2136,"pros":2137,"angle":2138,"pear":2139,"Christ":2140,"rograph":2141,"Ad":2142,"nov":2143,"sam":2144,"zing":2145,"itting":2146,"nonex":2147,"lets":2148,"ocyst":2149,"Ste":2150,"bone":2151,"bred":2152,"hog":2153,"ja":2154,"mud":2155,"vac":2156,"unad":2157,"roid":2158,"check":2159,"etal":2160,"uld":2161,"ases":2162,"osh":2163,"person":2164,"crypt":2165,"BS":2166,"bank":2167,"ience":2168,"rine":2169,"zed":2170,"ican":2171,"itter":2172,"ulous":2173,"spring":2174,"tress":2175,"ector":2176,"neu":2177,"atingly":2178,"glass":2179,"ritic":2180,"multip":2181,"viol":2182,"MS":2183,"Mor":2184,"bid":2185,"dale":2186,"mia":2187,"oec":2188,"rus":2189,"sep":2190,"incl":2191,"itate":2192,"road":2193,"compl":2194,"bearing":2195,"tear":2196,"break":2197,"cloth":2198,"tailed":2199,"brown":2200,"cult":2201,"dial":2202,"hap":2203,"nas":2204,"sus":2205,"styl":2206,"olar":2207,"asm":2208,"quick":2209,"iffer":2210,"neg":2211,"angel":2212,"awk":2213,"there":2214,"craft":2215,"oscopy":2216,"Bo":2217,"lie":2218,"rud":2219,"vill":2220,"etical":2221,"ulph":2222,"loy":2223,"oney":2224,"school":2225,"produc":2226,"prehens":2227,"Hal":2228,"cus":2229,"dle":2230,"ki":2231,"tes":2232,"esth":2233,"cham":2234,"osoph":2235,"see":2236,"prel":2237,"ups":2238,"ogenetic":2239,"smooth":2240,"fic":2241,"hop":2242,"loss":2243,"mach":2244,"si":2245,"walk":2246,"zen":2247,"unsp":2248,"ito":2249,"chur":2250,"iding":2251,"emer":2252,"irre":2253,"ife":2254,"tedness":2255,"lik":2256,"sound":2257,"thought":2258,"Ros":2259,"fet":2260,"grow":2261,"mort":2262,"wig":2263,"roy":2264,"olig":2265,"idium":2266,"demon":2267,"encies":2268,"yllab":2269,"Wh":2270,"doc":2271,"gun":2272,"gum":2273,"kh":2274,"erv":2275,"inated":2276,"icon":2277,"rach":2278,"shop":2279,"ipar":2280,"hea":2281,"indic":2282,"hook":2283,"pound":2284,"inned":2285,"omata":2286,"IS":2287,"Man":2288,"gan":2289,"grat":2290,"joy":2291,"lu":2292,"pom":2293,"olat":2294,"this":2295,"asia":2296,"amer":2297,"ader":2298,"oge":2299,"cyan":2300,"pyro":2301,"paper":2302,"macro":2303,"lymph":2304,"fair":2305,"iar":2306,"lion":2307,"mam":2308,"ned":2309,"nom":2310,"pup":2311,"rick":2312,"rink":2313,"trop":2314,"uzz":2315,"eding":2316,"leuc":2317,"eta":2318,"abb":2319,"oplas":2320,"ody":2321,"asted":2322,"comb":2323,"mont":2324,"izations":2325,"Mac":2326,"dor":2327,"kil":2328,"mul":2329,"pac":2330,"ua":2331,"want":2332,"wick":2333,"watch":2334,"xy":2335,"za":2336,"zyg":2337,"stro":2338,"stom":2339,"uric":2340,"quest":2341,"shot":2342,"liest":2343,"rans":2344,"uction":2345,"bacter":2346,"Ge":2347,"drag":2348,"diff":2349,"table":2350,"tight":2351,"icity":2352,"ores":2353,"race":2354,"amid":2355,"conv":2356,"myth":2357,"ements":2358,"omania":2359,"eas":2360,"hil":2361,"pec":2362,"pay":2363,"uit":2364,"won":2365,"yard":2366,"oned":2367,"elia":2368,"rav":2369,"ided":2370,"ocent":2371,"ationist":2372,"eps":2373,"rophy":2374,"sulf":2375,"crimin":2376,"winged":2377,"crown":2378,"gig":2379,"iaceous":2380,"tick":2381,"onym":2382,"phyl":2383,"clos":2384,"anger":2385,"ief":2386,"actic":2387,"auto":2388,"handed":2389,"wheel":2390,"CS":2391,"aug":2392,"hag":2393,"jac":2394,"ls":2395,"mart":2396,"morph":2397,"zy":2398,"inct":2399,"unsc":2400,"real":2401,"strat":2402,"oms":2403,"ionally":2404,"ocele":2405,"close":2406,"dered":2407,"etermin":2408,"guard":2409,"solid":2410,"Se":2411,"ause":2412,"cing":2413,"how":2414,"wil":2415,"xanth":2416,"icol":2417,"unco":2418,"think":2419,"lob":2420,"plate":2421,"ylic":2422,"ahs":2423,"straight":2424,"clean":2425,"bad":2426,"civ":2427,"eno":2428,"lec":2429,"etta":2430,"uran":2431,"opy":2432,"ends":2433,"claim":2434,"tedly":2435,"paras":2436,"rict":2437,"salt":2438,"ocyte":2439,"phyt":2440,"mouthed":2441,"Te":2442,"We":2443,"aed":2444,"gut":2445,"hell":2446,"rand":2447,"sco":2448,"wer":2449,"una":2450,"ilit":2451,"they":2452,"ople":2453,"imeter":2454,"nonf":2455,"quarter":2456,"aste":2457,"sever":2458,"block":2459,"oster":2460,"mental":2461,"gloss":2462,"found":2463,"gray":2464,"pract":2465,"Cam":2466,"Pol":2467,"Post":2468,"cart":2469,"dict":2470,"han":2471,"hier":2472,"most":2473,"ues":2474,"vari":2475,"eted":2476,"thir":2477,"adi":2478,"sharp":2479,"const":2480,"extr":2481,"ishment":2482,"hyster":2483,"techn":2484,"bert":2485,"evol":2486,"meas":2487,"ornith":2488,"branch":2489,"cub":2490,"lum":2491,"nob":2492,"oi":2493,"pect":2494,"sab":2495,"eries":2496,"iles":2497,"peric":2498,"nonpro":2499,"subl":2500,"sport":2501,"scal":2502,"cyt":2503,"uster":2504,"carn":2505,"ove":2506,"string":2507,"works":2508,"built":2509,"CA":2510,"My":2511,"dress":2512,"hall":2513,"los":2514,"mix":2515,"tow":2516,"uper":2517,"orship":2518,"omatic":2519,"ionary":2520,"acon":2521,"amo":2522,"amed":2523,"adv":2524,"qual":2525,"ested":2526,"flav":2527,"grav":2528,"brain":2529,"Sc":2530,"fum":2531,"iri":2532,"tele":2533,"zon":2534,"rail":2535,"ulus":2536,"thunder":2537,"ented":2538,"amic":2539,"ocar":2540,"epig":2541,"aves":2542,"lings":2543,"ichthy":2544,"posed":2545,"ittle":2546,"sider":2547,"escence":2548,"Bur":2549,"Er":2550,"TS":2551,"dod":2552,"pes":2553,"will":2554,"xyl":2555,"aler":2556,"alness":2557,"itz":2558,"eleg":2559,"chap":2560,"using":2561,"emor":2562,"ouse":2563,"iger":2564,"love":2565,"epis":2566,"aean":2567,"object":2568,"avy":2569,"liqu":2570,"brush":2571,"skin":2572,"myel":2573,"backed":2574,"lined":2575,"prim":2576,"cript":2577,"Ab":2578,"bem":2579,"hes":2580,"iidae":2581,"muc":2582,"uph":2583,"esthes":2584,"ica":2585,"oring":2586,"illo":2587,"oles":2588,"termin":2589,"epic":2590,"idean":2591,"berries":2592,"ographically":2593,"otype":2594,"Del":2595,"Hol":2596,"winter":2597,"intr":2598,"reed":2599,"stud":2600,"idia":2601,"idian":2602,"oted":2603,"iving":2604,"izers":2605,"odes":2606,"pered":2607,"akes":2608,"bles":2609,"life":2610,"Bel":2611,"Em":2612,"Ser":2613,"bis":2614,"graph":2615,"hi":2616,"hang":2617,"ien":2618,"junct":2619,"may":2620,"pier":2621,"arily":2622,"unfor":2623,"stop":2624,"amar":2625,"isted":2626,"aging":2627,"agger":2628,"coal":2629,"overn":2630,"dew":2631,"piece":2632,"magnet":2633,"Cl":2634,"Ma":2635,"PS":2636,"fan":2637,"gard":2638,"jar":2639,"luc":2640,"nin":2641,"sail":2642,"tut":2643,"wire":2644,"year":2645,"alia":2646,"isk":2647,"itious":2648,"pref":2649,"death":2650,"care":2651,"breath":2652,"omatous":2653,"embry":2654,"immun":2655,"tuber":2656,"iloqu":2657,"Mo":2658,"bir":2659,"dism":2660,"jour":2661,"nes":2662,"tan":2663,"ware":2664,"ices":2665,"ingu":2666,"roman":2667,"strong":2668,"racy":2669,"phant":2670,"ried":2671,"apper":2672,"iped":2673,"cool":2674,"iality":2675,"enesses":2676,"beat":2677,"colon":2678,"rome":2679,"calc":2680,"possess":2681,"bread":2682,"stead":2683,"melan":2684,"Kar":2685,"Ver":2686,"dar":2687,"kill":2688,"pall":2689,"wan":2690,"enes":2691,"elly":2692,"stain":2693,"empor":2694,"amy":2695,"show":2696,"clin":2697,"ophore":2698,"flor":2699,"harmon":2700,"iasis":2701,"predis":2702,"habit":2703,"Pseud":2704,"bum":2705,"cen":2706,"gin":2707,"jaw":2708,"slow":2709,"ati":2710,"alin":2711,"icism":2712,"roof":2713,"sten":2714,"idly":2715,"ths":2716,"ogy":2717,"ima":2718,"ocal":2719,"appe":2720,"irm":2721,"shell":2722,"cons":2723,"ishes":2724,"aea":2725,"semis":2726,"offic":2727,"brow":2728,"case":2729,"nav":2730,"pun":2731,"rhe":2732,"vig":2733,"wax":2734,"ication":2735,"repro":2736,"idine":2737,"emph":2738,"ifier":2739,"formed":2740,"mean":2741,"ski":2742,"pression":2743,"omorphic":2744,"first":2745,"AR":2746,"Ag":2747,"bob":2748,"batt":2749,"ds":2750,"fro":2751,"fus":2752,"hob":2753,"heli":2754,"iology":2755,"jer":2756,"pist":2757,"west":2758,"xen":2759,"zes":2760,"oria":2761,"unab":2762,"oter":2763,"imon":2764,"odor":2765,"pron":2766,"clam":2767,"bee":2768,"resol":2769,"rope":2770,"even":2771,"bark":2772,"tribut":2773,"author":2774,"valu":2775,"splen":2776,"analy":2777,"gastro":2778,"bibli":2779,"Py":2780,"cept":2781,"dark":2782,"iop":2783,"pep":2784,"itud":2785,"rob":2786,"lept":2787,"raz":2788,"olysis":2789,"phyll":2790,"aman":2791,"amorph":2792,"uted":2793,"agin":2794,"apost":2795,"quar":2796,"overs":2797,"alled":2798,"uge":2799,"come":2800,"tram":2801,"worn":2802,"oken":2803,"ordin":2804,"urous":2805,"Ly":2806,"OS":2807,"cann":2808,"lon":2809,"mob":2810,"nick":2811,"icate":2812,"phag":2813,"trust":2814,"deb":2815,"nee":2816,"wear":2817,"stern":2818,"ognath":2819,"God":2820,"Pet":2821,"bud":2822,"gers":2823,"iel":2824,"pie":2825,"pinn":2826,"rating":2827,"inte":2828,"lee":2829,"oli":2830,"omas":2831,"osc":2832,"ument":2833,"rial":2834,"impro":2835,"sure":2836,"clav":2837,"articul":2838,"metal":2839,"collect":2840,"fool":2841,"ships":2842,"general":2843,"belly":2844,"Phil":2845,"Cer":2846,"Fran":2847,"bs":2848,"fash":2849,"gate":2850,"lact":2851,"mass":2852,"more":2853,"norm":2854,"ook":2855,"ruct":2856,"tide":2857,"onite":2858,"esque":2859,"orrh":2860,"usive":2861,"thin":2862,"thing":2863,"nonper":2864,"consc":2865,"ellate":2866,"plain":2867,"arded":2868,"owl":2869,"print":2870,"forest":2871,"atorial":2872,"too":2873,"minist":2874,"posit":2875,"ambul":2876,"omancy":2877,"arsen":2878,"communic":2879,"clear":2880,"oplasty":2881,"penny":2882,"At":2883,"hos":2884,"hay":2885,"made":2886,"ruc":2887,"vine":2888,"wild":2889,"unted":2890,"lean":2891,"iler":2892,"eting":2893,"emen":2894,"otom":2895,"ogene":2896,"imer":2897,"spur":2898,"exec":2899,"aken":2900,"bler":2901,"taut":2902,"carbon":2903,"dermat":2904,"fox":2905,"cert":2906,"continu":2907,"large":2908,"cosm":2909,"tongue":2910,"Bal":2911,"Gal":2912,"bly":2913,"bath":2914,"honey":2915,"mate":2916,"ois":2917,"infl":2918,"athe":2919,"isable":2920,"still":2921,"child":2922,"ethyl":2923,"eca":2924,"opathy":2925,"illary":2926,"obe":2927,"prest":2928,"bour":2929,"partic":2930,"corpor":2931,"haz":2932,"iently":2933,"commun":2934,"otropic":2935,"gentle":2936,"crow":2937,"mi":2938,"pest":2939,"vib":2940,"wol":2941,"esp":2942,"aton":2943,"arin":2944,"arium":2945,"ori":2946,"elo":2947,"idity":2948,"acanth":2949,"osper":2950,"ams":2951,"otox":2952,"igu":2953,"ires":2954,"eping":2955,"owed":2956,"touch":2957,"away":2958,"resc":2959,"sour":2960,"egg":2961,"evil":2962,"haired":2963,"type":2964,"axis":2965,"butter":2966,"patri":2967,"addle":2968,"hepat":2969,"Can":2970,"Nor":2971,"Sar":2972,"bog":2973,"bright":2974,"dust":2975,"iary":2976,"nose":2977,"rush":2978,"uz":2979,"rever":2980,"asper":2981,"agram":2982,"seven":2983,"ostomy":2984,"uret":2985,"haem":2986,"main":2987,"maid":2988,"eared":2989,"itten":2990,"elessness":2991,"electr":2992,"Gar":2993,"La":2994,"Ter":2995,"dich":2996,"gul":2997,"lag":2998,"nod":2999,"eder":3000,"rear":3001,"esses":3002,"adic":3003,"riv":3004,"loving":3005,"spic":3006,"iana":3007,"pread":3008,"scap":3009,"parad":3010,"resist":3011,"cold":3012,"oids":3013,"anna":3014,"cere":3015,"algia":3016,"Wil":3017,"aper":3018,"gia":3019,"hat":3020,"hun":3021,"mant":3022,"rul":3023,"rational":3024,"uf":3025,"vict":3026,"oner":3027,"alizing":3028,"iso":3029,"aric":3030,"lead":3031,"lys":3032,"uli":3033,"umen":3034,"antit":3035,"coff":3036,"oblig":3037,"allel":3038,"trit":3039,"scut":3040,"screw":3041,"manship":3042,"rys":3043,"weight":3044,"weather":3045,"carb":3046,"carp":3047,"hero":3048,"brick":3049,"reck":3050,"anced":3051,"rhiz":3052,"covered":3053,"Ac":3054,"CC":3055,"Mic":3056,"five":3057,"fix":3058,"oed":3059,"uther":3060,"wis":3061,"infer":3062,"anch":3063,"atal":3064,"ilia":3065,"rable":3066,"phan":3067,"emot":3068,"ammon":3069,"agan":3070,"epith":3071,"place":3072,"sey":3073,"ologists":3074,"oked":3075,"mother":3076,"mater":3077,"max":3078,"ables":3079,"commod":3080,"Com":3081,"Me":3082,"Mad":3083,"gaz":3084,"lun":3085,"lust":3086,"pad":3087,"sod":3088,"sect":3089,"tang":3090,"wel":3091,"uncont":3092,"usk":3093,"idness":3094,"acious":3095,"urer":3096,"enty":3097,"emi":3098,"amen":3099,"amet":3100,"shad":3101,"uded":3102,"cles":3103,"ophile":3104,"intro":3105,"poet":3106,"romy":3107,"ethn":3108,"transl":3109,"mindedness":3110,"ophyte":3111,"tongued":3112,"AM":3113,"Ke":3114,"Sy":3115,"buff":3116,"eor":3117,"eem":3118,"greg":3119,"kes":3120,"kins":3121,"mith":3122,"ns":3123,"nest":3124,"pir":3125,"pain":3126,"pitch":3127,"inex":3128,"anter":3129,"atri":3130,"alization":3131,"uner":3132,"unen":3133,"unce":3134,"itism":3135,"chel":3136,"olate":3137,"idin":3138,"thread":3139,"oting":3140,"opin":3141,"perit":3142,"apan":3143,"sug":3144,"proct":3145,"iev":3146,"metall":3147,"struc":3148,"rophic":3149,"legged":3150,"photo":3151,"holder":3152,"profess":3153,"front":3154,"Hel":3155,"iency":3156,"ough":3157,"pas":3158,"pow":3159,"pend":3160,"upl":3161,"witch":3162,"itude":3163,"rogen":3164,"chas":3165,"lyn":3166,"asy":3167,"urb":3168,"about":3169,"ember":3170,"anda":3171,"undec":3172,"princ":3173,"neur":3174,"ubb":3175,"worker":3176,"fuls":3177,"semin":3178,"ocks":3179,"ularly":3180,"merc":3181,"archy":3182,"body":3183,"sleep":3184,"Dor":3185,"May":3186,"Ul":3187,"bind":3188,"cogn":3189,"gab":3190,"unpre":3191,"sto":3192,"ila":3193,"ulum":3194,"iae":3195,"sher":3196,"uce":3197,"trap":3198,"icken":3199,"intel":3200,"where":3201,"ogeny":3202,"ymph":3203,"crack":3204,"urable":3205,"philosoph":3206,"mission":3207,"because":3208,"As":3209,"cred":3210,"eat":3211,"hack":3212,"ning":3213,"nucle":3214,"uate":3215,"inian":3216,"stown":3217,"stiff":3218,"pher":3219,"abilities":3220,"rier":3221,"ived":3222,"nondis":3223,"apod":3224,"antid":3225,"ips":3226,"epit":3227,"iller":3228,"trad":3229,"weak":3230,"direct":3231,"Char":3232,"steel":3233,"sheep":3234,"secret":3235,"nosed":3236,"view":3237,"Bro":3238,"DS":3239,"aust":3240,"camp":3241,"iating":3242,"lut":3243,"late":3244,"tender":3245,"alth":3246,"ision":3247,"isth":3248,"itarian":3249,"lement":3250,"illy":3251,"phren":3252,"aba":3253,"abor":3254,"entness":3255,"aming":3256,"rie":3257,"odynam":3258,"nonad":3259,"appl":3260,"quet":3261,"icality":3262,"consum":3263,"epist":3264,"isher":3265,"aving":3266,"ugg":3267,"rone":3268,"brand":3269,"mechan":3270,"rench":3271,"ometrical":3272,"square":3273,"great":3274,"electric":3275,"keeper":3276,"aun":3277,"cyl":3278,"dal":3279,"dot":3280,"fine":3281,"list":3282,"lick":3283,"nid":3284,"pink":3285,"punct":3286,"publ":3287,"wro":3288,"women":3289,"inch":3290,"inus":3291,"oni":3292,"alous":3293,"armed":3294,"sty":3295,"state":3296,"stream":3297,"opar":3298,"ocracy":3299,"quiet":3300,"shire":3301,"plag":3302,"fores":3303,"travel":3304,"ache":3305,"ynia":3306,"outh":3307,"rhin":3308,"schiz":3309,"second":3310,"occup":3311,"olytic":3312,"sacchar":3313,"court":3314,"esthesia":3315,"intellect":3316,"Poly":3317,"Sk":3318,"Val":3319,"aen":3320,"cog":3321,"cass":3322,"dynam":3323,"fel":3324,"hept":3325,"ii":3326,"kal":3327,"lass":3328,"nig":3329,"sag":3330,"vy":3331,"veg":3332,"wal":3333,"atom":3334,"ories":3335,"itical":3336,"stal":3337,"lying":3338,"urban":3339,"opro":3340,"very":3341,"ipit":3342,"coat":3343,"heat":3344,"tris":3345,"ialist":3346,"ostom":3347,"money":3348,"acher":3349,"wound":3350,"pole":3351,"gery":3352,"brained":3353,"brachy":3354,"twin":3355,"Anglo":3356,"ochem":3357,"ettes":3358,"build":3359,"orrhea":3360,"Cap":3361,"Don":3362,"Gre":3363,"Trans":3364,"aid":3365,"bene":3366,"cic":3367,"fier":3368,"mum":3369,"mig":3370,"ske":3371,"tent":3372,"talk":3373,"uco":3374,"xer":3375,"itted":3376,"eland":3377,"olin":3378,"phor":3379,"omot":3380,"acer":3381,"thorn":3382,"emper":3383,"osa":3384,"ribut":3385,"tering":3386,"imit":3387,"promis":3388,"epid":3389,"aka":3390,"rying":3391,"acks":3392,"ither":3393,"ureter":3394,"eve":3395,"haust":3396,"rates":3397,"here":3398,"feather":3399,"ondyl":3400,"inner":3401,"going":3402,"eryth":3403,"melod":3404,"acetyl":3405,"church":3406,"Pseudo":3407,"Dar":3408,"auc":3409,"gym":3410,"hors":3411,"lingly":3412,"pu":3413,"pill":3414,"slo":3415,"wart":3416,"issu":3417,"ariness":3418,"raft":3419,"empl":3420,"loud":3421,"exter":3422,"heavy":3423,"ialize":3424,"rons":3425,"azz":3426,"portion":3427,"ohn":3428,"cloud":3429,"motor":3430,"heartedness":3431,"dipl":3432,"US":3433,"din":3434,"lich":3435,"mn":3436,"mah":3437,"rene":3438,"tall":3439,"your":3440,"christ":3441,"chromat":3442,"ilian":3443,"ulose":3444,"ogly":3445,"ogloss":3446,"econ":3447,"odd":3448,"alling":3449,"scur":3450,"ialism":3451,"indiv":3452,"indust":3453,"boot":3454,"assoc":3455,"semid":3456,"metaph":3457,"whit":3458,"polar":3459,"myst":3460,"steep":3461,"summer":3462,"witted":3463,"billed":3464,"iddle":3465,"German":3466,"CO":3467,"Mat":3468,"dream":3469,"flex":3470,"hill":3471,"nat":3472,"sburg":3473,"uan":3474,"wid":3475,"invol":3476,"alph":3477,"alco":3478,"itory":3479,"roc":3480,"storm":3481,"rapt":3482,"oline":3483,"acro":3484,"thi":3485,"ocol":3486,"conce":3487,"spread":3488,"atedness":3489,"ached":3490,"hound":3491,"south":3492,"grad":3493,"typh":3494,"door":3495,"ancing":3496,"omaniac":3497,"timber":3498,"ocyt":3499,"hammer":3500,"passion":3501,"invest":3502,"folk":3503,"pipe":3504,"fruit":3505,"AP":3506,"Cha":3507,"Ir":3508,"Mus":3509,"Meg":3510,"NE":3511,"Plat":3512,"Rh":3513,"Sol":3514,"Tar":3515,"ais":3516,"bay":3517,"bass":3518,"dactyl":3519,"frost":3520,"gol":3521,"gib":3522,"hir":3523,"lent":3524,"ounc":3525,"sit":3526,"tend":3527,"vell":3528,"wine":3529,"yan":3530,"incom":3531,"orbit":3532,"unv":3533,"unse":3534,"uninter":3535,"stim":3536,"chang":3537,"osm":3538,"amide":3539,"opp":3540,"imal":3541,"ocard":3542,"ationally":3543,"appar":3544,"ifiable":3545,"coen":3546,"asting":3547,"ction":3548,"worthy":3549,"geal":3550,"twel":3551,"medic":3552,"crystall":3553,"otherapy":3554,"milit":3555,"devil":3556,"lady":3557,"megal":3558,"finger":3559,"AT":3560,"Jac":3561,"Sab":3562,"grown":3563,"hid":3564,"have":3565,"ll":3566,"mers":3567,"power":3568,"iny":3569,"atable":3570,"eds":3571,"stitch":3572,"amor":3573,"istry":3574,"impl":3575,"imental":3576,"igraph":3577,"iah":3578,"irid":3579,"iful":3580,"trick":3581,"truth":3582,"aying":3583,"neut":3584,"aks":3585,"aching":3586,"rice":3587,"bral":3588,"heads":3589,"aneous":3590,"ruff":3591,"penet":3592,"oscopic":3593,"cardi":3594,"toxic":3595,"bronch":3596,"Ash":3597,"Di":3598,"Lor":3599,"Prot":3600,"Sam":3601,"The":3602,"cid":3603,"crop":3604,"dum":3605,"fellow":3606,"host":3607,"hatch":3608,"kat":3609,"pus":3610,"tz":3611,"troph":3612,"uously":3613,"anism":3614,"alistic":3615,"unob":3616,"unfl":3617,"rax":3618,"omon":3619,"oment":3620,"throw":3621,"amyl":3622,"ago":3623,"agen":3624,"agraph":3625,"igerous":3626,"antal":3627,"irk":3628,"illi":3629,"ials":3630,"ialness":3631,"atedly":3632,"subject":3633,"upt":3634,"toid":3635,"activ":3636,"colour":3637,"pointed":3638,"ulture":3639,"typ":3640,"inking":3641,"cheek":3642,"enced":3643,"smith":3644,"access":3645,"tempor":3646,"milk":3647,"bodied":3648,"apeut":3649,"pharmac":3650,"Ham":3651,"Is":3652,"bast":3653,"ees":3654,"eight":3655,"jam":3656,"kick":3657,"nur":3658,"nap":3659,"plow":3660,"tens":3661,"uousness":3662,"who":3663,"inite":3664,"alleg":3665,"icle":3666,"univers":3667,"stip":3668,"staff":3669,"ulae":3670,"tha":3671,"urus":3672,"uts":3673,"umpt":3674,"ivorous":3675,"igmat":3676,"coel":3677,"exper":3678,"iance":3679,"hyal":3680,"heaven":3681,"club":3682,"indul":3683,"angular":3684,"track":3685,"taw":3686,"oking":3687,"ahed":3688,"meteor":3689,"whis":3690,"relig":3691,"ancies":3692,"button":3693,"priest":3694,"warm":3695,"houses":3696,"ength":3697,"respect":3698,"crowned":3699,"Luc":3700,"Pe":3701,"Tri":3702,"bip":3703,"bers":3704,"buc":3705,"bomb":3706,"eal":3707,"hav":3708,"north":3709,"sib":3710,"tun":3711,"aters":3712,"ense":3713,"enne":3714,"orig":3715,"orient":3716,"unbe":3717,"revol":3718,"start":3719,"ocean":3720,"odi":3721,"shel":3722,"ellar":3723,"scul":3724,"ophen":3725,"bleness":3726,"ostic":3727,"common":3728,"indig":3729,"angled":3730,"take":3731,"brut":3732,"cope":3733,"ritis":3734,"backs":3735,"infra":3736,"Arch":3737,"cutting":3738,"phenyl":3739,"galvan":3740,"labor":3741,"orrha":3742,"satis":3743,"platy":3744,"ifferent":3745,"Bon":3746,"Gra":3747,"Men":3748,"Ty":3749,"bun":3750,"cens":3751,"cement":3752,"dre":3753,"dur":3754,"ioid":3755,"nch":3756,"runn":3757,"anite":3758,"alog":3759,"arbit":3760,"inger":3761,"elph":3762,"elig":3763,"chro":3764,"ilize":3765,"acco":3766,"ased":3767,"ota":3768,"ume":3769,"agia":3770,"ocon":3771,"sugar":3772,"estim":3773,"coated":3774,"exist":3775,"plen":3776,"true":3777,"prick":3778,"formal":3779,"okay":3780,"moun":3781,"semim":3782,"make":3783,"myx":3784,"calcul":3785,"ifications":3786,"breast":3787,"stein":3788,"compens":3789,"oplastic":3790,"toothed":3791,"Ex":3792,"Far":3793,"Gall":3794,"Ha":3795,"Mont":3796,"crum":3797,"crest":3798,"die":3799,"dors":3800,"haw":3801,"jet":3802,"num":3803,"ound":3804,"oidea":3805,"pict":3806,"tort":3807,"vey":3808,"erc":3809,"onal":3810,"atis":3811,"atta":3812,"enite":3813,"ician":3814,"orian":3815,"eline":3816,"really":3817,"chair":3818,"oming":3819,"idic":3820,"osyn":3821,"oglo":3822,"ogast":3823,"immer":3824,"quint":3825,"suck":3826,"elli":3827,"plast":3828,"compan":3829,"indis":3830,"intern":3831,"correct":3832,"gled":3833,"gluc":3834,"methyl":3835,"roma":3836,"ultur":3837,"maj":3838,"oxal":3839,"triple":3840,"fee":3841,"Ann":3842,"aphyl":3843,"steam":3844,"substant":3845,"Ap":3846,"RS":3847,"bish":3848,"bold":3849,"cust":3850,"dow":3851,"gi":3852,"gob":3853,"mism":3854,"nan":3855,"plo":3856,"rator":3857,"tack":3858,"wet":3859,"wag":3860,"aty":3861,"atical":3862,"icing":3863,"ello":3864,"chant":3865,"rah":3866,"opo":3867,"opia":3868,"optic":3869,"optim":3870,"vern":3871,"iflor":3872,"spot":3873,"spoken":3874,"illion":3875,"trum":3876,"complex":3877,"ront":3878,"mov":3879,"gee":3880,"metric":3881,"gue":3882,"copy":3883,"feud":3884,"count":3885,"ails":3886,"extens":3887,"iculate":3888,"atured":3889,"flowered":3890,"puls":3891,"spermat":3892,"bearer":3893,"olatry":3894,"fashion":3895,"Che":3896,"For":3897,"duck":3898,"drum":3899,"eon":3900,"fy":3901,"fest":3902,"link":3903,"liter":3904,"mine":3905,"mock":3906,"oen":3907,"sque":3908,"somn":3909,"uation":3910,"vapor":3911,"era":3912,"inher":3913,"arab":3914,"elin":3915,"reim":3916,"olo":3917,"absor":3918,"noncom":3919,"sham":3920,"spac":3921,"prote":3922,"plas":3923,"never":3924,"athered":3925,"trache":3926,"awa":3927,"rann":3928,"active":3929,"semif":3930,"twenty":3931,"plement":3932,"inning":3933,"ridden":3934,"ready":3935,"effect":3936,"append":3937,"respons":3938,"perfect":3939,"Aust":3940,"Jud":3941,"Med":3942,"Mil":3943,"Mag":3944,"Pel":3945,"Phy":3946,"cros":3947,"canc":3948,"dul":3949,"determin":3950,"girl":3951,"jum":3952,"lily":3953,"pachy":3954,"sig":3955,"tus":3956,"ued":3957,"inize":3958,"oning":3959,"onism":3960,"edged":3961,"orh":3962,"ingen":3963,"itim":3964,"reass":3965,"stor":3966,"through":3967,"ador":3968,"opic":3969,"agglut":3970,"ococc":3971,"odic":3972,"iring":3973,"irrit":3974,"shut":3975,"lov":3976,"ipe":3977,"cob":3978,"express":3979,"train":3980,"web":3981,"weigh":3982,"moid":3983,"hour":3984,"colum":3985,"people":3986,"letter":3987,"curs":3988,"woods":3989,"borne":3990,"iction":3991,"otten":3992,"hypnot":3993,"transp":3994,"sympath":3995,"temper":3996,"ocratic":3997,"ranchiate":3998,"Ben":3999,"Cle":4000,"Dan":4001,"Fer":4002,"Sil":4003,"Ur":4004,"dand":4005,"dend":4006,"dens":4007,"fit":4008,"gain":4009,"hus":4010,"ique":4011,"jew":4012,"lux":4013,"laryng":4014,"oing":4015,"oot":4016,"pand":4017,"pine":4018,"pock":4019,"push":4020,"sob":4021,"sangu":4022,"tell":4023,"urop":4024,"xes":4025,"atrix":4026,"orac":4027,"unth":4028,"chis":4029,"chim":4030,"phle":4031,"ionic":4032,"ulf":4033,"eming":4034,"ematic":4035,"amel":4036,"oping":4037,"antin":4038,"establ":4039,"spong":4040,"proto":4041,"ills":4042,"tru":4043,"scor":4044,"ylike":4045,"bless":4046,"bury":4047,"brach":4048,"righ":4049,"ochrom":4050,"turb":4051,"broken":4052,"demi":4053,"itions":4054,"joint":4055,"thorac":4056,"smoke":4057,"golden":4058,"narrow":4059,"ghost":4060,"wonder":4061,"individ":4062,"Call":4063,"Der":4064,"Rob":4065,"cies":4066,"crit":4067,"cosis":4068,"dos":4069,"dock":4070,"fog":4071,"fant":4072,"foss":4073,"funct":4074,"jig":4075,"lamp":4076,"psy":4077,"say":4078,"wrong":4079,"unpar":4080,"unsl":4081,"elite":4082,"refer":4083,"stret":4084,"rass":4085,"idol":4086,"abdom":4087,"embar":4088,"advent":4089,"utch":4090,"rift":4091,"imo":4092,"apprec":4093,"proph":4094,"forg":4095,"tee":4096,"teen":4097,"toad":4098,"aws":4099,"gling":4100,"glad":4101,"eville":4102,"barbar":4103,"marsh":4104,"headedness":4105,"aft":4106,"straw":4107,"equip":4108,"compass":4109,"bolt":4110,"respond":4111,"physi":4112,"ponder":4113,"albumin":4114,"tubercul":4115,"veget":4116,"Bas":4117,"Jer":4118,"Met":4119,"Mah":4120,"bep":4121,"eel":4122,"fif":4123,"frog":4124,"fasc":4125,"ji":4126,"joc":4127,"lod":4128,"lace":4129,"pell":4130,"pore":4131,"pull":4132,"syl":4133,"tie":4134,"wre":4135,"inth":4136,"anap":4137,"alle":4138,"isa":4139,"orb":4140,"inging":4141,"unge":4142,"reb":4143,"requ":4144,"represent":4145,"learn":4146,"chil":4147,"ilized":4148,"ione":4149,"ulative":4150,"entially":4151,"amus":4152,"river":4153,"tery":4154,"odactyl":4155,"load":4156,"cox":4157,"space":4158,"seism":4159,"ectomies":4160,"blu":4161,"ithec":4162,"illet":4163,"tonic":4164,"kerat":4165,"ika":4166,"snake":4167,"posing":4168,"etics":4169,"desp":4170,"goose":4171,"affect":4172,"content":4173,"priv":4174,"depend":4175,"sensu":4176,"speed":4177,"sanct":4178,"ophthalm":4179,"Bor":4180,"Cass":4181,"Ital":4182,"MP":4183,"Min":4184,"Mart":4185,"New":4186,"Vol":4187,"cram":4188,"cru":4189,"fug":4190,"iphon":4191,"kel":4192,"kers":4193,"later":4194,"mitt":4195,"pto":4196,"pont":4197,"rend":4198,"tat":4199,"yst":4200,"ership":4201,"atus":4202,"arct":4203,"orate":4204,"unar":4205,"union":4206,"rept":4207,"rage":4208,"otes":4209,"otome":4210,"uting":4211,"opl":4212,"imb":4213,"aga":4214,"apple":4215,"spotted":4216,"hyde":4217,"pling":4218,"scy":4219,"pren":4220,"ayed":4221,"beam":4222,"tour":4223,"hoof":4224,"polys":4225,"diam":4226,"myr":4227,"trip":4228,"brass":4229,"anner":4230,"anned":4231,"feed":4232,"feas":4233,"ashing":4234,"strate":4235,"eption":4236,"doub":4237,"ighter":4238,"issa":4239,"uality":4240,"working":4241,"character":4242,"paint":4243,"squam":4244,"purple":4245,"ocyan":4246,"embran":4247,"iliar":4248,"modern":4249,"thorough":4250,"product":4251,"wolf":4252,"Amer":4253,"DC":4254,"Des":4255,"SS":4256,"Sher":4257,"bif":4258,"dat":4259,"fell":4260,"fung":4261,"fresh":4262,"gur":4263,"gos":4264,"hawk":4265,"iably":4266,"lub":4267,"nem":4268,"naph":4269,"oin":4270,"panc":4271,"rism":4272,"uated":4273,"onize":4274,"anil":4275,"engra":4276,"energ":4277,"alo":4278,"icide":4279,"unpl":4280,"stir":4281,"ulatory":4282,"terror":4283,"nonde":4284,"aped":4285,"prob":4286,"expl":4287,"heel":4288,"scope":4289,"dehyde":4290,"ectom":4291,"aya":4292,"ava":4293,"athed":4294,"aches":4295,"semit":4296,"sole":4297,"ureth":4298,"foul":4299,"theor":4300,"brook":4301,"itional":4302,"lines":4303,"ometrically":4304,"laud":4305,"forming":4306,"reflect":4307,"elessly":4308,"bitter":4309,"quinqu":4310,"oxygen":4311,"bottle":4312,"pearl":4313,"suggest":4314,"Bab":4315,"DI":4316,"EC":4317,"Jan":4318,"Lam":4319,"MA":4320,"ains":4321,"bub":4322,"dan":4323,"eating":4324,"fen":4325,"fun":4326,"gic":4327,"gust":4328,"kary":4329,"laden":4330,"mim":4331,"much":4332,"oke":4333,"sist":4334,"tag":4335,"yrin":4336,"inism":4337,"inspir":4338,"atically":4339,"arious":4340,"ungu":4341,"unrec":4342,"sters":4343,"stuff":4344,"leather":4345,"chop":4346,"chain":4347,"idan":4348,"acad":4349,"ulator":4350,"americ":4351,"oton":4352,"otomies":4353,"opex":4354,"verte":4355,"quant":4356,"ipter":4357,"spoon":4358,"process":4359,"ishable":4360,"illust":4361,"scot":4362,"clus":4363,"ophon":4364,"cym":4365,"iere":4366,"syst":4367,"coron":4368,"mata":4369,"haemat":4370,"caly":4371,"catch":4372,"capt":4373,"capital":4374,"cake":4375,"commend":4376,"multi":4377,"arianism":4378,"galact":4379,"expect":4380,"sorrow":4381,"rubber":4382,"lemn":4383,"drawn":4384,"necked":4385,"young":4386,"producing":4387,"twelve":4388,"Bol":4389,"Cur":4390,"Ho":4391,"Il":4392,"Kal":4393,"Roman":4394,"Tam":4395,"Wal":4396,"augh":4397,"bree":4398,"crust":4399,"dian":4400,"eur":4401,"gad":4402,"gment":4403,"had":4404,"job":4405,"kar":4406,"mug":4407,"muck":4408,"nail":4409,"othe":4410,"russ":4411,"trot":4412,"vil":4413,"wrap":4414,"inet":4415,"inating":4416,"influ":4417,"arial":4418,"itous":4419,"strip":4420,"level":4421,"ilar":4422,"acre":4423,"acle":4424,"ulates":4425,"asal":4426,"entom":4427,"osed":4428,"uma":4429,"opsych":4430,"ims":4431,"ocry":4432,"shar":4433,"unde":4434,"astro":4435,"ows":4436,"blaz":4437,"tool":4438,"corrupt":4439,"match":4440,"redis":4441,"method":4442,"eval":4443,"politic":4444,"tons":4445,"ights":4446,"barrel":4447,"tym":4448,"maz":4449,"copper":4450,"fertil":4451,"fever":4452,"unci":4453,"swift":4454,"ours":4455,"vision":4456,"transc":4457,"crim":4458,"sided":4459,"spirited":4460,"otyp":4461,"ophilous":4462,"oblastic":4463,"spher":4464,"orrhaphy":4465,"Cher":4466,"Ev":4467,"Mes":4468,"Mid":4469,"Mill":4470,"Red":4471,"bent":4472,"ez":4473,"got":4474,"gill":4475,"govern":4476,"oat":4477,"pian":4478,"sad":4479,"sir":4480,"smen":4481,"tid":4482,"vio":4483,"zym":4484,"instruct":4485,"eses":4486,"altern":4487,"edge":4488,"arith":4489,"stup":4490,"lev":4491,"left":4492,"change":4493,"eti":4494,"ulter":4495,"thym":4496,"odend":4497,"antist":4498,"antness":4499,"antine":4500,"ipper":4501,"conserv":4502,"epi":4503,"undef":4504,"uding":4505,"near":4506,"forth":4507,"yls":4508,"compar":4509,"bean":4510,"icker":4511,"matical":4512,"insur":4513,"poll":4514,"marked":4515,"theat":4516,"ashed":4517,"blephar":4518,"All":4519,"anked":4520,"bald":4521,"patron":4522,"command":4523,"ettle":4524,"agnet":4525,"silic":4526,"hydrogen":4527,"Proto":4528,"expans":4529,"duod":4530,"condens":4531,"oderm":4532,"employ":4533,"AA":4534,"Bern":4535,"Cat":4536,"ES":4537,"Glen":4538,"Ker":4539,"Neg":4540,"ault":4541,"bim":4542,"bore":4543,"bond":4544,"cine":4545,"fi":4546,"fid":4547,"fill":4548,"father":4549,"kid":4550,"mund":4551,"rath":4552,"sne":4553,"saf":4554,"sphen":4555,"sarc":4556,"inqu":4557,"inity":4558,"ende":4559,"unman":4560,"uncl":4561,"unbl":4562,"unrel":4563,"itated":4564,"rout":4565,"stag":4566,"stalk":4567,"leuk":4568,"chief":4569,"etto":4570,"phem":4571,"omel":4572,"omeness":4573,"idence":4574,"ules":4575,"embro":4576,"amper":4577,"ampl":4578,"import":4579,"suas":4580,"shed":4581,"esting":4582,"coad":4583,"preter":4584,"prepar":4585,"ibilities":4586,"plane":4587,"hee":4588,"uple":4589,"acea":4590,"matically":4591,"glac":4592,"glish":4593,"acting":4594,"ropod":4595,"pollin":4596,"poison":4597,"haul":4598,"eyes":4599,"lette":4600,"german":4601,"trim":4602,"ashes":4603,"ochron":4604,"caus":4605,"lastic":4606,"alkal":4607,"fract":4608,"quadri":4609,"ophorous":4610,"otropism":4611,"voiced":4612,"propag":4613,"ospore":4614,"bridge":4615,"alcohol":4616,"Ak":4617,"Cas":4618,"Cyn":4619,"Go":4620,"Jo":4621,"MI":4622,"bio":4623,"cis":4624,"fu":4625,"fut":4626,"fist":4627,"gir":4628,"has":4629,"hort":4630,"laz":4631,"mess":4632,"nine":4633,"nect":4634,"pis":4635,"sword":4636,"tart":4637,"trem":4638,"vap":4639,"wester":4640,"yar":4641,"zinc":4642,"invent":4643,"onn":4644,"ania":4645,"ede":4646,"order":4647,"unrep":4648,"roch":4649,"lepid":4650,"chir":4651,"rast":4652,"acia":4653,"acted":4654,"aciousness":4655,"abi":4656,"embra":4657,"osome":4658,"peris":4659,"anted":4660,"sud":4661,"loose":4662,"ifol":4663,"cou":4664,"speck":4665,"plur":4666,"obed":4667,"obranch":4668,"observ":4669,"iales":4670,"devel":4671,"foret":4672,"ylene":4673,"ophone":4674,"ugn":4675,"flesh":4676,"parap":4677,"matous":4678,"when":4679,"rative":4680,"meat":4681,"annel":4682,"auth":4683,"swing":4684,"desc":4685,"palat":4686,"knot":4687,"arius":4688,"squir":4689,"belie":4690,"sheet":4691,"otechn":4692,"excit":4693,"bellied":4694,"ophagous":4695,"wrought":4696,"intellectual":4697,"Ara":4698,"Cry":4699,"Lat":4700,"Land":4701,"Lyn":4702,"Ple":4703,"RA":4704,"Sw":4705,"Sel":4706,"Tor":4707,"aec":4708,"ci":4709,"cip":4710,"cach":4711,"cele":4712,"doll":4713,"fret":4714,"fring":4715,"hung":4716,"ij":4717,"iad":4718,"jun":4719,"kish":4720,"sic":4721,"syllab":4722,"tog":4723,"uy":4724,"wife":4725,"ycl":4726,"erer":4727,"alities":4728,"unsub":4729,"chen":4730,"ilation":4731,"ilization":4732,"rade":4733,"phth":4734,"aciously":4735,"asing":4736,"abstra":4737,"ames":4738,"otin":4739,"antif":4740,"quart":4741,"irs":4742,"ellig":4743,"spear":4744,"ersville":4745,"undes":4746,"undel":4747,"prem":4748,"force":4749,"beaut":4750,"parallel":4751,"selen":4752,"ints":4753,"moor":4754,"woven":4755,"ratch":4756,"bare":4757,"ovel":4758,"hered":4759,"azine":4760,"cern":4761,"axon":4762,"autoc":4763,"incre":4764,"recip":4765,"oured":4766,"rolling":4767,"ivenesses":4768,"lands":4769,"divers":4770,"driven":4771,"soci":4772,"flood":4773,"sensit":4774,"question":4775,"Az":4776,"Ale":4777,"Dem":4778,"Heter":4779,"RO":4780,"cted":4781,"caut":4782,"dun":4783,"dit":4784,"gird":4785,"hr":4786,"hul":4787,"iper":4788,"little":4789,"punch":4790,"rar":4791,"rall":4792,"sighted":4793,"tob":4794,"anac":4795,"anne":4796,"enia":4797,"unac":4798,"unqu":4799,"elian":4800,"rey":4801,"chord":4802,"oler":4803,"omes":4804,"aca":4805,"thec":4806,"thank":4807,"thumb":4808,"amal":4809,"ogue":4810,"istle":4811,"imble":4812,"ague":4813,"ifiers":4814,"coag":4815,"spell":4816,"preex":4817,"plot":4818,"seal":4819,"heath":4820,"prison":4821,"tea":4822,"assert":4823,"ensit":4824,"oker":4825,"gler":4826,"woe":4827,"welling":4828,"ratt":4829,"guar":4830,"iki":4831,"central":4832,"pseudos":4833,"panic":4834,"deprec":4835,"silk":4836,"sides":4837,"plication":4838,"rously":4839,"symbol":4840,"boards":4841,"heartedly":4842,"lipped":4843,"conduct":4844,"Neo":4845,"shoul":4846,"ocarpous":4847,"street":4848,"needle":4849,"igenous":4850,"Lev":4851,"Mos":4852,"Ol":4853,"PC":4854,"Slav":4855,"base":4856,"dub":4857,"lies":4858,"lung":4859,"narc":4860,"ply":4861,"pans":4862,"pose":4863,"rion":4864,"sight":4865,"somat":4866,"tas":4867,"vid":4868,"vex":4869,"vass":4870,"vacc":4871,"inos":4872,"icist":4873,"arrow":4874,"arbor":4875,"unit":4876,"unap":4877,"itative":4878,"rash":4879,"olt":4880,"omit":4881,"ulent":4882,"thon":4883,"thous":4884,"aber":4885,"abet":4886,"abber":4887,"absol":4888,"emaker":4889,"amn":4890,"ogyn":4891,"impress":4892,"supr":4893,"loph":4894,"ands":4895,"span":4896,"prefer":4897,"illumin":4898,"trin":4899,"scra":4900,"pror":4901,"clar":4902,"clay":4903,"paraph":4904,"icks":4905,"atorily":4906,"okes":4907,"intellig":4908,"gles":4909,"soap":4910,"grain":4911,"kery":4912,"omycet":4913,"caul":4914,"accept":4915,"transfer":4916,"ernal":4917,"osphere":4918,"special":4919,"contract":4920,"appropri":4921,"phosphor":4922,"osaurus":4923,"favor":4924,"esthetic":4925,"Flor":4926,"Gl":4927,"Gil":4928,"NA":4929,"NS":4930,"Od":4931,"Ot":4932,"Pl":4933,"Rom":4934,"Wood":4935,"duc":4936,"dumb":4937,"hast":4938,"lest":4939,"mell":4940,"must":4941,"mira":4942,"nud":4943,"pav":4944,"soph":4945,"song":4946,"tical":4947,"whole":4948,"erite":4949,"esia":4950,"alve":4951,"isse":4952,"unequ":4953,"elev":4954,"stad":4955,"chuck":4956,"chole":4957,"pharyng":4958,"ionless":4959,"throm":4960,"osal":4961,"amber":4962,"ady":4963,"opal":4964,"verse":4965,"nonsub":4966,"quit":4967,"suit":4968,"ipot":4969,"ples":4970,"tril":4971,"scient":4972,"format":4973,"aki":4974,"indec":4975,"monos":4976,"ween":4977,"intim":4978,"intens":4979,"moist":4980,"ographist":4981,"ographies":4982,"struck":4983,"stricken":4984,"reek":4985,"mening":4986,"accum":4987,"charge":4988,"homoe":4989,"eech":4990,"orthod":4991,"teleg":4992,"jointed":4993,"amphib":4994,"aryngeal":4995,"cotton":4996,"success":4997,"every":4998,"ogamy":4999,"candle":5000,"growing":5001,"cylind":5002,"cheeked":5003,"By":5004,"Green":5005,"RC":5006,"Str":5007,"War":5008,"ao":5009,"bie":5010,"bach":5011,"cren":5012,"cuss":5013,"dac":5014,"fied":5015,"langu":5016,"mec":5017,"null":5018,"oer":5019,"pum":5020,"page":5021,"rally":5022,"sie":5023,"sult":5024,"uel":5025,"wright":5026,"anus":5027,"alised":5028,"icient":5029,"aris":5030,"oration":5031,"orousness":5032,"itish":5033,"itution":5034,"stub":5035,"stomat":5036,"ilate":5037,"ilib":5038,"etting":5039,"acity":5040,"them":5041,"urin":5042,"oso":5043,"rium":5044,"riage":5045,"eccles":5046,"noninter":5047,"noncont":5048,"loqu":5049,"contr":5050,"coach":5051,"spat":5052,"spark":5053,"epip":5054,"undist":5055,"hypost":5056,"udes":5057,"trid":5058,"sci":5059,"ectic":5060,"manif":5061,"aky":5062,"yled":5063,"ophyl":5064,"blenn":5065,"toed":5066,"week":5067,"awed":5068,"glaz":5069,"solemn":5070,"ularity":5071,"grave":5072,"retin":5073,"pleuro":5074,"ateral":5075,"snap":5076,"hemi":5077,"rolled":5078,"roller":5079,"breaking":5080,"rophot":5081,"canon":5082,"erythro":5083,"valid":5084,"formation":5085,"craw":5086,"strap":5087,"version":5088,"crib":5089,"eking":5090,"odontidae":5091,"argent":5092,"Amph":5093,"McC":5094,"alien":5095,"antimon":5096,"rology":5097,"pneumat":5098,"itutional":5099,"episcop":5100,"violet":5101,"Ca":5102,"Japan":5103,"RE":5104,"Sa":5105,"Sph":5106,"deter":5107,"dull":5108,"grim":5109,"jut":5110,"kan":5111,"lop":5112,"lamin":5113,"sold":5114,"sext":5115,"atum":5116,"isol":5117,"uniform":5118,"stam":5119,"chry":5120,"olitic":5121,"ession":5122,"accent":5123,"thm":5124,"thet":5125,"asic":5126,"uration":5127,"ems":5128,"otically":5129,"umat":5130,"ivism":5131,"imin":5132,"aggress":5133,"izen":5134,"odal":5135,"odynia":5136,"convent":5137,"ests":5138,"cook":5139,"exped":5140,"season":5141,"aller":5142,"scand":5143,"owing":5144,"prin":5145,"neigh":5146,"forec":5147,"induc":5148,"anga":5149,"flash":5150,"acker":5151,"tachy":5152,"cyclo":5153,"monarch":5154,"wee":5155,"weary":5156,"ustic":5157,"mole":5158,"rescent":5159,"oneph":5160,"semib":5161,"ocked":5162,"meal":5163,"ouch":5164,"fear":5165,"axes":5166,"eptic":5167,"poster":5168,"inny":5169,"othec":5170,"ouring":5171,"breasted":5172,"ailed":5173,"refract":5174,"omorphism":5175,"concept":5176,"rific":5177,"condition":5178,"fingered":5179,"discip":5180,"opathic":5181,"connect":5182,"iparous":5183,"itudin":5184,"material":5185,"French":5186,"Gold":5187,"Lem":5188,"Lim":5189,"On":5190,"PA":5191,"Po":5192,"Pen":5193,"She":5194,"Tal":5195,"baw":5196,"critic":5197,"from":5198,"frat":5199,"fond":5200,"frag":5201,"gay":5202,"gier":5203,"iability":5204,"mu":5205,"mun":5206,"moss":5207,"moll":5208,"name":5209,"oan":5210,"peg":5211,"ride":5212,"ws":5213,"wy":5214,"alter":5215,"arcom":5216,"unhe":5217,"unass":5218,"iture":5219,"element":5220,"stones":5221,"leen":5222,"chat":5223,"chev":5224,"user":5225,"acin":5226,"abo":5227,"entral":5228,"amental":5229,"advert":5230,"utes":5231,"rival":5232,"ods":5233,"verb":5234,"nondef":5235,"antib":5236,"qua":5237,"ques":5238,"ellip":5239,"prost":5240,"protop":5241,"epend":5242,"asts":5243,"pregn":5244,"udge":5245,"alloc":5246,"scro":5247,"prud":5248,"mans":5249,"angs":5250,"boom":5251,"acked":5252,"system":5253,"rance":5254,"hoe":5255,"meth":5256,"understand":5257,"dering":5258,"ption":5259,"ighting":5260,"minim":5261,"skinned":5262,"microp":5263,"ferment":5264,"strum":5265,"igned":5266,"grind":5267,"recogn":5268,"chee":5269,"pseudoc":5270,"breaker":5271,"ennial":5272,"presby":5273,"synchron":5274,"hollow":5275,"tranqu":5276,"window":5277,"mindedly":5278,"hipp":5279,"gnath":5280,"novel":5281,"siphon":5282,"integr":5283,"Fred":5284,"OC":5285,"Pat":5286,"RI":5287,"Rich":5288,"Russ":5289,"Tet":5290,"Ther":5291,"fiss":5292,"jib":5293,"kne":5294,"kines":5295,"lis":5296,"mop":5297,"mish":5298,"mold":5299,"mile":5300,"pag":5301,"syll":5302,"torn":5303,"uating":5304,"anem":5305,"atives":5306,"orc":5307,"orical":5308,"unter":5309,"unres":5310,"elabor":5311,"chic":5312,"chit":5313,"oled":5314,"acies":5315,"uri":5316,"urate":5317,"abs":5318,"ente":5319,"osin":5320,"adjust":5321,"administ":5322,"utation":5323,"oda":5324,"perip":5325,"igne":5326,"shaw":5327,"ando":5328,"proud":5329,"propri":5330,"preen":5331,"hymen":5332,"endor":5333,"ophob":5334,"upper":5335,"worship":5336,"worms":5337,"cortic":5338,"glor":5339,"gland":5340,"metap":5341,"slender":5342,"romantic":5343,"skir":5344,"brady":5345,"cereb":5346,"featured":5347,"decol":5348,"malle":5349,"cheer":5350,"crab":5351,"depress":5352,"hypoc":5353,"nerv":5354,"distribut":5355,"phenomen":5356,"plicate":5357,"linear":5358,"cruc":5359,"horned":5360,"rayed":5361,"hued":5362,"ribbed":5363,"separ":5364,"roofed":5365,"princip":5366,"Ba":5367,"Cel":5368,"FS":5369,"Pter":5370,"Ram":5371,"West":5372,"aine":5373,"bust":5374,"cous":5375,"eer":5376,"euc":5377,"femin":5378,"frank":5379,"gs":5380,"gil":5381,"gag":5382,"lang":5383,"lamb":5384,"male":5385,"nel":5386,"nia":5387,"oic":5388,"pard":5389,"text":5390,"ui":5391,"uvi":5392,"wink":5393,"wave":5394,"yt":5395,"anian":5396,"enchy":5397,"alise":5398,"alumin":5399,"isan":5400,"icated":5401,"arism":5402,"arach":5403,"oro":5404,"unlo":5405,"unte":5406,"sta":5407,"chand":5408,"olum":5409,"acar":5410,"ulin":5411,"ulations":5412,"asse":5413,"abe":5414,"emaking":5415,"osy":5416,"ados":5417,"adip":5418,"opard":5419,"ocular":5420,"nondec":5421,"qui":5422,"cone":5423,"exual":5424,"prevent":5425,"scab":5426,"sciss":5427,"scrut":5428,"deer":5429,"deuter":5430,"ayan":5431,"fork":5432,"yless":5433,"flame":5434,"tah":5435,"tach":5436,"cyn":5437,"monopol":5438,"peace":5439,"slav":5440,"toned":5441,"ratic":5442,"oxyl":5443,"archit":5444,"anthus":5445,"irect":5446,"ochro":5447,"contin":5448,"laid":5449,"patch":5450,"zeal":5451,"bones":5452,"iousnesses":5453,"fluid":5454,"music":5455,"furn":5456,"film":5457,"tinted":5458,"course":5459,"opoda":5460,"glycer":5461,"news":5462,"gelatin":5463,"climat":5464,"juven":5465,"chamber":5466,"dodec":5467,"oglyph":5468,"Dic":5469,"Ga":5470,"Hen":5471,"IC":5472,"Lin":5473,"Lind":5474,"Myr":5475,"Ro":5476,"bail":5477,"cuck":5478,"crin":5479,"dir":5480,"dib":5481,"east":5482,"file":5483,"gamb":5484,"his":5485,"hut":5486,"hind":5487,"iator":5488,"kol":5489,"lack":5490,"lign":5491,"pated":5492,"pau":5493,"puff":5494,"rell":5495,"sis":5496,"sip":5497,"sow":5498,"satur":5499,"tess":5500,"tann":5501,"uary":5502,"wast":5503,"yes":5504,"yak":5505,"alian":5506,"orism":5507,"itating":5508,"elon":5509,"sting":5510,"usively":5511,"eton":5512,"phra":5513,"essed":5514,"ioning":5515,"ionism":5516,"thus":5517,"ami":5518,"otri":5519,"adapt":5520,"riform":5521,"apa":5522,"appoint":5523,"andro":5524,"astically":5525,"aeus":5526,"scatter":5527,"prere":5528,"ayer":5529,"fored":5530,"forward":5531,"enda":5532,"clock":5533,"blers":5534,"bloss":5535,"compet":5536,"flam":5537,"uba":5538,"tained":5539,"resur":5540,"lower":5541,"metry":5542,"evangel":5543,"poor":5544,"grac":5545,"oven":5546,"oval":5547,"mercur":5548,"abled":5549,"annex":5550,"lingu":5551,"fern":5552,"decom":5553,"hydroph":5554,"gru":5555,"pyram":5556,"porphy":5557,"unts":5558,"palm":5559,"lander":5560,"butt":5561,"smart":5562,"legis":5563,"infect":5564,"depos":5565,"troch":5566,"musk":5567,"moder":5568,"middle":5569,"occip":5570,"books":5571,"treat":5572,"ophilic":5573,"ophora":5574,"iosity":5575,"uddle":5576,"fibro":5577,"pigeon":5578,"flagell":5579,"toler":5580,"false":5581,"Palae":5582,"oplasm":5583,"thirty":5584,"hospit":5585,"particip":5586,"Jacob":5587,"crested":5588,"plough":5589,"Brit":5590,"Cro":5591,"Cast":5592,"Cath":5593,"Do":5594,"Dur":5595,"Lar":5596,"Sin":5597,"Tra":5598,"Tim":5599,"Wel":5600,"bom":5601,"bite":5602,"bapt":5603,"cn":5604,"dou":5605,"eag":5606,"eup":5607,"foc":5608,"fund":5609,"franch":5610,"hit":5611,"hug":5612,"lach":5613,"lance":5614,"mem":5615,"psal":5616,"tig":5617,"tact":5618,"zi":5619,"anas":5620,"atm":5621,"attract":5622,"alc":5623,"alic":5624,"uni":5625,"uned":5626,"unself":5627,"unconf":5628,"itively":5629,"roscop":5630,"oling":5631,"etes":5632,"omous":5633,"omphal":5634,"ulant":5635,"emas":5636,"oto":5637,"umed":5638,"eced":5639,"opisth":5640,"iva":5641,"imes":5642,"imag":5643,"agra":5644,"anting":5645,"irrig":5646,"shri":5647,"program":5648,"examin":5649,"hyps":5650,"ucker":5651,"heim":5652,"obst":5653,"obacter":5654,"akers":5655,"blank":5656,"inda":5657,"bead":5658,"tein":5659,"atories":5660,"toe":5661,"ropic":5662,"ocking":5663,"sooth":5664,"ego":5665,"food":5666,"gradu":5667,"ultural":5668,"tyrann":5669,"mail":5670,"anni":5671,"uncle":5672,"autos":5673,"ochlor":5674,"recur":5675,"deser":5676,"design":5677,"atten":5678,"vener":5679,"caud":5680,"offs":5681,"unny":5682,"multic":5683,"strait":5684,"flux":5685,"concili":5686,"onych":5687,"analog":5688,"orrho":5689,"uscept":5690,"frequ":5691,"olithic":5692,"bottom":5693,"Christian":5694,"likeness":5695,"Whit":5696,"evolution":5697,"navig":5698,"individual":5699,"Hart":5700,"Im":5701,"Je":5702,"John":5703,"Kir":5704,"Lo":5705,"MT":5706,"Mas":5707,"Mur":5708,"Sp":5709,"Scot":5710,"Semi":5711,"bism":5712,"bend":5713,"bang":5714,"brim":5715,"city":5716,"camph":5717,"dies":5718,"eud":5719,"fted":5720,"filled":5721,"giest":5722,"iative":5723,"jub":5724,"lins":5725,"lute":5726,"lumin":5727,"noct":5728,"pub":5729,"pile":5730,"sized":5731,"tower":5732,"uer":5733,"inoc":5734,"inia":5735,"inidae":5736,"onist":5737,"eship":5738,"enal":5739,"orhy":5740,"orously":5741,"uncor":5742,"reper":5743,"reason":5744,"chyl":5745,"rak":5746,"etter":5747,"omast":5748,"acus":5749,"acular":5750,"abil":5751,"ameter":5752,"otism":5753,"umbr":5754,"ripe":5755,"econom":5756,"apped":5757,"antil":5758,"antig":5759,"lost":5760,"ells":5761,"exhib":5762,"prev":5763,"pler":5764,"plumb":5765,"platin":5766,"keys":5767,"deaf":5768,"pris":5769,"endoc":5770,"subter":5771,"trade":5772,"worse":5773,"monoc":5774,"tough":5775,"fulnesses":5776,"miser":5777,"intend":5778,"introd":5779,"rices":5780,"matur":5781,"glomer":5782,"soon":5783,"ptic":5784,"oxin":5785,"microm":5786,"germin":5787,"marble":5788,"deck":5789,"country":5790,"rigged":5791,"snuff":5792,"center":5793,"goat":5794,"handedness":5795,"regist":5796,"ridge":5797,"warrant":5798,"domin":5799,"surf":5800,"clothes":5801,"ollen":5802,"secut":5803,"weeds":5804,"flowing":5805,"pulver":5806,"rify":5807,"ophytic":5808,"opsis":5809,"service":5810,"rooted":5811,"though":5812,"ocephalous":5813,"borough":5814,"necess":5815,"Brah":5816,"catech":5817,"browed":5818,"oscill":5819,"otoxin":5820,"Chal":5821,"Dal":5822,"Dav":5823,"Eu":5824,"Fre":5825,"Gen":5826,"Han":5827,"Hell":5828,"Ken":5829,"Lib":5830,"Laur":5831,"Mol":5832,"RT":5833,"Wol":5834,"aic":5835,"bard":5836,"bility":5837,"bane":5838,"bble":5839,"cence":5840,"canth":5841,"cane":5842,"cott":5843,"cili":5844,"cris":5845,"duct":5846,"different":5847,"fric":5848,"ih":5849,"iates":5850,"iological":5851,"kiss":5852,"nag":5853,"nymph":5854,"pate":5855,"pond":5856,"sut":5857,"sop":5858,"vall":5859,"ych":5860,"inas":5861,"inable":5862,"onder":5863,"alising":5864,"editor":5865,"icer":5866,"orium":5867,"orange":5868,"reco":5869,"starch":5870,"chet":5871,"chest":5872,"usur":5873,"phone":5874,"omely":5875,"ulo":5876,"ultr":5877,"entre":5878,"emn":5879,"emble":5880,"osities":5881,"otax":5882,"otrophic":5883,"ogs":5884,"agh":5885,"agree":5886,"pery":5887,"perpet":5888,"shoe":5889,"shallow":5890,"illus":5891,"sevent":5892,"keeping":5893,"trench":5894,"aye":5895,"clusion":5896,"combin":5897,"boats":5898,"beard":5899,"bearded":5900,"flies":5901,"acknow":5902,"icked":5903,"mono":5904,"oky":5905,"derm":5906,"foil":5907,"minister":5908,"rows":5909,"bru":5910,"archic":5911,"anning":5912,"strang":5913,"unsur":5914,"Anth":5915,"does":5916,"hydra":5917,"pyr":5918,"swan":5919,"attle":5920,"iformes":5921,"culate":5922,"ruf":5923,"ailing":5924,"legitim":5925,"atics":5926,"ordain":5927,"ousnesses":5928,"depart":5929,"pressed":5930,"visaged":5931,"topped":5932,"circu":5933,"cutter":5934,"note":5935,"splan":5936,"limbed":5937,"jection":5938,"group":5939,"engine":5940,"protect":5941,"balls":5942,"otypic":5943,"iacal":5944,"chloro":5945,"opodous":5946,"opteryg":5947,"factor":5948,"standard":5949,"vulgar":5950,"speaking":5951,"mouse":5952,"ophyllous":5953,"ozoic":5954,"Turk":5955,"ocentric":5956,"riction":5957,"liquid":5958,"birth":5959,"emphas":5960,"gentleman":5961,"systemat":5962,"tympan":5963,"authent":5964,"Br":5965,"Bat":5966,"DE":5967,"Kat":5968,"LS":5969,"Long":5970,"MC":5971,"Nov":5972,"TA":5973,"Wy":5974,"Will":5975,"aub":5976,"beck":5977,"cret":5978,"ders":5979,"eury":5980,"find":5981,"fare":5982,"gian":5983,"grip":5984,"hund":5985,"jan":5986,"kit":5987,"mend":5988,"nik":5989,"numer":5990,"pug":5991,"sack":5992,"sore":5993,"tos":5994,"tunn":5995,"yield":5996,"escap":5997,"ensu":5998,"alite":5999,"ischi":6000,"unting":6001,"itiously":6002,"elastic":6003,"rotic":6004,"record":6005,"stay":6006,"stool":6007,"chart":6008,"chrys":6009,"olys":6010,"etted":6011,"omical":6012,"accommod":6013,"abel":6014,"adam":6015,"adren":6016,"agre":6017,"iza":6018,"periph":6019,"nonin":6020,"apo":6021,"apolog":6022,"appet":6023,"antes":6024,"antep":6025,"quot":6026,"ircum":6027,"shev":6028,"conform":6029,"cole":6030,"spr":6031,"overex":6032,"ucer":6033,"alla":6034,"allen":6035,"scen":6036,"forc":6037,"forep":6038,"cled":6039,"ophosph":6040,"disco":6041,"outw":6042,"inters":6043,"syphil":6044,"move":6045,"geon":6046,"lowing":6047,"hoop":6048,"glott":6049,"metrical":6050,"sou":6051,"insol":6052,"event":6053,"evapor":6054,"peac":6055,"ularia":6056,"rowed":6057,"myri":6058,"marg":6059,"ferro":6060,"auch":6061,"ignor":6062,"hydros":6063,"tured":6064,"regard":6065,"volat":6066,"laugh":6067,"purg":6068,"multif":6069,"thyro":6070,"support":6071,"ozon":6072,"better":6073,"Indo":6074,"boxes":6075,"faction":6076,"social":6077,"nitro":6078,"beggar":6079,"sperm":6080,"uscular":6081,"enthus":6082,"rooms":6083,"imetry":6084,"imetric":6085,"spiritual":6086,"gynec":6087,"honor":6088,"chondro":6089,"sounding":6090,"icolous":6091,"Teut":6092,"breathing":6093,"opinion":6094,"oglobin":6095,"Dol":6096,"Dec":6097,"FE":6098,"Fal":6099,"Ful":6100,"Hor":6101,"LA":6102,"Moh":6103,"NC":6104,"Oph":6105,"Port":6106,"San":6107,"Span":6108,"Saint":6109,"TO":6110,"aque":6111,"dext":6112,"eul":6113,"fr":6114,"fs":6115,"fab":6116,"gross":6117,"march":6118,"memor":6119,"nam":6120,"nie":6121,"peck":6122,"ryl":6123,"sort":6124,"tul":6125,"tically":6126,"tier":6127,"tile":6128,"voy":6129,"why":6130,"wagon":6131,"zan":6132,"zel":6133,"inist":6134,"onically":6135,"anist":6136,"anize":6137,"atine":6138,"atry":6139,"enosis":6140,"alty":6141,"isy":6142,"ares":6143,"arine":6144,"arrang":6145,"unle":6146,"unexc":6147,"iton":6148,"itus":6149,"chast":6150,"usa":6151,"ilely":6152,"rae":6153,"rake":6154,"thetic":6155,"thio":6156,"emig":6157,"opaed":6158,"imic":6159,"ococ":6160,"apter":6161,"sha":6162,"shear":6163,"iffl":6164,"convers":6165,"conjug":6166,"speech":6167,"iang":6168,"ianize":6169,"obenz":6170,"nebul":6171,"forty":6172,"boys":6173,"beet":6174,"teas":6175,"lied":6176,"icking":6177,"achromat":6178,"acean":6179,"glos":6180,"glig":6181,"ropter":6182,"egy":6183,"whel":6184,"whir":6185,"collar":6186,"polym":6187,"baron":6188,"herb":6189,"trigon":6190,"brag":6191,"dough":6192,"inks":6193,"zoic":6194,"catal":6195,"accus":6196,"bye":6197,"ventric":6198,"paed":6199,"predic":6200,"viscer":6201,"bench":6202,"amino":6203,"omorphous":6204,"basket":6205,"tempered":6206,"simple":6207,"treas":6208,"fault":6209,"ophagy":6210,"firm":6211,"liberal":6212,"burning":6213,"empir":6214,"ocephalic":6215,"etalous":6216,"civil":6217,"execut":6218,"public":6219,"lichen":6220,"neutral":6221,"dacry":6222,"acknowled":6223,"splanchn":6224,"Ah":6225,"Act":6226,"DT":6227,"LC":6228,"LO":6229,"Lab":6230,"Latin":6231,"ME":6232,"Mach":6233,"Ok":6234,"PO":6235,"Ped":6236,"Pod":6237,"Phyl":6238,"Paul":6239,"Rhod":6240,"Su":6241,"Tel":6242,"Tom":6243,"beth":6244,"dess":6245,"gom":6246,"goss":6247,"giving":6248,"jing":6249,"kam":6250,"lil":6251,"lant":6252,"lard":6253,"lup":6254,"membran":6255,"national":6256,"oak":6257,"pump":6258,"rations":6259,"swell":6260,"viz":6261,"wur":6262,"wrist":6263,"yne":6264,"inely":6265,"inoid":6266,"esophag":6267,"aned":6268,"anchor":6269,"alum":6270,"isch":6271,"icidal":6272,"elder":6273,"repe":6274,"stage":6275,"strom":6276,"story":6277,"staphyl":6278,"chanc":6279,"champ":6280,"usiveness":6281,"phleg":6282,"esse":6283,"omo":6284,"aces":6285,"accord":6286,"uliform":6287,"thall":6288,"emet":6289,"adelph":6290,"ouses":6291,"ogg":6292,"ista":6293,"rimin":6294,"odle":6295,"ationism":6296,"vermin":6297,"nonim":6298,"iaz":6299,"shy":6300,"ipped":6301,"concent":6302,"estic":6303,"epil":6304,"illon":6305,"neo":6306,"endo":6307,"ostra":6308,"comed":6309,"commerc":6310,"induct":6311,"bew":6312,"beef":6313,"ubber":6314,"asser":6315,"asses":6316,"interrog":6317,"ensive":6318,"achie":6319,"weet":6320,"metamorph":6321,"carpet":6322,"eved":6323,"polit":6324,"diap":6325,"peach":6326,"ofib":6327,"lett":6328,"triv":6329,"guer":6330,"aze":6331,"azo":6332,"orning":6333,"decar":6334,"serpent":6335,"veined":6336,"axillary":6337,"recept":6338,"curv":6339,"salping":6340,"uckle":6341,"brother":6342,"lord":6343,"knock":6344,"contro":6345,"capit":6346,"rhod":6347,"schol":6348,"wardly":6349,"urage":6350,"resses":6351,"ussed":6352,"delic":6353,"potent":6354,"splend":6355,"foreign":6356,"expand":6357,"tempest":6358,"help":6359,"arthro":6360,"ophoric":6361,"days":6362,"faith":6363,"shoot":6364,"liver":6365,"rabbit":6366,"drunk":6367,"jury":6368,"baby":6369,"pneumon":6370,"substanti":6371,"ocoel":6372,"writing":6373,"natured":6374,"bacteri":6375,"pericard":6376,"building":6377,"investig":6378,"Adam":6379,"BA":6380,"Bry":6381,"Card":6382,"Clar":6383,"DA":6384,"Dy":6385,"Dam":6386,"Gym":6387,"Len":6388,"Mary":6389,"Nic":6390,"PE":6391,"PI":6392,"Pic":6393,"Pur":6394,"Ven":6395,"bak":6396,"dler":6397,"eater":6398,"fust":6399,"hing":6400,"iamb":6401,"kon":6402,"kok":6403,"lid":6404,"lur":6405,"lia":6406,"lug":6407,"noc":6408,"sund":6409,"sax":6410,"toc":6411,"tint":6412,"aner":6413,"anther":6414,"alis":6415,"isot":6416,"isop":6417,"iche":6418,"arra":6419,"arize":6420,"orize":6421,"iti":6422,"rece":6423,"reve":6424,"sted":6425,"stout":6426,"stair":6427,"chick":6428,"pha":6429,"ioner":6430,"ulas":6431,"ulary":6432,"ulously":6433,"third":6434,"uron":6435,"adder":6436,"uta":6437,"umm":6438,"opson":6439,"agic":6440,"octa":6441,"pert":6442,"perine":6443,"nonco":6444,"apprehens":6445,"antism":6446,"quam":6447,"shin":6448,"shield":6449,"consol":6450,"concert":6451,"elles":6452,"andra":6453,"prom":6454,"exis":6455,"illar":6456,"avel":6457,"endable":6458,"indle":6459,"discrimin":6460,"outf":6461,"para":6462,"parent":6463,"oka":6464,"intent":6465,"rese":6466,"rics":6467,"reduc":6468,"ahu":6469,"carry":6470,"carcin":6471,"haunted":6472,"minth":6473,"rater":6474,"oves":6475,"oved":6476,"trig":6477,"guan":6478,"market":6479,"feathered":6480,"strid":6481,"tings":6482,"Ant":6483,"Angl":6484,"hydrate":6485,"sons":6486,"ushing":6487,"aree":6488,"affir":6489,"ethane":6490,"knife":6491,"cats":6492,"regular":6493,"infinit":6494,"onics":6495,"times":6496,"hypn":6497,"troubl":6498,"diver":6499,"precipit":6500,"odontia":6501,"join":6502,"duplic":6503,"lamy":6504,"sulphur":6505,"optera":6506,"udding":6507,"blooded":6508,"physic":6509,"profit":6510,"lapar":6511,"succin":6512,"floor":6513,"signific":6514,"mannered":6515,"blown":6516,"dolich":6517,"aspir":6518,"tipped":6519,"fruited":6520,"cultiv":6521,"machine":6522,"stomach":6523,"journal":6524,"peritone":6525,"tradition":6526,"lubric":6527,"academ":6528,"opexy":6529,"Bul":6530,"Cop":6531,"Corn":6532,"Du":6533,"Den":6534,"Ele":6535,"Gor":6536,"Good":6537,"MO":6538,"Mass":6539,"Pent":6540,"Ray":6541,"Sim":6542,"Vir":6543,"Ze":6544,"aire":6545,"fem":6546,"fris":6547,"gid":6548,"gover":6549,"gene":6550,"gown":6551,"hs":6552,"hect":6553,"hart":6554,"iableness":6555,"jol":6556,"kor":6557,"kib":6558,"nath":6559,"nub":6560,"noth":6561,"pyl":6562,"pept":6563,"rural":6564,"sett":6565,"tank":6566,"uity":6567,"vinc":6568,"wand":6569,"wish":6570,"wyn":6571,"yed":6572,"zig":6573,"onville":6574,"esian":6575,"anag":6576,"atism":6577,"alder":6578,"edom":6579,"ington":6580,"elism":6581,"remon":6582,"stan":6583,"stent":6584,"store":6585,"usher":6586,"ilated":6587,"olis":6588,"eto":6589,"etch":6590,"acetic":6591,"ulli":6592,"uloid":6593,"ulousness":6594,"urt":6595,"amas":6596,"iste":6597,"isting":6598,"rik":6599,"ecker":6600,"ivoc":6601,"iman":6602,"odial":6603,"perist":6604,"antagon":6605,"lox":6606,"ipping":6607,"confer":6608,"conven":6609,"prolog":6610,"undo":6611,"prein":6612,"uder":6613,"plug":6614,"illas":6615,"search":6616,"oblong":6617,"scale":6618,"scrap":6619,"defer":6620,"nea":6621,"neglig":6622,"ophot":6623,"ostat":6624,"angium":6625,"beer":6626,"beak":6627,"achron":6628,"rane":6629,"lows":6630,"core":6631,"ortic":6632,"wher":6633,"urement":6634,"evel":6635,"diagn":6636,"diabol":6637,"slide":6638,"therapy":6639,"mineral":6640,"barred":6641,"ovate":6642,"oxide":6643,"azot":6644,"istics":6645,"hydrop":6646,"iks":6647,"desm":6648,"iole":6649,"enna":6650,"encing":6651,"solic":6652,"acceler":6653,"ionality":6654,"photoc":6655,"antiqu":6656,"belt":6657,"boned":6658,"icula":6659,"aerob":6660,"cream":6661,"complet":6662,"farm":6663,"rousness":6664,"otherapeut":6665,"banded":6666,"bathy":6667,"hedge":6668,"devot":6669,"frame":6670,"glob":6671,"omeric":6672,"aggreg":6673,"planet":6674,"damn":6675,"locks":6676,"friend":6677,"ogamous":6678,"fallen":6679,"iastic":6680,"familiar":6681,"agogue":6682,"dragon":6683,"Franco":6684,"benefic":6685,"omotor":6686,"gymn":6687,"iflorous":6688,"american":6689,"manifest":6690,"AF":6691,"Av":6692,"Ach":6693,"Bell":6694,"Gab":6695,"Jes":6696,"Lu":6697,"Mich":6698,"Maur":6699,"Ny":6700,"Pa":6701,"Phar":6702,"Rod":6703,"Sem":6704,"Shar":6705,"To":6706,"aunt":6707,"bary":6708,"bure":6709,"cker":6710,"cater":6711,"cush":6712,"cocc":6713,"dled":6714,"ead":6715,"fren":6716,"fancy":6717,"gim":6718,"gau":6719,"ilet":6720,"lite":6721,"lighted":6722,"length":6723,"might":6724,"mild":6725,"nost":6726,"oest":6727,"rs":6728,"tac":6729,"toll":6730,"tired":6731,"vend":6732,"wain":6733,"onate":6734,"esome":6735,"atist":6736,"eners":6737,"aldehyde":6738,"isob":6739,"untra":6740,"itant":6741,"roth":6742,"reform":6743,"strew":6744,"lea":6745,"chow":6746,"chalk":6747,"ilism":6748,"phas":6749,"ido":6750,"idate":6751,"acrom":6752,"thre":6753,"threat":6754,"abas":6755,"entgen":6756,"admir":6757,"opoly":6758,"iven":6759,"perig":6760,"period":6761,"igo":6762,"nond":6763,"shir":6764,"concer":6765,"coid":6766,"spider":6767,"epar":6768,"ianth":6769,"undiv":6770,"ineff":6771,"hybrid":6772,"overd":6773,"pla":6774,"seeming":6775,"heal":6776,"dee":6777,"aval":6778,"ugal":6779,"coming":6780,"both":6781,"ologize":6782,"dispens":6783,"upe":6784,"athemat":6785,"lix":6786,"correspond":6787,"matist":6788,"matri":6789,"actor":6790,"actually":6791,"semil":6792,"urea":6793,"thermo":6794,"herd":6795,"micros":6796,"brazen":6797,"certain":6798,"feel":6799,"feeding":6800,"sermon":6801,"vein":6802,"unsec":6803,"calor":6804,"calam":6805,"sno":6806,"switch":6807,"malt":6808,"chees":6809,"venom":6810,"salv":6811,"enny":6812,"electroph":6813,"uffle":6814,"encycl":6815,"cute":6816,"arks":6817,"distinct":6818,"divis":6819,"bloom":6820,"psycho":6821,"invig":6822,"opterous":6823,"living":6824,"optosis":6825,"urgical":6826,"throat":6827,"fortun":6828,"souled":6829,"ilicate":6830,"ranchiata":6831,"categor":6832,"closed":6833,"stained":6834,"jawed":6835,"revolution":6836,"mountain":6837,"custom":6838,"agglutin":6839,"diamond":6840,"architect":6841,"hundred":6842,"Ari":6843,"Alex":6844,"Bu":6845,"Bre":6846,"Bow":6847,"Cent":6848,"Es":6849,"Est":6850,"Gr":6851,"Gy":6852,"Goth":6853,"Isl":6854,"Kor":6855,"Low":6856,"Ni":6857,"Not":6858,"Pas":6859,"Pap":6860,"Syn":6861,"Tre":6862,"bund":6863,"bash":6864,"brig":6865,"cz":6866,"celi":6867,"dell":6868,"daw":6869,"dling":6870,"fas":6871,"fec":6872,"fag":6873,"frig":6874,"gus":6875,"gingly":6876,"iard":6877,"jail":6878,"kas":6879,"lud":6880,"lash":6881,"luck":6882,"moment":6883,"nemat":6884,"number":6885,"oar":6886,"oun":6887,"pach":6888,"penc":6889,"prag":6890,"sine":6891,"saddle":6892,"tib":6893,"tone":6894,"tiger":6895,"uing":6896,"vale":6897,"wn":6898,"wen":6899,"wad":6900,"wir":6901,"wif":6902,"winn":6903,"wald":6904,"xiph":6905,"indef":6906,"onit":6907,"escal":6908,"anon":6909,"atress":6910,"enary":6911,"icy":6912,"icize":6913,"orious":6914,"unas":6915,"unam":6916,"unref":6917,"itary":6918,"recom":6919,"reconf":6920,"stic":6921,"stink":6922,"chon":6923,"chaff":6924,"raff":6925,"olon":6926,"phac":6927,"phase":6928,"omi":6929,"ionate":6930,"aced":6931,"acchar":6932,"ulcer":6933,"than":6934,"thron":6935,"thesis":6936,"otrich":6937,"ecan":6938,"opus":6939,"term":6940,"ivory":6941,"imed":6942,"agy":6943,"ige":6944,"apoc":6945,"apping":6946,"applic":6947,"quat":6948,"shro":6949,"shag":6950,"shaf":6951,"shirt":6952,"loth":6953,"consul":6954,"spon":6955,"proportion":6956,"undep":6957,"hygro":6958,"plastic":6959,"illes":6960,"keel":6961,"alls":6962,"allic":6963,"allot":6964,"trunk":6965,"arde":6966,"ialized":6967,"cliff":6968,"ophage":6969,"blingly":6970,"bok":6971,"parag":6972,"acking":6973,"assim":6974,"mond":6975,"monkey":6976,"intermed":6977,"ension":6978,"weap":6979,"inton":6980,"moth":6981,"moving":6982,"cory":6983,"actual":6984,"sement":6985,"metrop":6986,"insist":6987,"colleg":6988,"pea":6989,"therapeut":6990,"burden":6991,"guid":6992,"archies":6993,"brac":6994,"ceremon":6995,"decor":6996,"stress":6997,"unsal":6998,"And":6999,"lery":7000,"breeding":7001,"knob":7002,"rhab":7003,"volcan":7004,"laur":7005,"etti":7006,"multis":7007,"oyster":7008,"circul":7009,"equal":7010,"equilib":7011,"pinch":7012,"anticip":7013,"scribed":7014,"occas":7015,"birds":7016,"simpl":7017,"ascular":7018,"safe":7019,"hedral":7020,"imperson":7021,"iety":7022,"agonal":7023,"laps":7024,"nutrit":7025,"liber":7026,"dimin":7027,"fronted":7028,"suffic":7029,"crani":7030,"henia":7031,"tolu":7032,"figur":7033,"orchest":7034,"rography":7035,"yllabic":7036,"uzzle":7037,"combust":7038,"stroke":7039,"pepper":7040,"orrhagia":7041,"powder":7042,"industri":7043,"abstract":7044,"Aur":7045,"Bay":7046,"Barn":7047,"CI":7048,"CM":7049,"DF":7050,"Fe":7051,"Hil":7052,"Had":7053,"Hib":7054,"Hay":7055,"Jar":7056,"Joh":7057,"Ka":7058,"Kol":7059,"Max":7060,"No":7061,"Rus":7062,"Rad":7063,"Rock":7064,"Sand":7065,"TE":7066,"Thom":7067,"Thor":7068,"aemia":7069,"bion":7070,"cuc":7071,"cinn":7072,"camb":7073,"crep":7074,"crem":7075,"date":7076,"dread":7077,"fang":7078,"fals":7079,"felt":7080,"gunn":7081,"het":7082,"hub":7083,"jay":7084,"kie":7085,"knee":7086,"lane":7087,"mamm":7088,"oophor":7089,"pang":7090,"pure":7091,"satin":7092,"tread":7093,"ufact":7094,"onium":7095,"atize":7096,"eny":7097,"enam":7098,"argu":7099,"orted":7100,"unav":7101,"untrans":7102,"unpur":7103,"unsup":7104,"unprov":7105,"role":7106,"reex":7107,"stich":7108,"raven":7109,"olip":7110,"acs":7111,"acut":7112,"acron":7113,"acrid":7114,"ulable":7115,"ulfur":7116,"thur":7117,"thmic":7118,"abal":7119,"amyg":7120,"advis":7121,"oga":7122,"rile":7123,"riff":7124,"igar":7125,"igate":7126,"verbal":7127,"antage":7128,"icalism":7129,"estone":7130,"coin":7131,"ellation":7132,"ellers":7133,"spo":7134,"spit":7135,"spoil":7136,"ianist":7137,"erson":7138,"undi":7139,"ineous":7140,"hypos":7141,"ibranch":7142,"pless":7143,"seen":7144,"seeking":7145,"keen":7146,"truck":7147,"scat":7148,"scented":7149,"ialization":7150,"avi":7151,"dissol":7152,"party":7153,"liament":7154,"taught":7155,"interfer":7156,"intest":7157,"mount":7158,"bery":7159,"coral":7160,"corac":7161,"aha":7162,"peop":7163,"slack":7164,"grained":7165,"therap":7166,"retic":7167,"archae":7168,"thead":7169,"cerat":7170,"cervic":7171,"dece":7172,"strength":7173,"alee":7174,"ongs":7175,"incur":7176,"hydric":7177,"oche":7178,"ritorial":7179,"ported":7180,"ushed":7181,"broom":7182,"affe":7183,"petal":7184,"zoa":7185,"zoon":7186,"known":7187,"canal":7188,"elior":7189,"harsh":7190,"republ":7191,"paid":7192,"prize":7193,"squar":7194,"ationalism":7195,"garn":7196,"praise":7197,"usses":7198,"deliber":7199,"piro":7200,"piec":7201,"phyg":7202,"split":7203,"benzo":7204,"hoods":7205,"downs":7206,"explo":7207,"torment":7208,"immort":7209,"bulb":7210,"drive":7211,"extract":7212,"saint":7213,"opsia":7214,"Leon":7215,"chemical":7216,"ograms":7217,"English":7218,"float":7219,"crank":7220,"scription":7221,"pteryg":7222,"writer":7223,"written":7224,"willow":7225,"noble":7226,"maiden":7227,"shadow":7228,"American":7229,"transcend":7230,"develop":7231,"cholecyst":7232,"arcoma":7233,"legisl":7234,"Aud":7235,"BE":7236,"Bac":7237,"Cre":7238,"Dip":7239,"Eury":7240,"FI":7241,"Fab":7242,"Hu":7243,"Hes":7244,"His":7245,"Kh":7246,"LI":7247,"Mul":7248,"Sid":7249,"Sum":7250,"TC":7251,"Thy":7252,"Tart":7253,"WA":7254,"Xen":7255,"bist":7256,"bable":7257,"cly":7258,"cite":7259,"cary":7260,"cash":7261,"crot":7262,"dob":7263,"dart":7264,"dah":7265,"dash":7266,"eing":7267,"echo":7268,"fran":7269,"fruct":7270,"gow":7271,"gie":7272,"gorg":7273,"gather":7274,"hide":7275,"iw":7276,"iologist":7277,"jump":7278,"lak":7279,"leness":7280,"lax":7281,"mom":7282,"mens":7283,"nu":7284,"nell":7285,"naut":7286,"oos":7287,"pable":7288,"pins":7289,"pagan":7290,"rina":7291,"sme":7292,"tis":7293,"tyl":7294,"ulet":7295,"vene":7296,"wrink":7297,"xim":7298,"yly":7299,"erot":7300,"alam":7301,"island":7302,"orially":7303,"unop":7304,"itu":7305,"iters":7306,"ithe":7307,"itably":7308,"itiveness":7309,"sts":7310,"stric":7311,"states":7312,"chau":7313,"ilder":7314,"olus":7315,"olous":7316,"etz":7317,"essential":7318,"ionize":7319,"thrust":7320,"aband":7321,"emy":7322,"oser":7323,"osing":7324,"osol":7325,"osse":7326,"otry":7327,"utable":7328,"opleg":7329,"terer":7330,"imped":7331,"odent":7332,"odium":7333,"ationary":7334,"igation":7335,"nons":7336,"nonen":7337,"anta":7338,"antir":7339,"shod":7340,"shake":7341,"ifically":7342,"ipal":7343,"ellum":7344,"ellite":7345,"procur":7346,"expos":7347,"astron":7348,"overe":7349,"plasm":7350,"iesis":7351,"seam":7352,"uca":7353,"scall":7354,"scratch":7355,"deut":7356,"cling":7357,"ostrac":7358,"compos":7359,"beh":7360,"flax":7361,"paran":7362,"parat":7363,"paral":7364,"ubst":7365,"assign":7366,"select":7367,"idei":7368,"ideal":7369,"okin":7370,"mentally":7371,"intu":7372,"mourn":7373,"resent":7374,"cork":7375,"acts":7376,"insect":7377,"whirl":7378,"diet":7379,"diac":7380,"slop":7381,"slim":7382,"deriv":7383,"tonian":7384,"grab":7385,"barn":7386,"bras":7387,"twig":7388,"counsel":7389,"ikin":7390,"snob":7391,"aneously":7392,"hemis":7393,"tures":7394,"aphor":7395,"brevi":7396,"affili":7397,"rophia":7398,"handic":7399,"knight":7400,"ometers":7401,"queen":7402,"worked":7403,"schist":7404,"accust":7405,"volution":7406,"riding":7407,"psil":7408,"uras":7409,"draft":7410,"drawing":7411,"rums":7412,"addy":7413,"address":7414,"hypot":7415,"remember":7416,"horiz":7417,"embod":7418,"lime":7419,"limn":7420,"youth":7421,"scrim":7422,"except":7423,"protest":7424,"waist":7425,"ascend":7426,"dried":7427,"ophyt":7428,"hedron":7429,"irable":7430,"taining":7431,"conduc":7432,"virtu":7433,"faint":7434,"euphon":7435,"digit":7436,"vulcan":7437,"tube":7438,"speak":7439,"pretty":7440,"rologist":7441,"washed":7442,"sarco":7443,"ocerat":7444,"stemmed":7445,"catholic":7446,"royal":7447,"sublim":7448,"phantas":7449,"razor":7450,"coffee":7451,"fiery":7452,"christian":7453,"sculpt":7454,"running":7455,"bishop":7456,"phleb":7457,"orthodox":7458,"BI":7459,"Berg":7460,"CE":7461,"DO":7462,"Din":7463,"Dev":7464,"Fair":7465,"Gro":7466,"Gib":7467,"Jul":7468,"Ky":7469,"Kin":7470,"Lept":7471,"Nem":7472,"North":7473,"Ori":7474,"Por":7475,"Ren":7476,"Sen":7477,"Sor":7478,"Sus":7479,"Sav":7480,"Sub":7481,"Var":7482,"Wa":7483,"bitten":7484,"cist":7485,"dab":7486,"dup":7487,"dles":7488,"fty":7489,"feld":7490,"fright":7491,"gence":7492,"gour":7493,"gement":7494,"jon":7495,"jas":7496,"kop":7497,"live":7498,"lath":7499,"mog":7500,"mall":7501,"mash":7502,"munic":7503,"nice":7504,"nour":7505,"pia":7506,"pisc":7507,"rare":7508,"sill":7509,"sial":7510,"size":7511,"trep":7512,"vat":7513,"vow":7514,"vindic":7515,"wow":7516,"wry":7517,"yaw":7518,"zie":7519,"inco":7520,"intrans":7521,"anol":7522,"attribut":7523,"enian":7524,"icard":7525,"icorn":7526,"arr":7527,"aras":7528,"arms":7529,"unal":7530,"unis":7531,"unsuper":7532,"unmer":7533,"unrest":7534,"itiousness":7535,"eliness":7536,"robed":7537,"robor":7538,"revers":7539,"stin":7540,"stur":7541,"steg":7542,"rasp":7543,"raising":7544,"olia":7545,"etin":7546,"idental":7547,"uled":7548,"thys":7549,"asym":7550,"uridae":7551,"osia":7552,"osely":7553,"utt":7554,"uty":7555,"util":7556,"ogony":7557,"riev":7558,"rize":7559,"ivist":7560,"ocell":7561,"nonab":7562,"nonpl":7563,"apoph":7564,"shack":7565,"shrew":7566,"shift":7567,"conch":7568,"conson":7569,"construct":7570,"consider":7571,"spun":7572,"illate":7573,"trist":7574,"screen":7575,"ceiv":7576,"neys":7577,"ffer":7578,"clod":7579,"ophi":7580,"ophobe":7581,"comment":7582,"index":7583,"indict":7584,"bou":7585,"subt":7586,"before":7587,"teeth":7588,"floc":7589,"atha":7590,"athic":7591,"parab":7592,"trail":7593,"traff":7594,"trape":7595,"worts":7596,"assed":7597,"interpret":7598,"synon":7599,"weas":7600,"okines":7601,"moul":7602,"geable":7603,"redist":7604,"colle":7605,"sled":7606,"slaugh":7607,"gras":7608,"grace":7609,"rattle":7610,"mez":7611,"trib":7612,"guess":7613,"tingu":7614,"uncur":7615,"omycosis":7616,"doing":7617,"anthrac":7618,"grum":7619,"portra":7620,"attent":7621,"current":7622,"ixes":7623,"lining":7624,"boring":7625,"bordered":7626,"volt":7627,"Arist":7628,"charged":7629,"commit":7630,"mesmer":7631,"draught":7632,"multil":7633,"aurus":7634,"auricular":7635,"visual":7636,"strain":7637,"deleg":7638,"circular":7639,"grey":7640,"anticon":7641,"otherap":7642,"effic":7643,"impass":7644,"rified":7645,"ophilia":7646,"crook":7647,"locut":7648,"wheat":7649,"emonger":7650,"literal":7651,"historic":7652,"range":7653,"dimens":7654,"burnt":7655,"digest":7656,"turned":7657,"empty":7658,"jejun":7659,"rological":7660,"knowled":7661,"walled":7662,"strike":7663,"striped":7664,"ophyllum":7665,"ituted":7666,"dialect":7667,"thinking":7668,"vigil":7669,"conscious":7670,"osperm":7671,"picture":7672,"trumpet":7673,"sober":7674,"fifty":7675,"wreath":7676,"thromb":7677,"yledon":7678,"pauper":7679,"rufous":7680,"eulog":7681,"Asc":7682,"DD":7683,"Eth":7684,"FO":7685,"Fil":7686,"Frank":7687,"Gi":7688,"Hed":7689,"Hum":7690,"Hard":7691,"Jun":7692,"Krist":7693,"Lan":7694,"Lep":7695,"Lou":7696,"Mend":7697,"Mari":7698,"Na":7699,"Ner":7700,"Pom":7701,"Pri":7702,"Pers":7703,"Rhy":7704,"So":7705,"Sha":7706,"Tro":7707,"Wall":7708,"Zo":7709,"bia":7710,"cia":7711,"dop":7712,"dung":7713,"fow":7714,"fired":7715,"filling":7716,"fitting":7717,"gage":7718,"jor":7719,"latch":7720,"mest":7721,"nab":7722,"nim":7723,"ounce":7724,"pim":7725,"paw":7726,"tir":7727,"vast":7728,"wr":7729,"erect":7730,"onne":7731,"atel":7732,"enoid":7733,"enjoy":7734,"aline":7735,"edict":7736,"isen":7737,"isement":7738,"arb":7739,"orator":7740,"reap":7741,"repl":7742,"stum":7743,"leth":7744,"leys":7745,"chym":7746,"ilite":7747,"ileness":7748,"rache":7749,"olas":7750,"etym":7751,"phere":7752,"phobia":7753,"omere":7754,"idently":7755,"ionable":7756,"osite":7757,"amate":7758,"otter":7759,"otte":7760,"uming":7761,"eco":7762,"impression":7763,"agric":7764,"izingly":7765,"oded":7766,"persu":7767,"perfor":7768,"igan":7769,"verted":7770,"nonres":7771,"anton":7772,"antia":7773,"antich":7774,"quo":7775,"shore":7776,"ifical":7777,"condem":7778,"coy":7779,"coast":7780,"spire":7781,"epiph":7782,"ismus":7783,"hymn":7784,"ibles":7785,"plank":7786,"ucid":7787,"keep":7788,"obas":7789,"obranchiate":7790,"scre":7791,"prise":7792,"neat":7793,"manip":7794,"endos":7795,"ylar":7796,"clud":7797,"ophonic":7798,"comy":7799,"rym":7800,"ango":7801,"disp":7802,"iew":7803,"flatter":7804,"icky":7805,"monot":7806,"weep":7807,"inting":7808,"corp":7809,"artic":7810,"poon":7811,"pour":7812,"pee":7813,"slum":7814,"slug":7815,"ultim":7816,"rowing":7817,"merry":7818,"brate":7819,"mead":7820,"skelet":7821,"brachi":7822,"theast":7823,"theolog":7824,"axial":7825,"eptor":7826,"anthra":7827,"snip":7828,"ontic":7829,"swallow":7830,"swollen":7831,"porter":7832,"turf":7833,"cheap":7834,"pseudop":7835,"reneg":7836,"brous":7837,"wooden":7838,"ixed":7839,"hands":7840,"rotomy":7841,"cannon":7842,"ualism":7843,"erousness":7844,"legs":7845,"electrom":7846,"predict":7847,"uffed":7848,"humid":7849,"dramat":7850,"adequ":7851,"arians":7852,"holes":7853,"dysp":7854,"iculated":7855,"embow":7856,"tails":7857,"confess":7858,"hydroxy":7859,"buoy":7860,"thyre":7861,"farad":7862,"preced":7863,"racem":7864,"racies":7865,"thalam":7866,"radio":7867,"drip":7868,"mitted":7869,"bowed":7870,"organic":7871,"imperial":7872,"spectro":7873,"lift":7874,"words":7875,"oderma":7876,"locked":7877,"mascul":7878,"drug":7879,"ocephaly":7880,"vagin":7881,"uclear":7882,"testing":7883,"varic":7884,"acquis":7885,"acquaint":7886,"busy":7887,"destruct":7888,"orchid":7889,"anatom":7890,"neurop":7891,"negot":7892,"Half":7893,"walking":7894,"parasit":7895,"thirst":7896,"ninety":7897,"normal":7898,"particular":7899,"hazard":7900,"Brook":7901,"ochemical":7902,"alphabet":7903,"luxur":7904,"naphth":7905,"soldier":7906,"occipital":7907,"seventy":7908,"'-":7909,"Ath":7910,"Aut":7911,"Aug":7912,"Blo":7913,"Bour":7914,"Brown":7915,"CR":7916,"Cir":7917,"DM":7918,"Dis":7919,"Dra":7920,"Gran":7921,"Hip":7922,"Hob":7923,"Ki":7924,"Kan":7925,"Kel":7926,"Kur":7927,"Kam":7928,"LT":7929,"Lip":7930,"Lud":7931,"Law":7932,"Maz":7933,"Nik":7934,"Os":7935,"Pin":7936,"Penn":7937,"Rub":7938,"SO":7939,"Sta":7940,"Trin":7941,"Ved":7942,"aest":7943,"aure":7944,"bah":7945,"cec":7946,"cation":7947,"crat":7948,"das":7949,"drom":7950,"eut":7951,"frow":7952,"fram":7953,"fict":7954,"fowl":7955,"fiddle":7956,"give":7957,"gild":7958,"game":7959,"iometer":7960,"jag":7961,"kle":7962,"kra":7963,"kite":7964,"kelet":7965,"lene":7966,"lain":7967,"lank":7968,"lelike":7969,"mush":7970,"nigh":7971,"pud":7972,"piest":7973,"pater":7974,"swo":7975,"sadd":7976,"tene":7977,"tars":7978,"uj":7979,"uin":7980,"vor":7981,"vate":7982,"vide":7983,"veld":7984,"were":7985,"inform":7986,"inspect":7987,"esche":7988,"anaph":7989,"atomic":7990,"isoc":7991,"aren":7992,"orus":7993,"orite":7994,"unver":7995,"unret":7996,"unanim":7997,"itas":7998,"elf":7999,"roentgen":8000,"revel":8001,"stack":8002,"cht":8003,"chance":8004,"chicken":8005,"rament":8006,"olit":8007,"etric":8008,"pho":8009,"phlog":8010,"idial":8011,"idrosis":8012,"accompl":8013,"urine":8014,"enting":8015,"entry":8016,"embl":8017,"adia":8018,"adian":8019,"uten":8020,"utic":8021,"opoe":8022,"ivities":8023,"improv":8024,"ocation":8025,"ocial":8026,"perm":8027,"pering":8028,"igg":8029,"shock":8030,"loon":8031,"loft":8032,"andi":8033,"sprink":8034,"project":8035,"explic":8036,"exhaust":8037,"epile":8038,"ismal":8039,"asty":8040,"aston":8041,"hyg":8042,"overt":8043,"plut":8044,"obo":8045,"obtr":8046,"scint":8047,"deacon":8048,"price":8049,"akin":8050,"enders":8051,"ostatic":8052,"rystall":8053,"boid":8054,"disent":8055,"dispar":8056,"teet":8057,"fless":8058,"athers":8059,"parrot":8060,"ubri":8061,"toy":8062,"weird":8063,"gear":8064,"corner":8065,"corpore":8066,"hoot":8067,"redeem":8068,"artific":8069,"orting":8070,"insinu":8071,"would":8072,"peak":8073,"slight":8074,"foam":8075,"etern":8076,"ova":8077,"skull":8078,"trium":8079,"marriage":8080,"decked":8081,"stral":8082,"axi":8083,"autom":8084,"Chil":8085,"Cham":8086,"kered":8087,"gren":8088,"ochond":8089,"descript":8090,"affirm":8091,"rophobia":8092,"ixt":8093,"handedly":8094,"liner":8095,"ruin":8096,"regret":8097,"patient":8098,"commemor":8099,"doms":8100,"psis":8101,"portun":8102,"penit":8103,"moral":8104,"vital":8105,"buzz":8106,"shape":8107,"otherm":8108,"wait":8109,"tempt":8110,"suppress":8111,"quinone":8112,"drift":8113,"Philo":8114,"ruby":8115,"helic":8116,"quadric":8117,"otropy":8118,"chaet":8119,"getting":8120,"rably":8121,"animal":8122,"layer":8123,"diaz":8124,"semicon":8125,"worthiness":8126,"sesqu":8127,"figure":8128,"clerk":8129,"Black":8130,"pleasant":8131,"villain":8132,"doctor":8133,"amoeb":8134,"beaten":8135,"emporal":8136,"articulate":8137,"hunting":8138,"lysis":8139,"emotional":8140,"Ultra":8141,"industrial":8142,"NET":8143,"pocket":8144,"doubt":8145,"yrinth":8146,"crimson":8147,"prince":8148,"presbyter":8149,"Ay":8150,"Aeg":8151,"Adel":8152,"Ban":8153,"Bos":8154,"Bir":8155,"Cord":8156,"Camp":8157,"DP":8158,"HS":8159,"Hall":8160,"Jon":8161,"Jack":8162,"LE":8163,"Lap":8164,"Lang":8165,"Lew":8166,"NI":8167,"Naz":8168,"Oc":8169,"Pho":8170,"Reg":8171,"Sax":8172,"Tan":8173,"ael":8174,"bry":8175,"bys":8176,"bung":8177,"cud":8178,"dus":8179,"dov":8180,"deli":8181,"eus":8182,"eigh":8183,"gap":8184,"girt":8185,"hm":8186,"him":8187,"hare":8188,"iam":8189,"jog":8190,"jim":8191,"junk":8192,"lint":8193,"latt":8194,"mack":8195,"mint":8196,"nt":8197,"pted":8198,"pint":8199,"pik":8200,"rins":8201,"ratory":8202,"sock":8203,"tard":8204,"tect":8205,"toss":8206,"inization":8207,"inhib":8208,"onc":8209,"esign":8210,"anab":8211,"anarch":8212,"attain":8213,"enol":8214,"edral":8215,"icos":8216,"aron":8217,"arid":8218,"arity":8219,"orse":8220,"orang":8221,"orically":8222,"orax":8223,"unev":8224,"unwar":8225,"eles":8226,"elas":8227,"rema":8228,"reven":8229,"reinst":8230,"station":8231,"stell":8232,"stark":8233,"leaves":8234,"chos":8235,"chiv":8236,"chill":8237,"chore":8238,"chase":8239,"usable":8240,"ilist":8241,"iline":8242,"olater":8243,"phus":8244,"phos":8245,"pharyn":8246,"iden":8247,"idym":8248,"ulic":8249,"ulidae":8250,"asyn":8251,"oscler":8252,"ambo":8253,"otrophy":8254,"otactic":8255,"otaxis":8256,"advers":8257,"oused":8258,"isters":8259,"riot":8260,"eclip":8261,"opper":8262,"tereb":8263,"impet":8264,"imorph":8265,"impart":8266,"impregn":8267,"agers":8268,"izability":8269,"ocl":8270,"oclas":8271,"odus":8272,"odia":8273,"perv":8274,"aple":8275,"anty":8276,"quil":8277,"shak":8278,"shik":8279,"shovel":8280,"conjunct":8281,"coch":8282,"ellidae":8283,"andy":8284,"anders":8285,"spiro":8286,"prolet":8287,"progress":8288,"epalous":8289,"iano":8290,"prep":8291,"ishers":8292,"hyoid":8293,"iba":8294,"illation":8295,"oby":8296,"obel":8297,"allant":8298,"trinit":8299,"scrub":8300,"deed":8301,"pruss":8302,"manufact":8303,"formic":8304,"blot":8305,"indoc":8306,"subsid":8307,"subtle":8308,"fles":8309,"flap":8310,"flirt":8311,"pariet":8312,"assa":8313,"monk":8314,"tok":8315,"ronic":8316,"lowed":8317,"matric":8318,"ahl":8319,"metat":8320,"orts":8321,"ortion":8322,"polyn":8323,"diest":8324,"poetic":8325,"haus":8326,"minic":8327,"eyer":8328,"ofer":8329,"icephal":8330,"skip":8331,"skill":8332,"myc":8333,"azole":8334,"annic":8335,"annot":8336,"feet":8337,"medit":8338,"orean":8339,"ogenetically":8340,"omyc":8341,"ochrome":8342,"pyg":8343,"malign":8344,"hemoglobin":8345,"cheon":8346,"ificator":8347,"rolith":8348,"sales":8349,"brew":8350,"ething":8351,"catac":8352,"culous":8353,"caps":8354,"capsul":8355,"rhom":8356,"caj":8357,"ordination":8358,"unning":8359,"reflex":8360,"predec":8361,"predest":8362,"humor":8363,"agnetic":8364,"ussing":8365,"omatically":8366,"shepher":8367,"hypop":8368,"uki":8369,"remuner":8370,"ginger":8371,"tailor":8372,"confident":8373,"compuls":8374,"distingu":8375,"unched":8376,"teles":8377,"daugh":8378,"symphon":8379,"rification":8380,"ozyg":8381,"ipher":8382,"sweep":8383,"globul":8384,"uminous":8385,"campan":8386,"contradict":8387,"lived":8388,"fires":8389,"fibrin":8390,"Hydro":8391,"satir":8392,"encephalic":8393,"coccy":8394,"throated":8395,"feder":8396,"scarlet":8397,"ocarpus":8398,"loidy":8399,"mongering":8400,"sparrow":8401,"natural":8402,"pleasure":8403,"gemm":8404,"omalacia":8405,"multiplic":8406,"dialog":8407,"ulphur":8408,"demonstr":8409,"White":8410,"diffus":8411,"epsis":8412,"Cerat":8413,"paradox":8414,"Irish":8415,"orbital":8416,"experiment":8417,"husband":8418,"righte":8419,"abdominal":8420,"Crypt":8421,"amalgam":8422,"thousand":8423,"absolut":8424,"annihil":8425,"Bog":8426,"Bart":8427,"Cly":8428,"Coc":8429,"Cory":8430,"Dend":8431,"FT":8432,"Hind":8433,"Kon":8434,"Les":8435,"MM":8436,"Mu":8437,"Mess":8438,"Mark":8439,"Pand":8440,"Pier":8441,"Que":8442,"RP":8443,"Sept":8444,"Ta":8445,"Trich":8446,"Um":8447,"aort":8448,"biv":8449,"bate":8450,"bier":8451,"bisc":8452,"dine":8453,"dyn":8454,"damp":8455,"een":8456,"eug":8457,"fect":8458,"frum":8459,"giness":8460,"iaries":8461,"jin":8462,"jes":8463,"jal":8464,"jamb":8465,"kab":8466,"kum":8467,"kir":8468,"oa":8469,"poc":8470,"pies":8471,"ridae":8472,"sang":8473,"sphyg":8474,"tant":8475,"tass":8476,"trom":8477,"tled":8478,"tire":8479,"tors":8480,"taking":8481,"wab":8482,"wist":8483,"wav":8484,"wang":8485,"yth":8486,"yam":8487,"yach":8488,"zers":8489,"erman":8490,"inol":8491,"inquis":8492,"onomy":8493,"onomat":8494,"esville":8495,"anx":8496,"anast":8497,"anachron":8498,"alge":8499,"isers":8500,"arse":8501,"argy":8502,"armor":8503,"orily":8504,"itidae":8505,"itors":8506,"itously":8507,"reach":8508,"repress":8509,"stil":8510,"stow":8511,"chie":8512,"iless":8513,"ilous":8514,"olu":8515,"oliv":8516,"etra":8517,"essa":8518,"omach":8519,"uline":8520,"uliferous":8521,"thrill":8522,"urgy":8523,"abund":8524,"enta":8525,"otal":8526,"adar":8527,"adulter":8528,"umn":8529,"rivet":8530,"impost":8531,"impos":8532,"imagin":8533,"agus":8534,"oclim":8535,"odian":8536,"perid":8537,"percept":8538,"iga":8539,"antire":8540,"quizz":8541,"iak":8542,"shade":8543,"shark":8544,"shaft":8545,"loch":8546,"atee":8547,"convert":8548,"contribut":8549,"ellus":8550,"spi":8551,"prol":8552,"proport":8553,"epider":8554,"ibi":8555,"ibular":8556,"seer":8557,"ucin":8558,"hey":8559,"health":8560,"obstruct":8561,"tren":8562,"scare":8563,"ializing":8564,"avow":8565,"fors":8566,"forem":8567,"foreg":8568,"endoth":8569,"clas":8570,"clog":8571,"clap":8572,"ophony":8573,"blur":8574,"ostome":8575,"ostoma":8576,"complic":8577,"boil":8578,"subdu":8579,"ologer":8580,"ologue":8581,"dissim":8582,"flight":8583,"outer":8584,"paroch":8585,"parson":8586,"trace":8587,"lique":8588,"atorship":8589,"mone":8590,"mons":8591,"elyn":8592,"enses":8593,"ensed":8594,"wearing":8595,"oks":8596,"awing":8597,"reser":8598,"bere":8599,"correl":8600,"mates":8601,"matism":8602,"metast":8603,"colloqu":8604,"evac":8605,"slid":8606,"slap":8607,"slave":8608,"founder":8609,"pty":8610,"hai":8611,"romorph":8612,"grade":8613,"gravit":8614,"ovari":8615,"mery":8616,"bring":8617,"brill":8618,"bringing":8619,"retard":8620,"guil":8621,"arched":8622,"pedagog":8623,"announc":8624,"marks":8625,"auk":8626,"orns":8627,"few":8628,"twist":8629,"decem":8630,"gency":8631,"inked":8632,"recre":8633,"swoman":8634,"ificate":8635,"ificative":8636,"pseudom":8637,"ucks":8638,"soled":8639,"knit":8640,"linal":8641,"presumpt":8642,"cancer":8643,"ission":8644,"anks":8645,"ankyl":8646,"arii":8647,"denatur":8648,"ordinate":8649,"inese":8650,"homogene":8651,"drab":8652,"sheath":8653,"pense":8654,"surface":8655,"hypoph":8656,"uku":8657,"equival":8658,"microscop":8659,"reading":8660,"ilda":8661,"builder":8662,"divin":8663,"muscul":8664,"zzle":8665,"daint":8666,"precis":8667,"ospheric":8668,"tariff":8669,"symmet":8670,"effer":8671,"kinet":8672,"bake":8673,"missive":8674,"iscus":8675,"argument":8676,"anthropomorph":8677,"provinc":8678,"setting":8679,"euphem":8680,"litig":8681,"sucker":8682,"vuls":8683,"diast":8684,"encephalon":8685,"prehend":8686,"cephalic":8687,"jeopard":8688,"sentimental":8689,"ogamic":8690,"aguer":8691,"nephro":8692,"drying":8693,"bottomed":8694,"ribbon":8695,"holding":8696,"enzy":8697,"rhythm":8698,"hapl":8699,"paced":8700,"Georg":8701,"easy":8702,"uphol":8703,"ognathous":8704,"maxim":8705,"oprotein":8706,"promise":8707,"ocytosis":8708,"bastard":8709,"major":8710,"feeble":8711,"western":8712,"courag":8713,"telegraph":8714,"fratern":8715,"olysin":8716,"Spanish":8717,"Aster":8718,"BC":8719,"BM":8720,"Bak":8721,"Bron":8722,"Brand":8723,"Cad":8724,"Clo":8725,"Cho":8726,"Ery":8727,"Jew":8728,"Kra":8729,"Pot":8730,"Pyr":8731,"SP":8732,"Si":8733,"Sat":8734,"Ster":8735,"Sig":8736,"Spr":8737,"Spar":8738,"Tub":8739,"Van":8740,"bies":8741,"bran":8742,"bart":8743,"basi":8744,"branchi":8745,"cim":8746,"dag":8747,"daff":8748,"ditch":8749,"dirt":8750,"differ":8751,"dwelling":8752,"fight":8753,"funn":8754,"frust":8755,"gav":8756,"gale":8757,"grot":8758,"hn":8759,"hend":8760,"kl":8761,"kak":8762,"lore":8763,"lair":8764,"lott":8765,"lark":8766,"mow":8767,"mull":8768,"nep":8769,"nib":8770,"nith":8771,"naked":8772,"pish":8773,"pity":8774,"rude":8775,"sass":8776,"scour":8777,"tep":8778,"tast":8779,"tuss":8780,"upro":8781,"vous":8782,"wi":8783,"wl":8784,"went":8785,"write":8786,"anese":8787,"atos":8788,"atae":8789,"envir":8790,"alm":8791,"icter":8792,"arer":8793,"orec":8794,"ingle":8795,"unro":8796,"unil":8797,"itol":8798,"ithy":8799,"elae":8800,"rometer":8801,"reward":8802,"reject":8803,"stib":8804,"leaden":8805,"chers":8806,"raf":8807,"olive":8808,"phall":8809,"phras":8810,"idolat":8811,"lyph":8812,"lyric":8813,"ulos":8814,"thanat":8815,"asa":8816,"urally":8817,"entric":8818,"oscul":8819,"otine":8820,"utz":8821,"rive":8822,"terat":8823,"impar":8824,"agal":8825,"aginous":8826,"verat":8827,"nonsyn":8828,"appear":8829,"shif":8830,"share":8831,"shame":8832,"conver":8833,"convol":8834,"consent":8835,"esteem":8836,"coon":8837,"cobal":8838,"cooper":8839,"ellike":8840,"ande":8841,"spondyl":8842,"prohib":8843,"exes":8844,"exempl":8845,"undem":8846,"inea":8847,"hyphen":8848,"udder":8849,"plural":8850,"illum":8851,"heir":8852,"heeled":8853,"obsess":8854,"obscur":8855,"tron":8856,"tres":8857,"scaph":8858,"deal":8859,"prun":8860,"ectasia":8861,"avian":8862,"mangan":8863,"foreb":8864,"foresh":8865,"ylate":8866,"olograph":8867,"disen":8868,"disse":8869,"disput":8870,"been":8871,"beau":8872,"upon":8873,"flint":8874,"flush":8875,"outst":8876,"outsp":8877,"parch":8878,"parac":8879,"param":8880,"trag":8881,"taen":8882,"ickle":8883,"mented":8884,"moot":8885,"semire":8886,"rops":8887,"metac":8888,"ocker":8889,"souther":8890,"inson":8891,"insular":8892,"egal":8893,"whar":8894,"while":8895,"carrying":8896,"lessnesses":8897,"evan":8898,"evis":8899,"ographs":8900,"ographers":8901,"hail":8902,"tonia":8903,"ageable":8904,"romic":8905,"mini":8906,"reticul":8907,"microg":8908,"archa":8909,"archical":8910,"brav":8911,"pedest":8912,"anny":8913,"annoy":8914,"ornis":8915,"feu":8916,"feat":8917,"declar":8918,"sert":8919,"strand":8920,"unsw":8921,"Chi":8922,"calend":8923,"incul":8924,"rigid":8925,"innoc":8926,"rected":8927,"otheca":8928,"malac":8929,"descri":8930,"hemia":8931,"tural":8932,"ancip":8933,"attend":8934,"salic":8935,"brood":8936,"bromo":8937,"breed":8938,"affection":8939,"zole":8940,"itionist":8941,"handled":8942,"solv":8943,"caten":8944,"contest":8945,"rotten":8946,"ruth":8947,"smok":8948,"capped":8949,"inaug":8950,"harvest":8951,"biot":8952,"sulfur":8953,"value":8954,"Arct":8955,"pauc":8956,"uffs":8957,"humeral":8958,"drain":8959,"transport":8960,"atural":8961,"secur":8962,"embell":8963,"iliac":8964,"tetan":8965,"phenol":8966,"hearth":8967,"philanthrop":8968,"modest":8969,"enteric":8970,"torch":8971,"ospher":8972,"thalass":8973,"sympt":8974,"wake":8975,"olyb":8976,"tallow":8977,"suppl":8978,"radic":8979,"motiv":8980,"sauc":8981,"analysis":8982,"lexic":8983,"sacro":8984,"opteran":8985,"popular":8986,"arteri":8987,"litho":8988,"casting":8989,"rability":8990,"begotten":8991,"turning":8992,"ocephalus":8993,"sixty":8994,"pastor":8995,"approach":8996,"someness":8997,"griev":8998,"benzene":8999,"sequential":9000,"destro":9001,"honest":9002,"didn":9003,"vacu":9004,"suspic":9005,"raceous":9006,"lected":9007,"branched":9008,"oietic":9009,"advantage":9010,"Scott":9011,"battle":9012,"valued":9013,"printing":9014,"cosmopol":9015,"hunger":9016,"epitheli":9017,"professional":9018,"odynamic":9019,"Greco":9020,"changing":9021,"origin":9022,"complexioned":9023,"column":9024,"scyph":9025,"hoofed":9026,"shouldered":9027,"ecclesiast":9028,"blossom":9029,"obenzene":9030,"overeign":9031,"BO":9032,"Bob":9033,"Brad":9034,"Cab":9035,"Cot":9036,"Cong":9037,"Coh":9038,"Crist":9039,"EE":9040,"Eug":9041,"Egy":9042,"GA":9043,"GS":9044,"Hop":9045,"Hill":9046,"Hipp":9047,"IP":9048,"Id":9049,"Ich":9050,"Jap":9051,"Ko":9052,"Kil":9053,"Kath":9054,"Lac":9055,"Lag":9056,"Oct":9057,"Pop":9058,"Phal":9059,"SE":9060,"ST":9061,"Sap":9062,"Stra":9063,"Tap":9064,"Win":9065,"Yor":9066,"aum":9067,"bian":9068,"brat":9069,"bidd":9070,"cure":9071,"eum":9072,"ease":9073,"gable":9074,"hitch":9075,"iid":9076,"jou":9077,"john":9078,"kah":9079,"lanc":9080,"lumb":9081,"lump":9082,"mite":9083,"mie":9084,"mier":9085,"named":9086,"pingly":9087,"pann":9088,"rish":9089,"tod":9090,"tied":9091,"tale":9092,"vot":9093,"yon":9094,"zier":9095,"zone":9096,"inized":9097,"anct":9098,"ancer":9099,"anomal":9100,"atrop":9101,"also":9102,"isin":9103,"orist":9104,"unbo":9105,"unmar":9106,"unvit":9107,"elor":9108,"elong":9109,"elitis":9110,"rosy":9111,"reas":9112,"remed":9113,"repet":9114,"revis":9115,"rejo":9116,"reconc":9117,"regener":9118,"reaction":9119,"style":9120,"leb":9121,"lew":9122,"lear":9123,"leted":9124,"leuco":9125,"chip":9126,"usia":9127,"ilating":9128,"phrag":9129,"omus":9130,"omantic":9131,"iones":9132,"acities":9133,"ulch":9134,"ulite":9135,"thwart":9136,"thrift":9137,"assu":9138,"asian":9139,"urist":9140,"abial":9141,"absent":9142,"ento":9143,"empy":9144,"emuls":9145,"emancip":9146,"amite":9147,"amaz":9148,"ameb":9149,"admon":9150,"oglos":9151,"ecal":9152,"opers":9153,"oppress":9154,"imide":9155,"agit":9156,"aggrav":9157,"ocor":9158,"odra":9159,"odec":9160,"noner":9161,"ifs":9162,"ellable":9163,"ellae":9164,"ellated":9165,"spik":9166,"unden":9167,"undet":9168,"inee":9169,"illusion":9170,"seg":9171,"hew":9172,"hears":9173,"prink":9174,"ceed":9175,"neb":9176,"manager":9177,"ako":9178,"ostenosis":9179,"comple":9180,"indent":9181,"bout":9182,"dispos":9183,"beast":9184,"teach":9185,"upright":9186,"ieg":9187,"outed":9188,"parach":9189,"parthen":9190,"worst":9191,"assess":9192,"assur":9193,"assist":9194,"taper":9195,"taint":9196,"tole":9197,"toil":9198,"ensor":9199,"awak":9200,"aways":9201,"resin":9202,"resid":9203,"oneu":9204,"activity":9205,"metabol":9206,"soid":9207,"ithal":9208,"carnal":9209,"pool":9210,"pey":9211,"peas":9212,"ptian":9213,"grap":9214,"oft":9215,"brin":9216,"bride":9217,"microph":9218,"pedic":9219,"iches":9220,"auro":9221,"ornament":9222,"feoff":9223,"seren":9224,"aute":9225,"olds":9226,"unga":9227,"ungen":9228,"incap":9229,"incub":9230,"incrust":9231,"aneousness":9232,"sonville":9233,"omechan":9234,"centrif":9235,"goer":9236,"attest":9237,"hyperbol":9238,"phalang":9239,"palud":9240,"democrat":9241,"polymer":9242,"solar":9243,"culp":9244,"rotund":9245,"ariaceae":9246,"bias":9247,"balsam":9248,"elda":9249,"lake":9250,"predef":9251,"primit":9252,"uffer":9253,"photot":9254,"pursu":9255,"rider":9256,"humili":9257,"ationalist":9258,"mellow":9259,"velvet":9260,"strad":9261,"pike":9262,"dye":9263,"dyed":9264,"dyst":9265,"remitt":9266,"nerve":9267,"nerved":9268,"besh":9269,"secular":9270,"limit":9271,"creep":9272,"unky":9273,"pulp":9274,"divid":9275,"scribing":9276,"telep":9277,"gonna":9278,"immers":9279,"bands":9280,"radical":9281,"audi":9282,"cardinal":9283,"laced":9284,"devouring":9285,"framed":9286,"labi":9287,"organization":9288,"sulpho":9289,"sinist":9290,"circumst":9291,"virgin":9292,"specific":9293,"instinct":9294,"setter":9295,"vicar":9296,"placent":9297,"titan":9298,"linesses":9299,"federal":9300,"sapon":9301,"cholester":9302,"bronze":9303,"ifera":9304,"falcon":9305,"ophysial":9306,"prosely":9307,"happy":9308,"neglect":9309,"hopper":9310,"oplasmic":9311,"raceae":9312,"cleaning":9313,"gutt":9314,"practic":9315,"measure":9316,"dressed":9317,"piercing":9318,"jargon":9319,"consult":9320,"Pyth":9321,"cerebro":9322,"introspect":9323,"structed":9324,"walker":9325,"external":9326,"eighty":9327,"ogastric":9328,"inherit":9329,"Austral":9330,"ococcus":9331,"jewel":9332,"embarrass":9333,"imbric":9334,"ocrystall":9335,"vapour":9336,"descend":9337,"fringed":9338,"phthong":9339,"neighbor":9340,"resurrect":9341,"orrhoea":9342,"amygdal":9343,"Ass":9344,"Cut":9345,"Cob":9346,"Cow":9347,"Caly":9348,"DN":9349,"Dun":9350,"Dom":9351,"Et":9352,"Eri":9353,"Echin":9354,"FR":9355,"Fin":9356,"Gon":9357,"Gay":9358,"Greg":9359,"HA":9360,"HE":9361,"Hon":9362,"Hur":9363,"Hem":9364,"Heli":9365,"IR":9366,"Jen":9367,"Kn":9368,"Ku":9369,"Lut":9370,"Mand":9371,"Mong":9372,"Nat":9373,"Nar":9374,"Nap":9375,"Nord":9376,"Op":9377,"Ox":9378,"Oak":9379,"Raph":9380,"Syl":9381,"Ton":9382,"Winn":9383,"Zyg":9384,"aith":9385,"boss":9386,"cest":9387,"celled":9388,"code":9389,"dad":9390,"dug":9391,"dron":9392,"dual":9393,"dove":9394,"euch":9395,"fad":9396,"fide":9397,"finn":9398,"final":9399,"finned":9400,"gog":9401,"gaw":9402,"giant":9403,"hl":9404,"iantly":9405,"jap":9406,"jee":9407,"kur":9408,"kitt":9409,"killing":9410,"kneed":9411,"lish":9412,"lumber":9413,"mord":9414,"mias":9415,"mott":9416,"nuc":9417,"numb":9418,"oir":9419,"oidean":9420,"pess":9421,"pied":9422,"pawn":9423,"rence":9424,"riloqu":9425,"sard":9426,"tex":9427,"tine":9428,"ties":9429,"tak":9430,"tug":9431,"twe":9432,"tung":9433,"trol":9434,"upr":9435,"vam":9436,"via":9437,"void":9438,"wra":9439,"wom":9440,"wob":9441,"wak":9442,"weld":9443,"waters":9444,"wrath":9445,"ylo":9446,"zable":9447,"erism":9448,"erie":9449,"inde":9450,"instr":9451,"invit":9452,"incorpor":9453,"onent":9454,"enlight":9455,"aliment":9456,"oris":9457,"oras":9458,"orcin":9459,"itia":9460,"itian":9461,"elus":9462,"elier":9463,"rode":9464,"roup":9465,"repar":9466,"reple":9467,"recal":9468,"stol":9469,"stable":9470,"steth":9471,"stigmat":9472,"leis":9473,"leigh":9474,"checker":9475,"ilis":9476,"ilizing":9477,"older":9478,"etus":9479,"etum":9480,"phonic":9481,"phthal":9482,"idel":9483,"idge":9484,"idities":9485,"idered":9486,"acial":9487,"accur":9488,"acral":9489,"accompan":9490,"thion":9491,"entit":9492,"emata":9493,"otus":9494,"adorn":9495,"ousing":9496,"ogan":9497,"riest":9498,"oppos":9499,"ivate":9500,"ags":9501,"agar":9502,"occur":9503,"oden":9504,"perme":9505,"apit":9506,"antiv":9507,"quill":9508,"sustain":9509,"shr":9510,"shrub":9511,"loos":9512,"coph":9513,"coul":9514,"androg":9515,"androus":9516,"spad":9517,"spike":9518,"exerc":9519,"exorc":9520,"preach":9521,"pluck":9522,"oba":9523,"oble":9524,"obot":9525,"obate":9526,"obser":9527,"tral":9528,"scam":9529,"scape":9530,"deg":9531,"dehyd":9532,"prism":9533,"printed":9534,"avoid":9535,"mania":9536,"manner":9537,"endors":9538,"yland":9539,"clusive":9540,"commiss":9541,"comprehens":9542,"indist":9543,"independ":9544,"indemn":9545,"anged":9546,"angelic":9547,"suber":9548,"dispers":9549,"dissent":9550,"being":9551,"fluct":9552,"outd":9553,"traged":9554,"cten":9555,"tains":9556,"cyon":9557,"cyto":9558,"atorially":9559,"interest":9560,"fulmin":9561,"fuller":9562,"ensian":9563,"ensively":9564,"ieres":9565,"ideous":9566,"award":9567,"hoo":9568,"glu":9569,"glar":9570,"glam":9571,"redec":9572,"semig":9573,"semian":9574,"arts":9575,"ahan":9576,"yses":9577,"colic":9578,"poke":9579,"slick":9580,"fove":9581,"answer":9582,"heres":9583,"letic":9584,"meet":9585,"oxys":9586,"skel":9587,"geries":9588,"thear":9589,"decid":9590,"decad":9591,"seraph":9592,"stru":9593,"axy":9594,"autot":9595,"olding":9596,"mensu":9597,"igning":9598,"anthous":9599,"blem":9600,"swine":9601,"relation":9602,"relie":9603,"arean":9604,"goos":9605,"ancest":9606,"aired":9607,"ificatory":9608,"affron":9609,"pets":9610,"pett":9611,"catalog":9612,"presup":9613,"presub":9614,"contamin":9615,"contempl":9616,"ariidae":9617,"border":9618,"rhagia":9619,"denomin":9620,"accep":9621,"sulphon":9622,"valet":9623,"cracker":9624,"charm":9625,"refin":9626,"commut":9627,"homolog":9628,"purchas":9629,"pressure":9630,"urably":9631,"urableness":9632,"urability":9633,"makers":9634,"added":9635,"prayer":9636,"foots":9637,"faces":9638,"extend":9639,"greed":9640,"transpar":9641,"config":9642,"trouble":9643,"plicated":9644,"pulmon":9645,"divul":9646,"entertain":9647,"Stan":9648,"otypes":9649,"imming":9650,"immig":9651,"ergic":9652,"summar":9653,"radiot":9654,"vesic":9655,"ophyce":9656,"sacrific":9657,"fraught":9658,"arthritis":9659,"Ind":9660,"treason":9661,"thesia":9662,"judging":9663,"opodium":9664,"electroly":9665,"aggle":9666,"camel":9667,"chemic":9668,"attered":9669,"playing":9670,"sleek":9671,"profan":9672,"paleo":9673,"glyc":9674,"Hyper":9675,"urgic":9676,"echin":9677,"suffer":9678,"fleck":9679,"hypothec":9680,"washing":9681,"acquies":9682,"plume":9683,"opolis":9684,"obiology":9685,"ippus":9686,"Hebra":9687,"acoust":9688,"drops":9689,"granul":9690,"woolly":9691,"pecul":9692,"ocarcin":9693,"maybe":9694,"pronounc":9695,"nickel":9696,"cerebr":9697,"epithel":9698,"ochemistry":9699,"steeple":9700,"Megal":9701,"militar":9702,"ahedron":9703,"pancreat":9704,"obranchia":9705,"squirrel":9706,"shoulder":9707,"ipotent":9708,"pyramid":9709,"prompt":9710,"oplegia":9711,"floccul":9712,"algebra":9713,"Ae":9714,"Amar":9715,"Bet":9716,"Buc":9717,"Buck":9718,"Boy":9719,"Cav":9720,"Dul":9721,"Ep":9722,"Ear":9723,"FA":9724,"Fel":9725,"Gir":9726,"High":9727,"King":9728,"Lav":9729,"MD":9730,"Mun":9731,"Olym":9732,"Pant":9733,"Pont":9734,"Ran":9735,"Rab":9736,"Rud":9737,"Sad":9738,"Tib":9739,"VS":9740,"awe":9741,"avers":9742,"afore":9743,"bant":9744,"bote":9745,"budd":9746,"cib":9747,"caf":9748,"cave":9749,"dign":9750,"drown":9751,"dental":9752,"dextr":9753,"eject":9754,"fuc":9755,"fuss":9756,"fying":9757,"gip":9758,"gish":9759,"gone":9760,"glow":9761,"iker":9762,"kenn":9763,"kitch":9764,"math":9765,"nett":9766,"nimble":9767,"oom":9768,"oul":9769,"olet":9770,"oons":9771,"pings":9772,"pamph":9773,"rise":9774,"rings":9775,"rue":9776,"rators":9777,"sull":9778,"scow":9779,"tink":9780,"tatt":9781,"vom":9782,"varn":9783,"watt":9784,"eros":9785,"inary":9786,"anin":9787,"anorth":9788,"atious":9789,"ativity":9790,"icus":9791,"arrest":9792,"unwe":9793,"unfe":9794,"untw":9795,"unmed":9796,"itically":9797,"itousness":9798,"itiner":9799,"elast":9800,"rean":9801,"reins":9802,"stab":9803,"stann":9804,"strict":9805,"leman":9806,"lete":9807,"chia":9808,"challen":9809,"ravel":9810,"olly":9811,"etian":9812,"omist":9813,"omeg":9814,"idation":9815,"acclimat":9816,"ulted":9817,"ulled":9818,"urid":9819,"abond":9820,"oside":9821,"otonic":9822,"adopt":9823,"rifer":9824,"ripen":9825,"opes":9826,"opor":9827,"opsy":9828,"opped":9829,"ivy":9830,"ivistic":9831,"imus":9832,"immed":9833,"agent":9834,"agement":9835,"izard":9836,"ocom":9837,"igated":9838,"igram":9839,"antry":9840,"antie":9841,"quist":9842,"quir":9843,"shor":9844,"iflu":9845,"ippe":9846,"contain":9847,"coinc":9848,"couch":9849,"ellent":9850,"spas":9851,"spine":9852,"spath":9853,"spout":9854,"progn":9855,"exam":9856,"exact":9857,"epin":9858,"epiz":9859,"iancy":9860,"iances":9861,"undy":9862,"asth":9863,"astical":9864,"ineal":9865,"ishingly":9866,"uda":9867,"sew":9868,"seat":9869,"obliv":9870,"alli":9871,"scep":9872,"dean":9873,"devi":9874,"ects":9875,"ective":9876,"manic":9877,"forer":9878,"former":9879,"akis":9880,"ylon":9881,"claw":9882,"ugu":9883,"ostal":9884,"ostomatous":9885,"comfort":9886,"indign":9887,"subtil":9888,"bef":9889,"bey":9890,"beach":9891,"behav":9892,"parted":9893,"tragic":9894,"worded":9895,"atorium":9896,"achi":9897,"result":9898,"hoy":9899,"gla":9900,"soil":9901,"egu":9902,"egreg":9903,"carbur":9904,"polish":9905,"diph":9906,"diagram":9907,"illeg":9908,"pounder":9909,"sling":9910,"slate":9911,"slang":9912,"pton":9913,"romant":9914,"mina":9915,"bars":9916,"barked":9917,"herpet":9918,"merchant":9919,"bris":9920,"skins":9921,"myster":9922,"burs":9923,"brace":9924,"brack":9925,"ichord":9926,"ashi":9927,"axed":9928,"unsol":9929,"owner":9930,"owned":9931,"onga":9932,"eptive":9933,"hydraz":9934,"gris":9935,"grub":9936,"iko":9937,"genic":9938,"ained":9939,"innate":9940,"anee":9941,"othorax":9942,"sonnet":9943,"desulfur":9944,"bedded":9945,"hemic":9946,"relev":9947,"turbin":9948,"airn":9949,"rolite":9950,"venge":9951,"salmon":9952,"encumber":9953,"catcher":9954,"canker":9955,"rule":9956,"queer":9957,"caes":9958,"schemat":9959,"harm":9960,"ringing":9961,"synd":9962,"unfri":9963,"vention":9964,"pattern":9965,"prior":9966,"wares":9967,"erna":9968,"melt":9969,"yllable":9970,"restra":9971,"viper":9972,"tenu":9973,"bonnet":9974,"ocycl":9975,"ocytic":9976,"phyto":9977,"uka":9978,"extrem":9979,"extempor":9980,"gyro":9981,"transpl":9982,"atures":9983,"splash":9984,"created":9985,"compact":9986,"Shel":9987,"anticom":9988,"winding":9989,"ertion":9990,"scribe":9991,"omorpha":9992,"otypy":9993,"dogs":9994,"iacs":9995,"cherry":9996,"imput":9997,"adenitis":9998,"onymic":9999,"looks":10000,"dipter":10001,"arthrosis":10002,"Indian":10003,"mutual":10004,"ophorus":10005,"chemistry":10006,"attering":10007,"vertible":10008,"institutional":10009,"foli":10010,"reviv":10011,"revoc":10012,"mistress":10013,"odermic":10014,"alytic":10015,"drink":10016,"turnip":10017,"emplo":10018,"laying":10019,"papill":10020,"chrome":10021,"masters":10022,"ocratical":10023,"brief":10024,"sanit":10025,"suffrag":10026,"licent":10027,"blowing":10028,"frivol":10029,"frizz":10030,"dishon":10031,"vocal":10032,"griff":10033,"climbing":10034,"total":10035,"hepatic":10036,"odontoid":10037,"ganglion":10038,"Cycl":10039,"caval":10040,"rhynch":10041,"planted":10042,"washer":10043,"suspens":10044,"seeing":10045,"hilar":10046,"marty":10047,"Myx":10048,"elegraph":10049,"heroic":10050,"binding":10051,"horses":10052,"metaphys":10053,"widow":10054,"sibil":10055,"international":10056,"fossil":10057,"prophet":10058,"allevi":10059,"arctic":10060,"myrmec":10061,"government":10062,"insurrect":10063,"nectar":10064,"ifoliate":10065,"celebr":10066,"tobacco":10067,"heathen":10068,"Sphaer":10069,"grinding":10070,"skirted":10071,"eagle":10072,"thoughted":10073,"Jesuit":10074,"rhabd":10075,"Aph":10076,"Arab":10077,"But":10078,"Bri":10079,"Burn":10080,"Brun":10081,"Cant":10082,"Cay":10083,"Carp":10084,"Cephal":10085,"Dow":10086,"Dry":10087,"Ever":10088,"Fra":10089,"Fur":10090,"Gard":10091,"Has":10092,"Haz":10093,"Ju":10094,"Jess":10095,"Jam":10096,"Just":10097,"Jah":10098,"Kas":10099,"Kim":10100,"LL":10101,"Mit":10102,"NP":10103,"NU":10104,"Pon":10105,"Pitt":10106,"Ru":10107,"SA":10108,"SI":10109,"Ten":10110,"Tol":10111,"Tab":10112,"Tham":10113,"Ve":10114,"Xanth":10115,"aught":10116,"boc":10117,"baff":10118,"bele":10119,"bunk":10120,"bump":10121,"cter":10122,"cated":10123,"clow":10124,"crag":10125,"cigar":10126,"dall":10127,"dition":10128,"fon":10129,"fis":10130,"fisted":10131,"gull":10132,"gets":10133,"hic":10134,"hik":10135,"hunt":10136,"huge":10137,"iy":10138,"iologic":10139,"jell":10140,"kot":10141,"kier":10142,"kiest":10143,"lave":10144,"mudd":10145,"nation":10146,"nip":10147,"nay":10148,"pah":10149,"padd":10150,"punk":10151,"pudding":10152,"rarch":10153,"rere":10154,"rants":10155,"sau":10156,"sink":10157,"samb":10158,"sister":10159,"uche":10160,"vad":10161,"vical":10162,"vard":10163,"vascular":10164,"wam":10165,"xis":10166,"yester":10167,"zation":10168,"zir":10169,"erupt":10170,"atl":10171,"atar":10172,"atian":10173,"enous":10174,"alable":10175,"alike":10176,"edic":10177,"isco":10178,"isian":10179,"iculture":10180,"arrog":10181,"unel":10182,"uninf":10183,"uneff":10184,"item":10185,"itely":10186,"itone":10187,"elers":10188,"retr":10189,"rebo":10190,"rete":10191,"strig":10192,"strep":10193,"stagn":10194,"stump":10195,"lep":10196,"lemon":10197,"leader":10198,"chus":10199,"rableness":10200,"olated":10201,"olitan":10202,"eties":10203,"etho":10204,"phe":10205,"phin":10206,"omethane":10207,"idle":10208,"idist":10209,"ididae":10210,"acan":10211,"ulu":10212,"thly":10213,"asphy":10214,"urch":10215,"urian":10216,"abular":10217,"entia":10218,"embal":10219,"osphen":10220,"osarcoma":10221,"adec":10222,"adable":10223,"uto":10224,"umar":10225,"ecraft":10226,"opyr":10227,"opneum":10228,"ivation":10229,"implic":10230,"agi":10231,"agr":10232,"agous":10233,"agli":10234,"ocere":10235,"oclastic":10236,"ocracies":10237,"permut":10238,"vertic":10239,"nonconf":10240,"apes":10241,"apop":10242,"anto":10243,"antial":10244,"antee":10245,"quake":10246,"irus":10247,"shi":10248,"shall":10249,"shining":10250,"shrink":10251,"loom":10252,"coth":10253,"coup":10254,"counc":10255,"elline":10256,"spy":10257,"spice":10258,"sprit":10259,"proter":10260,"proton":10261,"promot":10262,"prospect":10263,"explan":10264,"expression":10265,"epe":10266,"ismic":10267,"unda":10268,"undev":10269,"astig":10270,"uds":10271,"overpro":10272,"illess":10273,"illage":10274,"segreg":10275,"segment":10276,"heels":10277,"obj":10278,"obsc":10279,"ardo":10280,"scram":10281,"scrup":10282,"scraw":10283,"pride":10284,"avit":10285,"endum":10286,"blush":10287,"bladed":10288,"compound":10289,"ologizing":10290,"disper":10291,"bez":10292,"beater":10293,"beaked":10294,"teg":10295,"teacher":10296,"ieu":10297,"flike":10298,"parcel":10299,"interject":10300,"enser":10301,"mise":10302,"wealth":10303,"intoler":10304,"mould":10305,"ranial":10306,"rician":10307,"matter":10308,"mative":10309,"glers":10310,"glamor":10311,"rede":10312,"semiv":10313,"sof":10314,"sov":10315,"soot":10316,"soup":10317,"whor":10318,"whale":10319,"collabor":10320,"oides":10321,"political":10322,"dik":10323,"pouch":10324,"slumber":10325,"derog":10326,"foun":10327,"romous":10328,"grasp":10329,"graft":10330,"gravel":10331,"thermal":10332,"minis":10333,"minute":10334,"barric":10335,"bargain":10336,"skid":10337,"mycet":10338,"burst":10339,"guys":10340,"guilt":10341,"arche":10342,"feit":10343,"headedly":10344,"uncal":10345,"unciation":10346,"uncircum":10347,"unsus":10348,"Chry":10349,"Chlor":10350,"Ang":10351,"eptate":10352,"incis":10353,"genetic":10354,"aines":10355,"ocha":10356,"ochromat":10357,"onda":10358,"innov":10359,"pycn":10360,"poss":10361,"poses":10362,"posable":10363,"sway":10364,"centric":10365,"porous":10366,"airs":10367,"airy":10368,"aphth":10369,"affl":10370,"ethic":10371,"ennes":10372,"demand":10373,"panthe":10374,"polyp":10375,"encir":10376,"amby":10377,"elephant":10378,"culum":10379,"isses":10380,"borg":10381,"rhomb":10382,"rhaps":10383,"caper":10384,"steat":10385,"accred":10386,"synerg":10387,"valent":10388,"ionalism":10389,"unner":10390,"election":10391,"crap":10392,"crazy":10393,"charging":10394,"uffing":10395,"squaw":10396,"purse":10397,"ridicul":10398,"agnosis":10399,"belief":10400,"ohist":10401,"viable":10402,"deline":10403,"omatosis":10404,"iffs":10405,"piper":10406,"cirro":10407,"equivoc":10408,"iferousness":10409,"benevol":10410,"hydroly":10411,"vitri":10412,"thyroid":10413,"ballad":10414,"harden":10415,"crypto":10416,"joined":10417,"concret":10418,"missible":10419,"bullet":10420,"amphic":10421,"extravag":10422,"lasm":10423,"bowl":10424,"lacer":10425,"ophilist":10426,"witness":10427,"crooked":10428,"idential":10429,"local":10430,"whey":10431,"escency":10432,"opteris":10433,"gamet":10434,"should":10435,"euph":10436,"pelt":10437,"castle":10438,"fiber":10439,"Hyd":10440,"sediment":10441,"drill":10442,"cornered":10443,"Ornith":10444,"iolate":10445,"papy":10446,"juris":10447,"ospasm":10448,"ospondyl":10449,"cellar":10450,"botan":10451,"magist":10452,"rolls":10453,"flagellate":10454,"ocarpic":10455,"palaeo":10456,"chanter":10457,"hurst":10458,"saving":10459,"Turko":10460,"around":10461,"packed":10462,"prosop":10463,"machin":10464,"puppet":10465,"amido":10466,"convex":10467,"convey":10468,"random":10469,"flavored":10470,"epigram":10471,"akespe":10472,"breathed":10473,"journ":10474,"quarrel":10475,"victim":10476,"Acanth":10477,"wisdom":10478,"phaner":10479,"eaten":10480,"oparas":10481,"plagiar":10482,"ostomous":10483,"puer":10484,"issue":10485,"Chaet":10486,"dandy":10487,"chisis":10488,"naphthal":10489,"arithmet":10490,"odendron":10491,"duodec":10492,"ifolious":10493,"scandal":10494,"molecular":10495,"fragment":10496,"syllog":10497,"arachn":10498,"Welsh":10499,"endocrin":10500,"Hellen":10501,"peacock":10502,"nothing":10503,"strewn":10504,"ophageal":10505,"Hibern":10506,"trapez":10507,"daughter":10508,"upholster":10509,"Adri":10510,"Bed":10511,"Bus":10512,"Band":10513,"Brig":10514,"Beth":10515,"CL":10516,"CP":10517,"CT":10518,"DB":10519,"DU":10520,"Eph":10521,"East":10522,"Esk":10523,"Eld":10524,"Ess":10525,"Euph":10526,"Europ":10527,"Fort":10528,"Gri":10529,"Hom":10530,"Haw":10531,"IA":10532,"IO":10533,"Lepid":10534,"Mod":10535,"Math":10536,"Mith":10537,"Nab":10538,"Pis":10539,"Pra":10540,"Pul":10541,"RM":10542,"Ric":10543,"Sed":10544,"Sib":10545,"Sak":10546,"Sau":10547,"Smith":10548,"South":10549,"UN":10550,"VA":10551,"Viv":10552,"WS":10553,"Wend":10554,"bagg":10555,"cil":10556,"cres":10557,"catt":10558,"dox":10559,"dorm":10560,"darn":10561,"eager":10562,"fry":10563,"fanc":10564,"foll":10565,"fame":10566,"fusc":10567,"frug":10568,"fuzz":10569,"goth":10570,"gilt":10571,"hush":10572,"hagg":10573,"husk":10574,"iations":10575,"iosis":10576,"jung":10577,"kis":10578,"kow":10579,"kha":10580,"lau":10581,"miest":10582,"mule":10583,"molyb":10584,"nug":10585,"oist":10586,"pung":10587,"rho":10588,"ruck":10589,"same":10590,"tup":10591,"tith":10592,"wack":10593,"wrest":10594,"yod":10595,"yarn":10596,"zero":10597,"incarn":10598,"only":10599,"esters":10600,"aning":10601,"anom":10602,"anos":10603,"anagram":10604,"atia":10605,"enet":10606,"enger":10607,"enanti":10608,"icles":10609,"armo":10610,"ario":10611,"orot":10612,"uncar":10613,"unbes":10614,"itro":10615,"rook":10616,"rex":10617,"recl":10618,"react":10619,"stau":10620,"stamp":10621,"stood":10622,"chess":10623,"chatt":10624,"chested":10625,"channel":10626,"ilion":10627,"ilver":10628,"olent":10629,"olos":10630,"etor":10631,"etize":10632,"etown":10633,"phae":10634,"phthis":10635,"omys":10636,"idene":10637,"idase":10638,"acing":10639,"ulia":10640,"thum":10641,"those":10642,"thatch":10643,"asbest":10644,"urism":10645,"abys":10646,"abhor":10647,"embr":10648,"osus":10649,"osoma":10650,"amon":10651,"amous":10652,"ammed":10653,"amni":10654,"otting":10655,"adap":10656,"ogal":10657,"ogel":10658,"ogens":10659,"ecess":10660,"ivery":10661,"imens":10662,"again":10663,"oca":10664,"pere":10665,"persuas":10666,"igrade":10667,"verm":10668,"nonrel":10669,"nonrep":10670,"nontrans":10671,"nonspec":10672,"nonsens":10673,"appra":10674,"qued":10675,"shine":10676,"shee":10677,"loo":10678,"lover":10679,"lough":10680,"lobul":10681,"ifted":10682,"iffe":10683,"conic":10684,"confl":10685,"conspir":10686,"concord":10687,"congreg":10688,"coil":10689,"cout":10690,"spel":10691,"spook":10692,"spleen":10693,"spindle":10694,"excurs":10695,"ianic":10696,"astric":10697,"inequ":10698,"oversp":10699,"illin":10700,"uced":10701,"aeol":10702,"heed":10703,"heimer":10704,"ober":10705,"obar":10706,"alliter":10707,"scrag":10708,"dear":10709,"prent":10710,"ayne":10711,"neust":10712,"avail":10713,"mancy":10714,"forget":10715,"clip":10716,"clair":10717,"ophane":10718,"opharyngeal":10719,"uged":10720,"blan":10721,"bland":10722,"blade":10723,"osteg":10724,"ostomata":10725,"comic":10726,"commission":10727,"complement":10728,"angios":10729,"bouch":10730,"bought":10731,"boiler":10732,"beating":10733,"beaver":10734,"ieval":10735,"flum":10736,"parabol":10737,"parliament":10738,"ubiqu":10739,"trach":10740,"trades":10741,"traitor":10742,"assent":10743,"cytop":10744,"cycle":10745,"toff":10746,"syring":10747,"acha":10748,"roned":10749,"reson":10750,"resub":10751,"cored":10752,"corrup":10753,"corrobor":10754,"glauc":10755,"redo":10756,"artite":10757,"articular":10758,"metro":10759,"metab":10760,"ithic":10761,"insk":10762,"egot":10763,"whistle":10764,"carac":10765,"carab":10766,"carcer":10767,"carbol":10768,"urethro":10769,"diphthong":10770,"pox":10771,"peep":10772,"fought":10773,"anson":10774,"grape":10775,"grading":10776,"ults":10777,"roses":10778,"meek":10779,"geront":10780,"archal":10781,"braw":10782,"braz":10783,"twitch":10784,"decre":10785,"ormal":10786,"veh":10787,"veil":10788,"strange":10789,"uncate":10790,"iley":10791,"Anton":10792,"calf":10793,"hydrin":10794,"snar":10795,"snatch":10796,"inna":10797,"recuper":10798,"othy":10799,"swept":10800,"sonic":10801,"cently":10802,"despot":10803,"hemip":10804,"chei":10805,"pseudob":10806,"cured":10807,"salut":10808,"palp":10809,"itioned":10810,"handy":10811,"solen":10812,"preser":10813,"prescript":10814,"contempor":10815,"cula":10816,"earnest":10817,"smut":10818,"smell":10819,"smug":10820,"smelling":10821,"bored":10822,"office":10823,"ragon":10824,"legal":10825,"repur":10826,"infus":10827,"synap":10828,"forms":10829,"commens":10830,"uffy":10831,"photos":10832,"psor":10833,"melon":10834,"multiv":10835,"adding":10836,"topsy":10837,"tenant":10838,"bonn":10839,"surviv":10840,"circle":10841,"noon":10842,"gypsy":10843,"cloak":10844,"ortho":10845,"aero":10846,"cinemat":10847,"cinchon":10848,"comput":10849,"engross":10850,"lection":10851,"Marc":10852,"vituper":10853,"buy":10854,"ifiedly":10855,"muscular":10856,"excav":10857,"protuber":10858,"uncture":10859,"precept":10860,"occipit":10861,"logic":10862,"waiter":10863,"summ":10864,"simon":10865,"lights":10866,"vesicul":10867,"ophyta":10868,"mitting":10869,"helminth":10870,"itorial":10871,"labour":10872,"sweat":10873,"quadrup":10874,"mutton":10875,"tinct":10876,"tinsel":10877,"courte":10878,"urned":10879,"wheeled":10880,"otropically":10881,"camer":10882,"iodide":10883,"factory":10884,"prodig":10885,"europ":10886,"lifer":10887,"sense":10888,"jacket":10889,"odermat":10890,"standing":10891,"fibrill":10892,"iderite":10893,"flour":10894,"nitros":10895,"fourth":10896,"burned":10897,"Schiz":10898,"Orth":10899,"placed":10900,"emption":10901,"initial":10902,"title":10903,"adoes":10904,"Quaker":10905,"uvial":10906,"bergite":10907,"bosomed":10908,"falls":10909,"agua":10910,"approb":10911,"vocifer":10912,"obiological":10913,"something":10914,"spiny":10915,"stepping":10916,"sequest":10917,"figured":10918,"ocoele":10919,"dilat":10920,"perioste":10921,"gynaec":10922,"chondri":10923,"positional":10924,"perfection":10925,"yoke":10926,"seeded":10927,"favour":10928,"multiple":10929,"esthesis":10930,"phyllo":10931,"willy":10932,"studded":10933,"garden":10934,"meaning":10935,"itudes":10936,"cannib":10937,"wearied":10938,"budget":10939,"improvis":10940,"fashioned":10941,"consciousness":10942,"eloqu":10943,"ospermous":10944,"dichotom":10945,"hunter":10946,"itarianism":10947,"skew":10948,"melodra":10949,"ifully":10950,"ifulness":10951,"tawny":10952,"tuned":10953,"glucos":10954,"ulturist":10955,"Juda":10956,"establishment":10957,"function":10958,"learned":10959,"Italian":10960,"stirring":10961,"ectomize":10962,"russian":10963,"politico":10964,"Negro":10965,"propagand":10966,"dollar":10967,"beauty":10968,"omycetes":10969,"formative":10970,"conceptual":10971,"methane":10972,"tulip":10973,"decarbon":10974,"bureauc":10975,"weapon":10976,"oclimat":10977,"destroying":10978,"Ast":10979,"Aver":10980,"Aub":10981,"Afric":10982,"Broad":10983,"Ced":10984,"Cul":10985,"Coch":10986,"Coll":10987,"Celt":10988,"EP":10989,"Eur":10990,"FC":10991,"Fern":10992,"Hun":10993,"How":10994,"Hav":10995,"IN":10996,"LP":10997,"Lon":10998,"Lis":10999,"Lad":11000,"Mak":11001,"Nah":11002,"Og":11003,"Oss":11004,"Pit":11005,"Pad":11006,"Pav":11007,"Pha":11008,"Rot":11009,"Rand":11010,"Som":11011,"Sac":11012,"Sund":11013,"TN":11014,"Tay":11015,"Thal":11016,"Wat":11017,"Was":11018,"Water":11019,"aesthetic":11020,"bine":11021,"bric":11022,"bending":11023,"cric":11024,"cune":11025,"crescent":11026,"dain":11027,"dance":11028,"dwar":11029,"eid":11030,"fter":11031,"fath":11032,"fting":11033,"fels":11034,"frock":11035,"fidd":11036,"foster":11037,"gt":11038,"gne":11039,"gedness":11040,"gently":11041,"gaud":11042,"hass":11043,"hock":11044,"hope":11045,"iatory":11046,"jov":11047,"jux":11048,"kre":11049,"kink":11050,"mok":11051,"mille":11052,"nis":11053,"nir":11054,"nite":11055,"nard":11056,"nomin":11057,"pion":11058,"pam":11059,"pok":11060,"punt":11061,"pott":11062,"rind":11063,"sord":11064,"trow":11065,"titt":11066,"tangle":11067,"vatic":11068,"waste":11069,"yel":11070,"yog":11071,"zia":11072,"zine":11073,"eress":11074,"inan":11075,"insp":11076,"iners":11077,"intoxic":11078,"invalid":11079,"eser":11080,"anor":11081,"anec":11082,"atric":11083,"env":11084,"enas":11085,"enyl":11086,"english":11087,"alex":11088,"isod":11089,"isia":11090,"isingly":11091,"iscope":11092,"icult":11093,"arite":11094,"unent":11095,"unite":11096,"unmor":11097,"itoid":11098,"elim":11099,"elize":11100,"retra":11101,"reme":11102,"retract":11103,"rejuven":11104,"stig":11105,"stabil":11106,"lech":11107,"chak":11108,"chann":11109,"usal":11110,"rael":11111,"olize":11112,"olymph":11113,"etty":11114,"etail":11115,"phs":11116,"phaen":11117,"omia":11118,"ombro":11119,"idig":11120,"idious":11121,"idios":11122,"aculum":11123,"theg":11124,"thimble":11125,"ureless":11126,"abra":11127,"absc":11128,"abeth":11129,"absin":11130,"entine":11131,"emerg":11132,"oseness":11133,"osophy":11134,"amort":11135,"adal":11136,"advoc":11137,"riger":11138,"opping":11139,"opithec":11140,"opportun":11141,"opoietic":11142,"tera":11143,"ivated":11144,"imos":11145,"imple":11146,"imbib":11147,"agle":11148,"agam":11149,"agged":11150,"ocin":11151,"octop":11152,"odous":11153,"odge":11154,"igs":11155,"igenic":11156,"verd":11157,"vermic":11158,"nonev":11159,"api":11160,"apar":11161,"apital":11162,"quib":11163,"quack":11164,"quaint":11165,"loe":11166,"lobed":11167,"consign":11168,"congress":11169,"eston":11170,"cov":11171,"could":11172,"coerc":11173,"ellas":11174,"ellia":11175,"spra":11176,"spade":11177,"spinal":11178,"spray":11179,"proc":11180,"prostat":11181,"exer":11182,"excre":11183,"extern":11184,"experi":11185,"exagger":11186,"epimer":11187,"ersburg":11188,"undra":11189,"undity":11190,"asters":11191,"premed":11192,"preoccup":11193,"ishments":11194,"hym":11195,"plike":11196,"obl":11197,"obs":11198,"obic":11199,"obil":11200,"obrom":11201,"trate":11202,"degener":11203,"prised":11204,"prank":11205,"ayo":11206,"ayable":11207,"neura":11208,"neural":11209,"maneu":11210,"forced":11211,"endered":11212,"ylous":11213,"ylation":11214,"ophren":11215,"blas":11216,"blunder":11217,"blunt":11218,"blame":11219,"ostate":11220,"ostomies":11221,"ostasis":11222,"compress":11223,"ryn":11224,"rypt":11225,"ologized":11226,"disk":11227,"discer":11228,"team":11229,"teut":11230,"teenth":11231,"fling":11232,"trav":11233,"lien":11234,"monet":11235,"toes":11236,"ensible":11237,"misc":11238,"rontal":11239,"resign":11240,"oneural":11241,"corros":11242,"hoar":11243,"glot":11244,"glum":11245,"reduct":11246,"reddish":11247,"seme":11248,"semir":11249,"semide":11250,"metas":11251,"whim":11252,"wholes":11253,"cars":11254,"carrot":11255,"diab":11256,"diad":11257,"slur":11258,"slope":11259,"eternal":11260,"barley":11261,"hermit":11262,"herni":11263,"maph":11264,"merit":11265,"rets":11266,"retent":11267,"abling":11268,"burr":11269,"gues":11270,"azin":11271,"azure":11272,"copic":11273,"automat":11274,"unsat":11275,"Chap":11276,"Chrys":11277,"olded":11278,"oree":11279,"owning":11280,"calvin":11281,"ramine":11282,"grate":11283,"snug":11284,"sniff":11285,"aneity":11286,"pyren":11287,"ritual":11288,"sonia":11289,"pseudod":11290,"curric":11291,"unten":11292,"ethnic":11293,"itises":11294,"panegy":11295,"cataph":11296,"prescri":11297,"ometries":11298,"control":11299,"buty":11300,"ankled":11301,"capac":11302,"cause":11303,"legend":11304,"harness":11305,"lesome":11306,"accident":11307,"arsenic":11308,"warden":11309,"formable":11310,"inescent":11311,"ionalist":11312,"electrop":11313,"ecks":11314,"onica":11315,"predep":11316,"photograph":11317,"squat":11318,"homo":11319,"warp":11320,"timer":11321,"psia":11322,"mesh":11323,"auric":11324,"veloc":11325,"belle":11326,"believ":11327,"ohm":11328,"holid":11329,"uroid":11330,"remod":11331,"facing":11332,"nois":11333,"benign":11334,"confir":11335,"confirm":11336,"tsville":11337,"unks":11338,"spiral":11339,"flowering":11340,"pulpit":11341,"telec":11342,"daub":11343,"hardened":11344,"expend":11345,"crystal":11346,"othermic":11347,"radiate":11348,"filter":11349,"bait":11350,"bully":11351,"radial":11352,"amphig":11353,"mitig":11354,"rusty":11355,"sacer":11356,"fraud":11357,"fraction":11358,"arthrod":11359,"quadrat":11360,"gloom":11361,"ophilism":11362,"fullest":11363,"wittedness":11364,"sinu":11365,"appell":11366,"tubul":11367,"virg":11368,"choir":11369,"opteron":11370,"servant":11371,"ophagia":11372,"gauge":11373,"finished":11374,"poppy":11375,"physical":11376,"crus":11377,"lapid":11378,"lantern":11379,"nitrogen":11380,"yellowish":11381,"thood":11382,"drinking":11383,"algic":11384,"ivalent":11385,"vagabond":11386,"drawer":11387,"cabinet":11388,"ospinal":11389,"sphaer":11390,"nihil":11391,"citizen":11392,"plumed":11393,"jugate":11394,"murder":11395,"trichlor":11396,"ophthalmia":11397,"pterid":11398,"bugs":11399,"folded":11400,"pension":11401,"family":11402,"osauria":11403,"osaurian":11404,"streak":11405,"strept":11406,"ozoa":11407,"positions":11408,"educated":11409,"album":11410,"iques":11411,"osporous":11412,"planting":11413,"mirth":11414,"ocystic":11415,"dialy":11416,"produce":11417,"document":11418,"convinc":11419,"ticket":11420,"closing":11421,"augment":11422,"claimed":11423,"guttur":11424,"mixt":11425,"epigraph":11426,"junction":11427,"magneto":11428,"ninth":11429,"sailor":11430,"journey":11431,"appeas":11432,"official":11433,"reproach":11434,"resolv":11435,"analytic":11436,"robust":11437,"inflamm":11438,"otoxic":11439,"spicy":11440,"painted":11441,"sheriff":11442,"epitom":11443,"odynamics":11444,"applaud":11445,"cylinder":11446,"plagi":11447,"acerb":11448,"pillar":11449,"omaniacal":11450,"changed":11451,"ocardia":11452,"hidden":11453,"whisper":11454,"ophenol":11455,"ounding":11456,"opoiesis":11457,"illionth":11458,"squee":11459,"oplank":11460,"inspiring":11461,"Romano":11462,"theatrical":11463,"ampere":11464,"together":11465,"Odont":11466,"conditioned":11467,"disciplin":11468,"cuckoo":11469,"circuit":11470,"yielding":11471,"fabric":11472,"invigor":11473,"Islam":11474,"fascin":11475,"peopled":11476,"synonym":11477,"rhombo":11478,"environ":11479,"oglossal":11480,"instrument":11481,"diphther":11482,"Ax":11483,"Aly":11484,"Aqu":11485,"Bah":11486,"Bou":11487,"Brid":11488,"Buch":11489,"Balk":11490,"Boe":11491,"Bibl":11492,"Budd":11493,"Cand":11494,"Cort":11495,"Cour":11496,"Camb":11497,"Cla":11498,"Claud":11499,"Fay":11500,"Finn":11501,"Fried":11502,"GE":11503,"Gur":11504,"HO":11505,"Hos":11506,"Hey":11507,"Jay":11508,"Jov":11509,"Jose":11510,"Jeff":11511,"Jacqu":11512,"Kre":11513,"Kle":11514,"Kos":11515,"Kay":11516,"Lock":11517,"Lith":11518,"Mam":11519,"Mell":11520,"Meth":11521,"Nes":11522,"Ow":11523,"Pr":11524,"Pil":11525,"Pip":11526,"Pep":11527,"Pow":11528,"Pale":11529,"Pear":11530,"Plac":11531,"Ry":11532,"Rol":11533,"Rum":11534,"Roy":11535,"Sud":11536,"Soph":11537,"Stro":11538,"Spart":11539,"Sabb":11540,"TP":11541,"TV":11542,"Ted":11543,"Tus":11544,"Till":11545,"Tob":11546,"Tall":11547,"Titan":11548,"Vul":11549,"Vict":11550,"WI":11551,"Wald":11552,"Yan":11553,"Yah":11554,"biz":11555,"byl":11556,"biest":11557,"banner":11558,"cun":11559,"cag":11560,"cale":11561,"cress":11562,"dith":11563,"dram":11564,"fim":11565,"fres":11566,"font":11567,"frit":11568,"friction":11569,"gli":11570,"gorm":11571,"grog":11572,"gift":11573,"gutter":11574,"hin":11575,"hoc":11576,"hull":11577,"huff":11578,"iors":11579,"iography":11580,"iencies":11581,"jab":11582,"jak":11583,"joll":11584,"kt":11585,"kom":11586,"kad":11587,"kho":11588,"lian":11589,"lae":11590,"lens":11591,"ligh":11592,"map":11593,"mies":11594,"mire":11595,"mele":11596,"muff":11597,"mizz":11598,"pith":11599,"porn":11600,"pair":11601,"pix":11602,"pithec":11603,"rha":11604,"rula":11605,"render":11606,"rhea":11607,"siz":11608,"sable":11609,"sah":11610,"sans":11611,"sigh":11612,"section":11613,"snee":11614,"told":11615,"tuck":11616,"tomb":11617,"taste":11618,"tantal":11619,"uros":11620,"uve":11621,"vint":11622,"vah":11623,"wah":11624,"wired":11625,"wreck":11626,"zar":11627,"eri":11628,"inase":11629,"esco":11630,"esce":11631,"anous":11632,"anhyd":11633,"atron":11634,"atax":11635,"enidae":11636,"enlar":11637,"enumer":11638,"alab":11639,"alysis":11640,"edit":11641,"educt":11642,"isoch":11643,"isomer":11644,"arus":11645,"orer":11646,"orin":11647,"oriness":11648,"unif":11649,"unip":11650,"unche":11651,"unvol":11652,"itar":11653,"itly":11654,"itness":11655,"itial":11656,"itability":11657,"elous":11658,"rov":11659,"robot":11660,"rees":11661,"reth":11662,"reinter":11663,"retrans":11664,"reiter":11665,"stry":11666,"stony":11667,"chid":11668,"chari":11669,"ilin":11670,"raco":11671,"raised":11672,"rachi":11673,"ethy":11674,"ethe":11675,"essel":11676,"idy":11677,"acred":11678,"account":11679,"ulid":11680,"ulist":11681,"ulence":11682,"ulently":11683,"ulatively":11684,"ulators":11685,"thr":11686,"thra":11687,"things":11688,"asphal":11689,"aspers":11690,"urite":11691,"abac":11692,"abras":11693,"above":11694,"abnorm":11695,"emes":11696,"otion":11697,"otroph":11698,"otyledon":11699,"adher":11700,"uti":11701,"utely":11702,"umatic":11703,"istan":11704,"rio":11705,"rious":11706,"riven":11707,"ecter":11708,"ecret":11709,"opa":11710,"opel":11711,"opular":11712,"teria":11713,"terrest":11714,"imn":11715,"imy":11716,"agro":11717,"agist":11718,"aggrand":11719,"ocate":11720,"perd":11721,"peria":11722,"perman":11723,"percuss":11724,"igger":11725,"nonvis":11726,"nonequ":11727,"nondist":11728,"apos":11729,"apsul":11730,"antian":11731,"antenn":11732,"quater":11733,"ircular":11734,"loan":11735,"loath":11736,"congen":11737,"conject":11738,"convuls":11739,"este":11740,"cough":11741,"andry":11742,"spum":11743,"spend":11744,"spinous":11745,"expi":11746,"extermin":11747,"explain":11748,"ersome":11749,"prejudic":11750,"ishnesses":11751,"udo":11752,"ibranchiate":11753,"seem":11754,"seated":11755,"uces":11756,"ucco":11757,"heav":11758,"height":11759,"obac":11760,"obile":11761,"tred":11762,"trell":11763,"trend":11764,"arding":11765,"scum":11766,"deoxid":11767,"prene":11768,"avas":11769,"mance":11770,"ylos":11771,"opharyn":11772,"blond":11773,"comet":11774,"combat":11775,"boo":11776,"boiling":11777,"dissem":11778,"discontinu":11779,"tean":11780,"teens":11781,"upa":11782,"flamm":11783,"athia":11784,"paragraph":11785,"taff":11786,"ickers":11787,"monod":11788,"mongr":11789,"internal":11790,"enson":11791,"ensiveness":11792,"syne":11793,"misanthrop":11794,"acephal":11795,"reserv":11796,"berger":11797,"ranean":11798,"corall":11799,"glory":11800,"actically":11801,"redress":11802,"semist":11803,"superfic":11804,"solec":11805,"columb":11806,"carav":11807,"oiditis":11808,"undered":11809,"polic":11810,"died":11811,"diop":11812,"diphenyl":11813,"poth":11814,"hau":11815,"graded":11816,"mines":11817,"rower":11818,"ovo":11819,"hern":11820,"iceous":11821,"mere":11822,"brus":11823,"brist":11824,"retch":11825,"rette":11826,"meeting":11827,"ska":11828,"micr":11829,"gua":11830,"archist":11831,"brave":11832,"aza":11833,"ynous":11834,"hallow":11835,"marine":11836,"margar":11837,"ferv":11838,"ichi":11839,"decur":11840,"decim":11841,"serge":11842,"serving":11843,"plebe":11844,"ledness":11845,"unced":11846,"unsent":11847,"unsav":11848,"alein":11849,"Chem":11850,"Chama":11851,"medull":11852,"ignment":11853,"owns":11854,"counted":11855,"calib":11856,"omycin":11857,"anthem":11858,"incumb":11859,"irement":11860,"ateship":11861,"ramp":11862,"hydat":11863,"ikon":11864,"pork":11865,"desert":11866,"relax":11867,"turkey":11868,"goes":11869,"atti":11870,"pseudor":11871,"pseudol":11872,"pseudof":11873,"rena":11874,"sals":11875,"broker":11876,"affin":11877,"affected":11878,"eths":11879,"Alc":11880,"Ald":11881,"itionary":11882,"paneled":11883,"knack":11884,"ambly":11885,"ambigu":11886,"catar":11887,"preserv":11888,"issimo":11889,"anking":11890,"ualness":11891,"bord":11892,"ragal":11893,"steer":11894,"steal":11895,"hara":11896,"ringed":11897,"infil":11898,"infall":11899,"infection":11900,"balanced":11901,"transvers":11902,"transmut":11903,"formular":11904,"ventriloqu":11905,"inescence":11906,"iasm":11907,"ecked":11908,"rals":11909,"photom":11910,"purpos":11911,"etts":11912,"ernum":11913,"melting":11914,"rumin":11915,"multim":11916,"veling":11917,"ports":11918,"ohed":11919,"tops":11920,"deliver":11921,"holm":11922,"holy":11923,"phytop":11924,"alkalin":11925,"biting":11926,"oscopically":11927,"extinct":11928,"iculus":11929,"iculum":11930,"iculation":11931,"gyps":11932,"horror":11933,"fluent":11934,"defin":11935,"definit":11936,"secl":11937,"embol":11938,"iliate":11939,"iliary":11940,"confeder":11941,"cinct":11942,"creed":11943,"tetrap":11944,"burgh":11945,"pinac":11946,"computer":11947,"trout":11948,"farc":11949,"zzled":11950,"scrib":11951,"uncontra":11952,"rectomy":11953,"daisy":11954,"torrent":11955,"cryst":11956,"tarant":11957,"othermal":11958,"waisted":11959,"hipped":11960,"bulk":11961,"amphit":11962,"psychos":11963,"quinque":11964,"millenn":11965,"onymy":11966,"said":11967,"rifying":11968,"bells":11969,"ematous":11970,"lament":11971,"araj":11972,"devout":11973,"quadru":11974,"Leuc":11975,"treated":11976,"iscip":11977,"otrope":11978,"iodic":11979,"deton":11980,"detract":11981,"roots":11982,"mouths":11983,"McG":11984,"pillow":11985,"played":11986,"eteer":11987,"societ":11988,"stands":11989,"iatrics":11990,"glycol":11991,"dimethyl":11992,"entiality":11993,"flying":11994,"celest":11995,"encephala":11996,"points":11997,"bags":11998,"platitudin":11999,"classic":12000,"rologic":12001,"awned":12002,"throb":12003,"pasteur":12004,"fortune":12005,"obiotic":12006,"sickle":12007,"hibern":12008,"candid":12009,"sawing":12010,"phosphat":12011,"discuss":12012,"nyct":12013,"slipper":12014,"dropping":12015,"iberian":12016,"agogic":12017,"odonta":12018,"ubercul":12019,"education":12020,"rographic":12021,"tresses":12022,"compliment":12023,"cloths":12024,"culture":12025,"happen":12026,"susp":12027,"lieuten":12028,"doctr":12029,"onymous":12030,"closure":12031,"technical":12032,"qualified":12033,"ocarbon":12034,"hanging":12035,"tubercular":12036,"iloquy":12037,"breadth":12038,"harmonic":12039,"consist":12040,"pepton":12041,"otomist":12042,"rescence":12043,"victor":12044,"consuming":12045,"oproct":12046,"wounded":12047,"Darwin":12048,"alphab":12049,"Platy":12050,"Rhin":12051,"raxis":12052,"allegor":12053,"university":12054,"dulc":12055,"marshal":12056,"explos":12057,"Bolshev":12058,"otypical":12059,"arithm":12060,"employment":12061,"obedient":12062,"reciproc":12063,"lunged":12064,"sophistic":12065,"tranquill":12066,"propriet":12067,"ochromatic":12068,"phrase":12069,"orhynch":12070,"chestnut":12071,"beetle":12072,"giddy":12073,"governor":12074,"shafted":12075,"sponge":12076,"republican":12077,"traffic":12078,"August":12079,"teetot":12080,"fleshed":12081,"Spring":12082,"Ichthy":12083,"Aes":12084,"Asp":12085,"Ary":12086,"Amy":12087,"Amal":12088,"Bud":12089,"Boh":12090,"Bert":12091,"Barth":12092,"Cu":12093,"Cos":12094,"Cec":12095,"Clay":12096,"Eg":12097,"Euc":12098,"FM":12099,"Fro":12100,"Fle":12101,"Gas":12102,"Hir":12103,"Heg":12104,"Hans":12105,"Jos":12106,"Kent":12107,"Kend":12108,"Kenn":12109,"Lit":12110,"Loc":12111,"Lob":12112,"Litt":12113,"Mant":12114,"Mir":12115,"Mann":12116,"Mik":12117,"Mars":12118,"Maj":12119,"Nick":12120,"OP":12121,"PP":12122,"Pass":12123,"Pick":12124,"Parth":12125,"RN":12126,"Ron":12127,"Rem":12128,"Rhe":12129,"Rox":12130,"Reb":12131,"SC":12132,"Sir":12133,"Siphon":12134,"Tac":12135,"Tory":12136,"VO":12137,"Vas":12138,"Vill":12139,"Way":12140,"aig":12141,"bros":12142,"bale":12143,"buk":12144,"bunch":12145,"baker":12146,"baked":12147,"cio":12148,"cote":12149,"casc":12150,"dive":12151,"dru":12152,"ditt":12153,"dotted":12154,"dinner":12155,"eun":12156,"euth":12157,"fers":12158,"fain":12159,"felic":12160,"frill":12161,"frut":12162,"focal":12163,"freck":12164,"gou":12165,"geless":12166,"greek":12167,"hig":12168,"hak":12169,"hating":12170,"jus":12171,"jang":12172,"jets":12173,"jelly":12174,"ku":12175,"kay":12176,"kang":12177,"kath":12178,"kov":12179,"loll":12180,"maw":12181,"mastic":12182,"ners":12183,"nak":12184,"nunc":12185,"nettle":12186,"pous":12187,"prig":12188,"paved":12189,"puzzle":12190,"rary":12191,"ringly":12192,"rently":12193,"rantly":12194,"sly":12195,"sant":12196,"site":12197,"selling":12198,"sovereign":12199,"tally":12200,"tape":12201,"uates":12202,"uosity":12203,"vist":12204,"vier":12205,"veter":12206,"vile":12207,"wim":12208,"witt":12209,"wander":12210,"yum":12211,"yte":12212,"zas":12213,"erotic":12214,"into":12215,"onin":12216,"onization":12217,"esite":12218,"escri":12219,"anical":12220,"anker":12221,"atas":12222,"atous":12223,"atio":12224,"envel":12225,"alto":12226,"alchem":12227,"isal":12228,"isor":12229,"isser":12230,"isection":12231,"icted":12232,"armac":12233,"orable":12234,"oridae":12235,"ordered":12236,"oradi":12237,"unes":12238,"unid":12239,"unem":12240,"unall":12241,"unend":12242,"unint":12243,"unty":12244,"unmut":12245,"uninv":12246,"itum":12247,"itableness":12248,"elid":12249,"elist":12250,"else":12251,"elimin":12252,"roon":12253,"romatic":12254,"rea":12255,"recomp":12256,"remiss":12257,"rebell":12258,"stroph":12259,"stear":12260,"leas":12261,"lever":12262,"leap":12263,"lepro":12264,"lease":12265,"leech":12266,"chs":12267,"chaw":12268,"usan":12269,"ilable":12270,"ilaginous":12271,"olled":12272,"pheric":12273,"essay":12274,"essive":12275,"omination":12276,"acles":12277,"uler":12278,"ulian":12279,"thia":12280,"ascertain":12281,"urers":12282,"urated":12283,"abness":12284,"absur":12285,"abbrevi":12286,"emal":12287,"emeter":12288,"osulph":12289,"adel":12290,"adas":12291,"adine":12292,"adhes":12293,"ogical":12294,"ogged":12295,"umental":12296,"iston":12297,"riers":12298,"terers":12299,"territorial":12300,"imen":12301,"imman":12302,"ocul":12303,"octo":12304,"oclast":12305,"oding":12306,"odox":12307,"pertin":12308,"perturb":12309,"igin":12310,"vernal":12311,"verruc":12312,"nonir":12313,"nonjur":12314,"apl":12315,"apic":12316,"antec":12317,"quette":12318,"such":12319,"suited":12320,"shiv":12321,"shah":12322,"shrim":12323,"shaded":12324,"loa":12325,"loved":12326,"icals":12327,"ifl":12328,"ifid":12329,"consec":12330,"congrat":12331,"confound":12332,"esta":12333,"esty":12334,"coarse":12335,"ellary":12336,"andria":12337,"andrian":12338,"spore":12339,"spira":12340,"prow":12341,"prolong":12342,"propit":12343,"exhal":12344,"epy":12345,"epoch":12346,"ianly":12347,"astroph":12348,"inean":12349,"inebri":12350,"overpl":12351,"ibus":12352,"seph":12353,"seas":12354,"ucent":12355,"heb":12356,"heen":12357,"heated":12358,"obium":12359,"obsequ":12360,"obtus":12361,"obranchiata":12362,"alless":12363,"trud":12364,"trink":12365,"ardia":12366,"scol":12367,"prising":12368,"ectal":12369,"ectasis":12370,"aville":12371,"mancip":12372,"ffe":12373,"yla":12374,"yles":12375,"clang":12376,"clude":12377,"cluded":12378,"ophistic":12379,"ugly":12380,"ugos":12381,"compt":12382,"indetermin":12383,"angul":12384,"boul":12385,"boff":12386,"bough":12387,"boule":12388,"suburban":12389,"subsist":12390,"discre":12391,"dissip":12392,"bees":12393,"fled":12394,"flock":12395,"flutter":12396,"atholic":12397,"outsh":12398,"park":12399,"parathy":12400,"ubin":12401,"trash":12402,"trachy":12403,"trachel":12404,"assin":12405,"assem":12406,"assail":12407,"assumpt":12408,"monop":12409,"interpol":12410,"toise":12411,"iered":12412,"misch":12413,"achis":12414,"achus":12415,"gees":12416,"geom":12417,"rancy":12418,"corded":12419,"matize":12420,"matron":12421,"rediv":12422,"redef":12423,"artist":12424,"ropy":12425,"metrically":12426,"sovi":12427,"iths":12428,"caric":12429,"eva":12430,"pollen":12431,"pollut":12432,"polem":12433,"peer":12434,"slit":12435,"haft":12436,"romed":12437,"therium":12438,"ratively":12439,"ovis":12440,"oving":12441,"types":12442,"hery":12443,"leting":12444,"lettered":12445,"brum":12446,"rett":12447,"return":12448,"mew":12449,"oxic":12450,"sketch":12451,"azed":12452,"marking":12453,"thea":12454,"ouk":12455,"ichlor":12456,"orner":12457,"plect":12458,"unson":12459,"Chim":12460,"medi":12461,"mediat":12462,"igner":12463,"ongo":12464,"doch":12465,"anthes":12466,"inck":12467,"incip":12468,"incident":12469,"hydrated":12470,"grud":12471,"iking":12472,"ikins":12473,"snak":12474,"snail":12475,"genesis":12476,"ochord":12477,"pyroph":12478,"pyrid":12479,"recru":12480,"swar":12481,"swiv":12482,"swamp":12483,"centro":12484,"goal":12485,"ixing":12486,"demur":12487,"demean":12488,"knuckle":12489,"amba":12490,"ambass":12491,"cataly":12492,"gedly":12493,"presc":12494,"fisher":12495,"issance":12496,"regal":12497,"regiment":12498,"smile":12499,"capular":12500,"sched":12501,"schism":12502,"dened":12503,"synton":12504,"valv":12505,"balne":12506,"balance":12507,"balloon":12508,"formid":12509,"venturous":12510,"electrod":12511,"crash":12512,"refresh":12513,"warn":12514,"deput":12515,"humble":12516,"psamm":12517,"multin":12518,"aurian":12519,"versed":12520,"phyte":12521,"macer":12522,"nook":12523,"oscopist":12524,"oscopies":12525,"extir":12526,"defect":12527,"pots":12528,"ebulli":12529,"emboss":12530,"crew":12531,"hydrochlor":12532,"spired":12533,"nause":12534,"trod":12535,"shapen":12536,"farmer":12537,"zza":12538,"excus":12539,"omorphy":12540,"omorphae":12541,"operation":12542,"opericard":12543,"persist":12544,"basic":12545,"basalt":12546,"torped":12547,"waver":12548,"kinetic":12549,"supp":12550,"amphip":12551,"simplic":12552,"drib":12553,"driver":12554,"driving":12555,"milli":12556,"million":12557,"dedic":12558,"deduct":12559,"mits":12560,"rusted":12561,"diplo":12562,"acetate":12563,"Inter":12564,"organized":12565,"vanad":12566,"bills":12567,"boding":12568,"bodies":12569,"judge":12570,"judged":12571,"rimmed":12572,"gnat":12573,"rocket":12574,"virt":12575,"escing":12576,"orrhe":12577,"shooting":12578,"folks":12579,"production":12580,"finish":12581,"financ":12582,"bloody":12583,"piled":12584,"pilot":12585,"arterial":12586,"plays":12587,"jacks":12588,"inerved":12589,"freeze":12590,"liturg":12591,"voice":12592,"places":12593,"eroot":12594,"vault":12595,"pointing":12596,"freak":12597,"cellul":12598,"trypan":12599,"rologically":12600,"awning":12601,"dicty":12602,"choled":12603,"gressive":12604,"approxim":12605,"ilingual":12606,"oceras":12607,"hairy":12608,"alties":12609,"rainbow":12610,"glutton":12611,"connected":12612,"hepta":12613,"costal":12614,"scriptural":12615,"goddess":12616,"fluoride":12617,"holders":12618,"dilig":12619,"semipro":12620,"gangli":12621,"sexual":12622,"tumult":12623,"rhyme":12624,"albumen":12625,"seeds":12626,"oshes":12627,"personal":12628,"Rosen":12629,"growth":12630,"fairy":12631,"nominal":12632,"puppy":12633,"tropical":12634,"ocentesis":12635,"gigant":12636,"hagi":12637,"jacent":12638,"measuring":12639,"pectin":12640,"carniv":12641,"dressing":12642,"ocarb":12643,"prefect":12644,"steady":12645,"melanchol":12646,"pallad":12647,"appeal":12648,"rheumat":12649,"frozen":12650,"phyllous":12651,"ruling":12652,"maxill":12653,"electricity":12654,"felon":12655,"rapture":12656,"spreading":12657,"timbered":12658,"Rhiz":12659,"igraphy":12660,"throwing":12661,"ahedral":12662,"satisfied":12663,"runner":12664,"linked":12665,"absorb":12666,"dendro":12667,"oracic":12668,"righted":12669,"fantas":12670,"wreathed":12671,"aniline":12672,"ectomized":12673,"agnetism":12674,"expansion":12675,"duoden":12676,"fiend":12677,"sneak":12678,"embroidered":12679,"Crypto":12680,"narcot":12681,"alveolar":12682,"Caes":12683,"cousin":12684,"enchyma":12685,"memorial":12686,"evolutionary":12687,"authentic":12688,"Gymn":12689,"pylor":12690,"otherapeutics":12691,"matrimon":12692,"encycloped":12693,"intestinal":12694,"Hispan":12695,"municip":12696,"okinesis":12697,"phoenic":12698,"scintill":12699,"sphygm":12700,"efferves":12701,"miniatur":12702,"proselyt":12703,"ocrystalline":12704,"asphyx":12705,"sacerdot":12706,"AI":12707,"AU":12708,"Alo":12709,"Agu":12710,"Abra":12711,"Acro":12712,"Bag":12713,"Bill":12714,"Ball":12715,"Bull":12716,"Bened":12717,"Cra":12718,"Cran":12719,"Cyr":12720,"Doc":12721,"Dob":12722,"Eud":12723,"Fl":12724,"Fri":12725,"GM":12726,"Gel":12727,"Gol":12728,"Gom":12729,"Gam":12730,"Gav":12731,"Gust":12732,"Glad":12733,"Greek":12734,"Hend":12735,"Kab":12736,"Kaz":12737,"Kirk":12738,"LM":12739,"Lie":12740,"Lys":12741,"Mi":12742,"Mish":12743,"Mech":12744,"Middle":12745,"OT":12746,"Ost":12747,"Oliv":12748,"Pall":12749,"Pros":12750,"Row":12751,"Rav":12752,"Rey":12753,"Ross":12754,"Sur":12755,"Sec":12756,"Sass":12757,"Scy":12758,"Sto":12759,"Sans":12760,"Sou":12761,"Spi":12762,"Swed":12763,"Scler":12764,"Tag":12765,"Tele":12766,"Ves":12767,"Vis":12768,"Vic":12769,"Vel":12770,"Wah":12771,"__":12772,"aemon":12773,"bous":12774,"bann":12775,"bitt":12776,"bitch":12777,"cep":12778,"cable":12779,"cose":12780,"cree":12781,"cule":12782,"cnid":12783,"caffe":12784,"dang":12785,"done":12786,"dump":12787,"dasy":12788,"frol":12789,"fenn":12790,"frown":12791,"frang":12792,"fiction":12793,"fighter":12794,"gat":12795,"gros":12796,"gily":12797,"gaff":12798,"geld":12799,"gaster":12800,"given":12801,"huck":12802,"haven":12803,"iences":12804,"iya":12805,"jit":12806,"jow":12807,"jah":12808,"jaz":12809,"jong":12810,"japan":12811,"kos":12812,"kim":12813,"kap":12814,"liss":12815,"lase":12816,"litt":12817,"mae":12818,"muss":12819,"muse":12820,"mote":12821,"morning":12822,"melior":12823,"nae":12824,"nox":12825,"next":12826,"oor":12827,"oag":12828,"pund":12829,"pak":12830,"pind":12831,"piness":12832,"pinc":12833,"puck":12834,"pogon":12835,"puzz":12836,"paddle":12837,"rers":12838,"suns":12839,"sley":12840,"sunk":12841,"siph":12842,"tand":12843,"till":12844,"toph":12845,"tik":12846,"tweed":12847,"tame":12848,"tune":12849,"troll":12850,"task":12851,"uist":12852,"uke":12853,"ube":12854,"uplic":12855,"vand":12856,"vies":12857,"vina":12858,"wadd":12859,"wasp":12860,"wrack":12861,"yok":12862,"zu":12863,"zin":12864,"zor":12865,"zib":12866,"zite":12867,"ziest":12868,"eras":12869,"erem":12870,"inver":12871,"ineness":12872,"inhal":12873,"inizing":12874,"inhum":12875,"inette":12876,"injur":12877,"inhabit":12878,"onis":12879,"onid":12880,"onde":12881,"onidae":12882,"onomic":12883,"oncus":12884,"eson":12885,"esic":12886,"anid":12887,"anate":12888,"ancon":12889,"ativ":12890,"atrice":12891,"atrophia":12892,"enism":12893,"alms":12894,"icid":12895,"arly":12896,"arous":12897,"armon":12898,"aromat":12899,"orum":12900,"orine":12901,"orne":12902,"orific":12903,"uning":12904,"ungl":12905,"unbra":12906,"unexp":12907,"unjust":12908,"unpart":12909,"itre":12910,"iteness":12911,"itize":12912,"itta":12913,"itations":12914,"itute":12915,"elen":12916,"elation":12917,"elate":12918,"roscope":12919,"reh":12920,"reun":12921,"reel":12922,"rehab":12923,"recover":12924,"requis":12925,"recollect":12926,"recommend":12927,"stult":12928,"stanch":12929,"chum":12930,"chok":12931,"chias":12932,"chatter":12933,"chival":12934,"chinned":12935,"usions":12936,"rains":12937,"olation":12938,"oller":12939,"phi":12940,"phoc":12941,"phoid":12942,"omest":12943,"omial":12944,"omize":12945,"omerous":12946,"omuscular":12947,"idio":12948,"idaceae":12949,"acri":12950,"acism":12951,"thetically":12952,"thief":12953,"asin":12954,"ascar":12955,"ascope":12956,"abort":12957,"emiss":12958,"emias":12959,"osi":12960,"amia":12961,"amped":12962,"amines":12963,"otch":12964,"otoc":12965,"otate":12966,"otric":12967,"adj":12968,"adol":12969,"aders":12970,"adial":12971,"utop":12972,"utive":12973,"utric":12974,"utions":12975,"uttered":12976,"ogic":12977,"ogone":12978,"rime":12979,"riving":12980,"rized":12981,"opac":12982,"ivating":12983,"aginal":12984,"izabeth":12985,"odist":12986,"odies":12987,"peril":12988,"perplex":12989,"igator":12990,"nonsup":12991,"apat":12992,"apot":12993,"antile":12994,"quindec":12995,"iral":12996,"iris":12997,"shab":12998,"shred":12999,"shots":13000,"shaken":13001,"lout":13002,"loop":13003,"lobe":13004,"loads":13005,"loading":13006,"ifug":13007,"ifuge":13008,"ifiability":13009,"ipa":13010,"constr":13011,"coo":13012,"coqu":13013,"covet":13014,"ellid":13015,"elliform":13016,"spent":13017,"spill":13018,"spind":13019,"provis":13020,"probos":13021,"exeg":13022,"extingu":13023,"epine":13024,"epib":13025,"asthen":13026,"preconf":13027,"preponder":13028,"udin":13029,"ibo":13030,"iberal":13031,"plated":13032,"plaint":13033,"illions":13034,"seaf":13035,"oben":13036,"obtain":13037,"obliqu":13038,"trunc":13039,"ardi":13040,"ardy":13041,"ardly":13042,"scree":13043,"score":13044,"scream":13045,"scald":13046,"defe":13047,"deject":13048,"dealing":13049,"degrad":13050,"dehydrogen":13051,"manly":13052,"forcement":13053,"akh":13054,"endent":13055,"endow":13056,"yler":13057,"ylind":13058,"ylamine":13059,"clitor":13060,"bla":13061,"blend":13062,"blier":13063,"bliest":13064,"blink":13065,"blike":13066,"ostent":13067,"ostosis":13068,"ostemon":13069,"ostyle":13070,"compart":13071,"complac":13072,"indel":13073,"anglic":13074,"boast":13075,"boiled":13076,"subordin":13077,"displeas":13078,"bewitch":13079,"flot":13080,"flop":13081,"outsw":13082,"ubs":13083,"trained":13084,"traumat":13085,"worry":13086,"tau":13087,"cyr":13088,"mongol":13089,"toast":13090,"syr":13091,"seless":13092,"wears":13093,"weaving":13094,"awl":13095,"aryten":13096,"mooth":13097,"moidal":13098,"rances":13099,"ricin":13100,"coroll":13101,"corrod":13102,"matern":13103,"hou":13104,"actively":13105,"redel":13106,"redep":13107,"reduction":13108,"ropism":13109,"whin":13110,"whist":13111,"collo":13112,"carbox":13113,"diather":13114,"pew":13115,"slat":13116,"ptive":13117,"ratus":13118,"barge":13119,"eyeb":13120,"ofrontal":13121,"bristle":13122,"oxime":13123,"skept":13124,"microt":13125,"germ":13126,"guy":13127,"guide":13128,"annul":13129,"mare":13130,"fervent":13131,"theater":13132,"theosoph":13133,"ichn":13134,"ichs":13135,"orned":13136,"feast":13137,"twink":13138,"served":13139,"please":13140,"aship":13141,"stren":13142,"autod":13143,"unsatis":13144,"olden":13145,"ilee":13146,"ungent":13147,"Anast":13148,"Ante":13149,"Angel":13150,"ogenes":13151,"igns":13152,"aterally":13153,"counten":13154,"afforest":13155,"calm":13156,"doodle":13157,"incrimin":13158,"ikh":13159,"posts":13160,"postpon":13161,"ainted":13162,"inners":13163,"rites":13164,"positive":13165,"bleach":13166,"swin":13167,"swash":13168,"stercor":13169,"centen":13170,"desic":13171,"hemian":13172,"rels":13173,"goof":13174,"pseudot":13175,"curt":13176,"renn":13177,"renov":13178,"venen":13179,"ethical":13180,"ethmoid":13181,"ennate":13182,"petrol":13183,"pettic":13184,"petiol":13185,"zoan":13186,"demip":13187,"soliloqu":13188,"catap":13189,"elebr":13190,"president":13191,"ometab":13192,"contem":13193,"fishing":13194,"rott":13195,"issing":13196,"arias":13197,"ariaceous":13198,"arietal":13199,"smitten":13200,"ulla":13201,"capon":13202,"captain":13203,"rhexis":13204,"cauc":13205,"eliqu":13206,"scholar":13207,"harp":13208,"syncop":13209,"syndic":13210,"balm":13211,"volum":13212,"volley":13213,"wardness":13214,"oley":13215,"Arg":13216,"pathy":13217,"ients":13218,"refriger":13219,"committ":13220,"predist":13221,"predetermin":13222,"prized":13223,"deplor":13224,"humored":13225,"humbug":13226,"domic":13227,"domestic":13228,"praec":13229,"oya":13230,"sheer":13231,"versive":13232,"cleist":13233,"clever":13234,"dying":13235,"extro":13236,"reader":13237,"crip":13238,"ebus":13239,"secund":13240,"embos":13241,"hammed":13242,"ygraph":13243,"limber":13244,"unking":13245,"unkind":13246,"lectomy":13247,"Margar":13248,"naught":13249,"vitre":13250,"winded":13251,"enteritis":13252,"Stock":13253,"blooming":13254,"hardy":13255,"expir":13256,"occi":13257,"logical":13258,"racted":13259,"rodont":13260,"tarn":13261,"wafer":13262,"radiation":13263,"effemin":13264,"unrever":13265,"filth":13266,"filament":13267,"lighting":13268,"adenoma":13269,"audate":13270,"sorb":13271,"belliger":13272,"ophyre":13273,"latin":13274,"rustic":13275,"sacrif":13276,"helmet":13277,"diploc":13278,"between":13279,"labyrinth":13280,"italian":13281,"courtes":13282,"passing":13283,"rapid":13284,"hexa":13285,"choke":13286,"esced":13287,"anthropic":13288,"bacill":13289,"detach":13290,"Thes":13291,"idiot":13292,"ophagist":13293,"follow":13294,"uddled":13295,"finch":13296,"omniv":13297,"putty":13298,"fields":13299,"pilgrim":13300,"player":13301,"ladies":13302,"ladder":13303,"profic":13304,"nuts":13305,"rabble":13306,"digital":13307,"empted":13308,"placement":13309,"lays":13310,"lawn":13311,"vulner":13312,"manned":13313,"cystic":13314,"ocratically":13315,"prett":13316,"cephalous":13317,"ucleate":13318,"Const":13319,"fleet":13320,"enthron":13321,"rixes":13322,"sphere":13323,"fried":13324,"olithiasis":13325,"scarce":13326,"Columb":13327,"falling":13328,"goody":13329,"business":13330,"sickness":13331,"leafed":13332,"somely":13333,"picked":13334,"septem":13335,"opathology":13336,"aja":13337,"abolism":13338,"iferously":13339,"hurt":13340,"fluorid":13341,"lottic":13342,"cathedral":13343,"blindness":13344,"ozooid":13345,"ophysiology":13346,"anatomic":13347,"uttering":13348,"judicial":13349,"bankrupt":13350,"mammal":13351,"zygomatic":13352,"strobil":13353,"convict":13354,"paying":13355,"martyr":13356,"guarded":13357,"claiming":13358,"ilitar":13359,"practical":13360,"constitutional":13361,"measured":13362,"stringed":13363,"mixed":13364,"study":13365,"ienne":13366,"careous":13367,"romance":13368,"calcane":13369,"possessed":13370,"froth":13371,"phagous":13372,"articulation":13373,"normally":13374,"vinegar":13375,"ethylene":13376,"electrical":13377,"cerebral":13378,"ruled":13379,"carpous":13380,"sodden":13381,"Syro":13382,"pirit":13383,"oparalysis":13384,"oprote":13385,"gymnos":13386,"horsep":13387,"exterior":13388,"association":13389,"expert":13390,"chromatic":13391,"existent":13392,"pictorial":13393,"vernacular":13394,"somnambul":13395,"stretch":13396,"orbicular":13397,"fenest":13398,"academic":13399,"russet":13400,"barreled":13401,"stalked":13402,"recipro":13403,"vassal":13404,"Japanese":13405,"scroful":13406,"ophobic":13407,"otaxy":13408,"sprung":13409,"volatil":13410,"enthusiast":13411,"polymorph":13412,"czar":13413,"pieces":13414,"okinetic":13415,"horizont":13416,"apophysis":13417,"slaughter":13418,"knowledge":13419,"Rhynch":13420,"letharg":13421,"meadow":13422,"endotheli":13423,"cosmopolitan":13424,"centrifug":13425,"kitchen":13426,"european":13427,"choledoch":13428,"AN":13429,"Ail":13430,"Amor":13431,"Bil":13432,"Bad":13433,"Bod":13434,"Bard":13435,"Bath":13436,"Bass":13437,"Benn":13438,"Beck":13439,"Cres":13440,"Cole":13441,"Cze":13442,"Clad":13443,"DR":13444,"Did":13445,"Dion":13446,"Dum":13447,"Dian":13448,"Dub":13449,"Denn":13450,"Dani":13451,"ET":13452,"Ech":13453,"Eli":13454,"FF":13455,"FL":13456,"Fed":13457,"Fir":13458,"GB":13459,"Gw":13460,"Gob":13461,"Gru":13462,"Hab":13463,"Hep":13464,"Hud":13465,"Holl":13466,"Iv":13467,"Jod":13468,"Kass":13469,"Kok":13470,"Khal":13471,"Liv":13472,"Lond":13473,"Mang":13474,"March":13475,"ND":13476,"Nan":13477,"Nam":13478,"Num":13479,"Ore":13480,"Oce":13481,"Pi":13482,"Pac":13483,"Pag":13484,"Pay":13485,"Pres":13486,"Park":13487,"Parn":13488,"RB":13489,"Ra":13490,"Rec":13491,"Rex":13492,"Rib":13493,"Roch":13494,"SM":13495,"Son":13496,"Sag":13497,"Sard":13498,"Say":13499,"Scar":13500,"Sche":13501,"Satur":13502,"Scho":13503,"TT":13504,"Tem":13505,"Tak":13506,"Tup":13507,"UC":13508,"Va":13509,"Vinc":13510,"Vern":13511,"Wes":13512,"Wis":13513,"Wak":13514,"Willi":13515,"Yo":13516,"ait":13517,"bage":13518,"bibl":13519,"cs":13520,"cron":13521,"coss":13522,"caster":13523,"came":13524,"dated":13525,"dick":13526,"dement":13527,"dele":13528,"doss":13529,"dura":13530,"duk":13531,"danger":13532,"dazz":13533,"eed":13534,"ebon":13535,"ejac":13536,"fess":13537,"fod":13538,"fate":13539,"fred":13540,"fizz":13541,"french":13542,"giv":13543,"gant":13544,"gies":13545,"gout":13546,"gub":13547,"gates":13548,"gush":13549,"holog":13550,"henic":13551,"hinder":13552,"iatively":13553,"jav":13554,"jok":13555,"jett":13556,"kul":13557,"kies":13558,"kale":13559,"kept":13560,"lus":13561,"laut":13562,"leless":13563,"mik":13564,"muk":13565,"muzz":13566,"nd":13567,"nun":13568,"nant":13569,"nau":13570,"nostic":13571,"ought":13572,"pne":13573,"pout":13574,"psel":13575,"pust":13576,"rising":13577,"sia":13578,"smar":13579,"sale":13580,"saur":13581,"sawn":13582,"sboro":13583,"sunny":13584,"tia":13585,"tund":13586,"tenn":13587,"tamp":13588,"tilt":13589,"uet":13590,"vant":13591,"vary":13592,"vou":13593,"vouch":13594,"wap":13595,"wich":13596,"wrec":13597,"waff":13598,"wield":13599,"wench":13600,"yet":13601,"yow":13602,"ycle":13603,"eria":13604,"errant":13605,"error":13606,"inx":13607,"inaceous":13608,"inert":13609,"onyl":13610,"onna":13611,"esman":13612,"anod":13613,"anathemat":13614,"atra":13615,"atary":13616,"atrophy":13617,"atrices":13618,"encom":13619,"enize":13620,"eningly":13621,"enburg":13622,"enched":13623,"alley":13624,"altar":13625,"icent":13626,"icule":13627,"oron":13628,"orah":13629,"orchi":13630,"unover":13631,"unta":13632,"unaw":13633,"unho":13634,"unmet":13635,"unins":13636,"unpe":13637,"unhal":13638,"unker":13639,"unaff":13640,"unhar":13641,"unchar":13642,"unters":13643,"unmod":13644,"unspec":13645,"unclass":13646,"unresist":13647,"unbrut":13648,"itur":13649,"itress":13650,"itatively":13651,"elman":13652,"elated":13653,"eliest":13654,"robe":13655,"roct":13656,"roach":13657,"repos":13658,"rehear":13659,"stuck":13660,"strag":13661,"stilt":13662,"lei":13663,"leur":13664,"league":13665,"choc":13666,"uspid":13667,"ilical":13668,"olan":13669,"olian":13670,"olla":13671,"etia":13672,"etism":13673,"essor":13674,"omim":13675,"omically":13676,"omachy":13677,"omaxillary":13678,"idical":13679,"ionidae":13680,"acat":13681,"acled":13682,"acule":13683,"ulac":13684,"ulmon":13685,"thie":13686,"thren":13687,"thrown":13688,"thouse":13689,"thrice":13690,"asch":13691,"ascal":13692,"urtic":13693,"uresis":13694,"aby":13695,"abad":13696,"abrid":13697,"abomin":13698,"emus":13699,"embark":13700,"emblaz":13701,"osomal":13702,"osilicate":13703,"amps":13704,"otor":13705,"adult":13706,"adjudic":13707,"adjut":13708,"oger":13709,"umbra":13710,"umbon":13711,"istor":13712,"istered":13713,"riate":13714,"ecy":13715,"eces":13716,"ecum":13717,"econd":13718,"opine":13719,"opium":13720,"opros":13721,"opening":13722,"opposit":13723,"ivered":13724,"impal":13725,"implement":13726,"agron":13727,"izement":13728,"oce":13729,"ocot":13730,"octor":13731,"pereg":13732,"percent":13733,"ignon":13734,"versal":13735,"noncur":13736,"noncred":13737,"appy":13738,"antith":13739,"antisc":13740,"irish":13741,"irrh":13742,"irrational":13743,"supre":13744,"shaking":13745,"shelled":13746,"shanked":13747,"lour":13748,"loaded":13749,"ifiably":13750,"ipel":13751,"ipos":13752,"conqu":13753,"consequ":13754,"consolid":13755,"coz":13756,"coher":13757,"coven":13758,"courage":13759,"ellin":13760,"ellor":13761,"ellos":13762,"andard":13763,"andibular":13764,"spond":13765,"spons":13766,"spruc":13767,"procre":13768,"proced":13769,"probri":13770,"promul":13771,"exempt":13772,"excommunic":13773,"ianite":13774,"isma":13775,"undiff":13776,"asta":13777,"astich":13778,"astring":13779,"asthenia":13780,"precent":13781,"preval":13782,"previs":13783,"ishably":13784,"hyet":13785,"hylo":13786,"hypor":13787,"overl":13788,"overst":13789,"overab":13790,"plus":13791,"plaster":13792,"plagu":13793,"illike":13794,"seign":13795,"ucan":13796,"aeum":13797,"obey":13798,"allis":13799,"ardon":13800,"scant":13801,"scrat":13802,"scept":13803,"scaff":13804,"scull":13805,"ialities":13806,"ialised":13807,"ialising":13808,"defl":13809,"devit":13810,"dealer":13811,"deodor":13812,"prong":13813,"ecting":13814,"avar":13815,"avid":13816,"manlike":13817,"foramin":13818,"fornic":13819,"akan":13820,"akia":13821,"ylite":13822,"cluding":13823,"opher":13824,"ophily":13825,"ugo":13826,"ugher":13827,"uggest":13828,"blam":13829,"blubber":13830,"bladder":13831,"comer":13832,"ryman":13833,"ryville":13834,"anging":13835,"angia":13836,"boar":13837,"boks":13838,"ologian":13839,"discom":13840,"disbur":13841,"disgu":13842,"disgust":13843,"disillusion":13844,"beho":13845,"begu":13846,"teur":13847,"upbra":13848,"ieh":13849,"flin":13850,"flab":13851,"flip":13852,"floss":13853,"aths":13854,"outfl":13855,"parish":13856,"paraly":13857,"paramet":13858,"ubt":13859,"ubic":13860,"ackle":13861,"assum":13862,"icket":13863,"cyber":13864,"atoriness":13865,"intercess":13866,"fulfill":13867,"mised":13868,"sels":13869,"achian":13870,"mentation":13871,"awan":13872,"rond":13873,"aryship":13874,"intri":13875,"mox":13876,"moved":13877,"mounted":13878,"resup":13879,"resident":13880,"cors":13881,"corne":13882,"hoid":13883,"gless":13884,"seman":13885,"semia":13886,"arty":13887,"superst":13888,"supervis":13889,"ega":13890,"eger":13891,"whig":13892,"whiff":13893,"carrier":13894,"carriage":13895,"ureted":13896,"eves":13897,"undert":13898,"wove":13899,"welled":13900,"directed":13901,"poul":13902,"poik":13903,"slab":13904,"slot":13905,"sland":13906,"isee":13907,"haut":13908,"romal":13909,"thern":13910,"thermot":13911,"miner":13912,"bara":13913,"barber":13914,"herm":13915,"hermaph":13916,"maint":13917,"merchand":13918,"retriev":13919,"mezz":13920,"gered":13921,"burglar":13922,"pedal":13923,"annin":13924,"linger":13925,"iedly":13926,"decas":13927,"asiatic":13928,"sery":13929,"heading":13930,"plei":13931,"axe":13932,"uncul":13933,"unciv":13934,"unclo":13935,"uncred":13936,"uncular":13937,"autoch":13938,"unsign":13939,"Chin":13940,"ilement":13941,"ungar":13942,"medioc":13943,"Andre":13944,"menstr":13945,"ogenies":13946,"igny":13947,"doom":13948,"incter":13949,"incand":13950,"rams":13951,"grid":13952,"pyel":13953,"ritch":13954,"ritical":13955,"ymal":13956,"sonant":13957,"sonite":13958,"centered":13959,"hemer":13960,"turg":13961,"turtle":13962,"cheese":13963,"attor":13964,"attack":13965,"attempt":13966,"curly":13967,"untim":13968,"ughs":13969,"broth":13970,"brev":13971,"breach":13972,"rophile":13973,"petaled":13974,"ixation":13975,"Alb":13976,"uctor":13977,"demagnet":13978,"polygon":13979,"polygam":13980,"knotted":13981,"eleaf":13982,"prespec":13983,"ifyingly":13984,"contum":13985,"contempt":13986,"culmin":13987,"canvas":13988,"butcher":13989,"anky":13990,"ariant":13991,"smel":13992,"capill":13993,"capric":13994,"ailer":13995,"rhet":13996,"steward":13997,"denot":13998,"dense":13999,"leship":14000,"repent":14001,"infest":14002,"synthes":14003,"valer":14004,"valor":14005,"volunt":14006,"byr":14007,"transmig":14008,"unfur":14009,"launch":14010,"lasting":14011,"formity":14012,"patent":14013,"patched":14014,"unna":14015,"photop":14016,"photod":14017,"squel":14018,"squire":14019,"purpur":14020,"warmed":14021,"warming":14022,"erns":14023,"mesos":14024,"mels":14025,"rump":14026,"uchi":14027,"addling":14028,"pray":14029,"wayed":14030,"yllous":14031,"portent":14032,"shead":14033,"penic":14034,"surv":14035,"survey":14036,"cleans":14037,"equis":14038,"bitumin":14039,"grease":14040,"clover":14041,"eks":14042,"potential":14043,"phony":14044,"sidered":14045,"splinter":14046,"groom":14047,"rison":14048,"distract":14049,"winds":14050,"windy":14051,"faring":14052,"divor":14053,"philop":14054,"operative":14055,"telev":14056,"baller":14057,"cosmet":14058,"precip":14059,"dogmat":14060,"dogger":14061,"target":14062,"symbi":14063,"waiting":14064,"olymer":14065,"efflu":14066,"templ":14067,"hetero":14068,"bander":14069,"batter":14070,"motion":14071,"impec":14072,"auditor":14073,"ozy":14074,"chlorophyll":14075,"acetone":14076,"Indon":14077,"quadris":14078,"urnal":14079,"ophoria":14080,"locomot":14081,"wheeler":14082,"judgment":14083,"justic":14084,"hexap":14085,"otropous":14086,"provoc":14087,"iodo":14088,"faun":14089,"gastrop":14090,"folly":14091,"mistrust":14092,"odea":14093,"billy":14094,"crink":14095,"crunch":14096,"odermal":14097,"fibered":14098,"iments":14099,"mask":14100,"enchant":14101,"rabbin":14102,"glyph":14103,"glypt":14104,"glycos":14105,"megas":14106,"horns":14107,"Hymen":14108,"dimer":14109,"avern":14110,"digress":14111,"uscult":14112,"ynamic":14113,"lava":14114,"lawyer":14115,"wither":14116,"rounded":14117,"toxin":14118,"mastig":14119,"fastness":14120,"cases":14121,"jealous":14122,"sticks":14123,"sufficient":14124,"stocking":14125,"antipar":14126,"actylous":14127,"ospec":14128,"ospong":14129,"grammat":14130,"uterine":14131,"botry":14132,"hypothes":14133,"irostral":14134,"tabular":14135,"bucket":14136,"smanship":14137,"obiosis":14138,"ocervical":14139,"bronchi":14140,"grief":14141,"northeast":14142,"sawed":14143,"apsular":14144,"glutin":14145,"trichin":14146,"scriptive":14147,"hurry":14148,"acoustic":14149,"pledge":14150,"famil":14151,"enza":14152,"enzym":14153,"ACS":14154,"ogonium":14155,"unlust":14156,"prerec":14157,"ozoon":14158,"ozoan":14159,"ophysical":14160,"pleasing":14161,"ruption":14162,"favored":14163,"ethere":14164,"tressed":14165,"neuros":14166,"neurot":14167,"bidden":14168,"iparity":14169,"thisis":14170,"Macro":14171,"pacific":14172,"wanton":14173,"rophyte":14174,"lobby":14175,"parasitic":14176,"scoff":14177,"hierarch":14178,"uphe":14179,"junctive":14180,"garde":14181,"tutor":14182,"iloquent":14183,"romancy":14184,"killer":14185,"bumble":14186,"valuing":14187,"valuation":14188,"gastroenter":14189,"apostroph":14190,"mobil":14191,"otomous":14192,"hazel":14193,"patriot":14194,"Norman":14195,"maintain":14196,"scapular":14197,"hatted":14198,"fixed":14199,"inferior":14200,"sectional":14201,"threaded":14202,"structur":14203,"pendicular":14204,"austral":14205,"epistol":14206,"plague":14207,"rhinocer":14208,"niggard":14209,"erythrin":14210,"mystic":14211,"hounds":14212,"Sabbat":14213,"coloured":14214,"original":14215,"odiagnosis":14216,"attach":14217,"oglobul":14218,"waggon":14219,"rontgen":14220,"spaced":14221,"plasmod":14222,"Silver":14223,"blessed":14224,"ochromic":14225,"compassion":14226,"Italo":14227,"tourist":14228,"productive":14229,"otheism":14230,"wrapped":14231,"instruction":14232,"speckle":14233,"Pleuro":14234,"quartz":14235,"cauter":14236,"sightedness":14237,"vaccin":14238,"scientific":14239,"bachelor":14240,"glazed":14241,"canonical":14242,"conventional":14243,"othecal":14244,"strumental":14245,"tranquil":14246,"Tetra":14247,"principled":14248,"scissor":14249,"Dicty":14250,"emascul":14251,"frequency":14252,"marginal":14253,"Actin":14254,"gossip":14255,"epilog":14256,"lamyde":14257,"zigz":14258,"fecund":14259,"burdened":14260,"laurel":14261,"accustom":14262,"consonant":14263,"weasel":14264,"nabob":14265,"osclerosis":14266,"shepherd":14267,"trencher":14268,"hendec":14269,"parchment":14270,"southern":14271,"Pythag":14272,"peculiar":14273,"ocarcinoma":14274,"sullen":14275,"illegitim":14276,"ocyclic":14277,"European":14278,"bureaucrat":14279,"AG":14280,"AL":14281,"Are":14282,"Amo":14283,"Aber":14284,"Bi":14285,"Bess":14286,"Bom":14287,"Bran":14288,"Bush":14289,"Batt":14290,"Bru":14291,"Belle":14292,"Cic":14293,"Cum":14294,"Cest":14295,"Cuc":14296,"Cost":14297,"Cann":14298,"Dag":14299,"Day":14300,"Dou":14301,"Ec":14302,"Eup":14303,"Eust":14304,"Fu":14305,"Four":14306,"GI":14307,"GO":14308,"GP":14309,"Grat":14310,"Gorg":14311,"Hut":14312,"Hec":14313,"Hex":14314,"Hier":14315,"Homer":14316,"IM":14317,"Ib":14318,"Ix":14319,"Iz":14320,"Ith":14321,"Ish":14322,"Iber":14323,"Jav":14324,"Kit":14325,"Koh":14326,"Lil":14327,"Lig":14328,"Lov":14329,"Laz":14330,"Linn":14331,"MU":14332,"Mom":14333,"Mut":14334,"Mull":14335,"Nin":14336,"Nip":14337,"Nev":14338,"Nich":14339,"Nash":14340,"Nicol":14341,"Om":14342,"Pre":14343,"Pach":14344,"Plan":14345,"Res":14346,"Rick":14347,"Ruth":14348,"Roz":14349,"Raj":14350,"Sant":14351,"Scol":14352,"Spe":14353,"Saf":14354,"Sym":14355,"Sphen":14356,"Script":14357,"Simon":14358,"TR":14359,"Tr":14360,"Tad":14361,"Top":14362,"Tir":14363,"Try":14364,"Tric":14365,"Tyn":14366,"Tenn":14367,"Tyr":14368,"UI":14369,"Valer":14370,"Wind":14371,"Wyn":14372,"Zer":14373,"Zan":14374,"Zar":14375,"aemic":14376,"aesth":14377,"auscult":14378,"bost":14379,"boll":14380,"cue":14381,"caff":14382,"ciform":14383,"dut":14384,"dud":14385,"dill":14386,"drow":14387,"dren":14388,"dunn":14389,"dizz":14390,"drear":14391,"eh":14392,"eart":14393,"easter":14394,"fatt":14395,"gism":14396,"gins":14397,"guns":14398,"gane":14399,"gings":14400,"gemin":14401,"hec":14402,"hover":14403,"hans":14404,"irous":14405,"jem":14406,"jos":14407,"jest":14408,"jured":14409,"jazz":14410,"kiness":14411,"khed":14412,"lal":14413,"lind":14414,"lah":14415,"lare":14416,"luk":14417,"mm":14418,"mated":14419,"mure":14420,"mage":14421,"member":14422,"mugg":14423,"niv":14424,"nex":14425,"nian":14426,"nast":14427,"naz":14428,"nou":14429,"nomen":14430,"oism":14431,"pace":14432,"pence":14433,"punn":14434,"pastic":14435,"rens":14436,"rily":14437,"ricalness":14438,"sest":14439,"send":14440,"sacc":14441,"suscept":14442,"tous":14443,"tite":14444,"tost":14445,"tinn":14446,"tasting":14447,"urot":14448,"von":14449,"vian":14450,"vial":14451,"vens":14452,"vious":14453,"vort":14454,"vised":14455,"vomit":14456,"wat":14457,"wite":14458,"wau":14459,"wrig":14460,"willed":14461,"yx":14462,"yas":14463,"zim":14464,"erts":14465,"inel":14466,"inium":14467,"inally":14468,"inhab":14469,"onion":14470,"onous":14471,"onav":14472,"onucle":14473,"esqu":14474,"anan":14475,"anine":14476,"atizing":14477,"enin":14478,"enist":14479,"encer":14480,"enix":14481,"enberg":14482,"enigmat":14483,"alar":14484,"alus":14485,"alion":14486,"along":14487,"alistically":14488,"eded":14489,"isive":14490,"isson":14491,"isance":14492,"isochron":14493,"icom":14494,"icness":14495,"icine":14496,"icting":14497,"aros":14498,"orl":14499,"orid":14500,"orius":14501,"unus":14502,"unia":14503,"unpo":14504,"unoff":14505,"unhom":14506,"unrid":14507,"unrem":14508,"unlab":14509,"unhuman":14510,"unauthor":14511,"untrust":14512,"itite":14513,"itization":14514,"itates":14515,"elion":14516,"eley":14517,"elcosis":14518,"elucid":14519,"roo":14520,"rou":14521,"rodis":14522,"rogu":14523,"roomed":14524,"reted":14525,"repor":14526,"rebut":14527,"regress":14528,"reaching":14529,"recompens":14530,"staph":14531,"static":14532,"stucco":14533,"leer":14534,"leak":14535,"leagu":14536,"chiff":14537,"chuk":14538,"chanal":14539,"chrism":14540,"usse":14541,"ilator":14542,"ilio":14543,"ilateral":14544,"rame":14545,"rained":14546,"raught":14547,"olle":14548,"olaryng":14549,"phol":14550,"phlor":14551,"phoria":14552,"essing":14553,"iders":14554,"idyll":14555,"iont":14556,"acal":14557,"acup":14558,"acumin":14559,"ulan":14560,"thig":14561,"thong":14562,"thrum":14563,"asha":14564,"aska":14565,"uru":14566,"urge":14567,"abus":14568,"abric":14569,"abelle":14570,"abouts":14571,"enti":14572,"enton":14573,"entes":14574,"entary":14575,"emate":14576,"emend":14577,"osch":14578,"osine":14579,"osier":14580,"osmic":14581,"osym":14582,"oschisis":14583,"amat":14584,"oti":14585,"otis":14586,"otid":14587,"adin":14588,"adro":14589,"admiss":14590,"uteness":14591,"utional":14592,"ogra":14593,"ogging":14594,"umped":14595,"rike":14596,"ribon":14597,"rived":14598,"ecar":14599,"opur":14600,"opot":14601,"opidae":14602,"opore":14603,"opsid":14604,"ivo":14605,"imi":14606,"image":14607,"imping":14608,"imps":14609,"immor":14610,"imprec":14611,"imprison":14612,"agri":14613,"agne":14614,"agium":14615,"agru":14616,"agglomer":14617,"octon":14618,"ocene":14619,"odical":14620,"perib":14621,"peries":14622,"perce":14623,"permiss":14624,"perspic":14625,"nonun":14626,"nonent":14627,"nonfor":14628,"nontermin":14629,"nondetermin":14630,"apath":14631,"apoth":14632,"aplan":14633,"appointed":14634,"antation":14635,"quel":14636,"quip":14637,"quets":14638,"quench":14639,"iric":14640,"irate":14641,"irref":14642,"shill":14643,"shank":14644,"shatter":14645,"shamm":14646,"loup":14647,"loof":14648,"loaf":14649,"loves":14650,"lofty":14651,"ifiableness":14652,"ipl":14653,"conjur":14654,"congest":14655,"congru":14656,"estra":14657,"coats":14658,"cooked":14659,"couple":14660,"ellular":14661,"spare":14662,"spinning":14663,"prox":14664,"protr":14665,"progen":14666,"propos":14667,"procra":14668,"proved":14669,"exoc":14670,"expost":14671,"exhum":14672,"exclus":14673,"exhilar":14674,"epot":14675,"ianna":14676,"undil":14677,"undece":14678,"astra":14679,"astragal":14680,"ineer":14681,"preins":14682,"precomp":14683,"hyph":14684,"plos":14685,"plunder":14686,"pluvi":14687,"illos":14688,"sear":14689,"ucu":14690,"ucing":14691,"heard":14692,"hebet":14693,"obes":14694,"obat":14695,"trying":14696,"scru":14697,"owa":14698,"ialise":14699,"debil":14700,"ceal":14701,"ceeding":14702,"ayers":14703,"avo":14704,"avant":14705,"avia":14706,"ylated":14707,"ylli":14708,"clon":14709,"cliqu":14710,"ophleb":14711,"uger":14712,"blastic":14713,"commis":14714,"inds":14715,"indiffer":14716,"angio":14717,"bole":14718,"disquis":14719,"disquiet":14720,"discern":14721,"bek":14722,"tees":14723,"tebral":14724,"flut":14725,"flagg":14726,"athan":14727,"parro":14728,"parall":14729,"tavern":14730,"atoria":14731,"atorian":14732,"monost":14733,"monster":14734,"montic":14735,"interpre":14736,"intercal":14737,"interior":14738,"toot":14739,"tourn":14740,"ensory":14741,"misunderstand":14742,"awful":14743,"intemper":14744,"mound":14745,"moose":14746,"mouch":14747,"geus":14748,"geared":14749,"resyn":14750,"resusc":14751,"oneiro":14752,"cort":14753,"cores":14754,"corym":14755,"matril":14756,"glau":14757,"actyle":14758,"actyly":14759,"redempt":14760,"mets":14761,"ortable":14762,"soiled":14763,"insan":14764,"egon":14765,"whack":14766,"colt":14767,"carbo":14768,"evas":14769,"illegal":14770,"slander":14771,"sliding":14772,"dery":14773,"haught":14774,"thered":14775,"thermic":14776,"minisc":14777,"ratern":14778,"barrow":14779,"herbar":14780,"herald":14781,"maids":14782,"mercer":14783,"letta":14784,"british":14785,"retali":14786,"skate":14787,"skyl":14788,"skunk":14789,"micron":14790,"microphot":14791,"guill":14792,"guild":14793,"guided":14794,"arches":14795,"bram":14796,"brake":14797,"pedant":14798,"copro":14799,"marvel":14800,"marsup":14801,"margin":14802,"theologic":14803,"ourous":14804,"ornamental":14805,"feeling":14806,"feature":14807,"twine":14808,"decal":14809,"decont":14810,"declin":14811,"decentral":14812,"pleur":14813,"ledom":14814,"vehem":14815,"strug":14816,"strung":14817,"axing":14818,"uncre":14819,"uncap":14820,"unculus":14821,"unsin":14822,"unsed":14823,"unsanct":14824,"Chel":14825,"ungain":14826,"counting":14827,"calum":14828,"omyces":14829,"doz":14830,"dood":14831,"incred":14832,"hydron":14833,"hydrom":14834,"grist":14835,"snor":14836,"snout":14837,"snipe":14838,"ocher":14839,"oches":14840,"inni":14841,"innab":14842,"anean":14843,"pyth":14844,"swel":14845,"swag":14846,"ource":14847,"sternal":14848,"sonian":14849,"ednesses":14850,"malic":14851,"malap":14852,"porcel":14853,"desper":14854,"descens":14855,"desulphur":14856,"beds":14857,"bedlam":14858,"hemp":14859,"hemorrh":14860,"turbo":14861,"turban":14862,"turbid":14863,"ancement":14864,"vening":14865,"sallow":14866,"breathe":14867,"pals":14868,"palis":14869,"afflu":14870,"wooded":14871,"ennia":14872,"petros":14873,"demic":14874,"demig":14875,"demoral":14876,"panel":14877,"encia":14878,"fts":14879,"handle":14880,"solution":14881,"orphy":14882,"catching":14883,"linen":14884,"controlled":14885,"canvass":14886,"issant":14887,"ariat":14888,"smir":14889,"ualist":14890,"rhine":14891,"offer":14892,"rages":14893,"scher":14894,"denit":14895,"denud":14896,"rington":14897,"reput":14898,"repud":14899,"repugn":14900,"accru":14901,"infat":14902,"inflex":14903,"sulfo":14904,"valve":14905,"bals":14906,"balan":14907,"ordinated":14908,"transform":14909,"transgress":14910,"laund":14911,"Ark":14912,"Arm":14913,"Arn":14914,"formul":14915,"ventral":14916,"elected":14917,"ereal":14918,"predel":14919,"photomic":14920,"squal":14921,"squab":14922,"squad":14923,"purpose":14924,"ettos":14925,"ettled":14926,"timed":14927,"pressive":14928,"mesoth":14929,"multit":14930,"auri":14931,"praised":14932,"restrict":14933,"proofing":14934,"zealous":14935,"porting":14936,"housew":14937,"equi":14938,"facult":14939,"nought":14940,"oscopes":14941,"oscopical":14942,"extended":14943,"grew":14944,"iculi":14945,"chiro":14946,"chiropter":14947,"hormon":14948,"cumber":14949,"besp":14950,"aeron":14951,"ilius":14952,"phonetic":14953,"splay":14954,"splitting":14955,"ciner":14956,"cinch":14957,"jective":14958,"grocer":14959,"rises":14960,"distill":14961,"lectic":14962,"Shakespe":14963,"trough":14964,"windowed":14965,"aminate":14966,"ertown":14967,"larg":14968,"larcen":14969,"division":14970,"scriber":14971,"omorphosis":14972,"protection":14973,"furrow":14974,"persian":14975,"daemon":14976,"races":14977,"osphaer":14978,"odontic":14979,"ergat":14980,"roduct":14981,"pictur":14982,"Elk":14983,"Ell":14984,"filtr":14985,"supple":14986,"suppos":14987,"supplic":14988,"concession":14989,"boarding":14990,"baum":14991,"similar":14992,"singular":14993,"effort":14994,"sorry":14995,"lasis":14996,"oeuv":14997,"ematically":14998,"rubric":14999,"cockney":15000,"bows":15001,"bowdler":15002,"lamell":15003,"looker":15004,"devast":15005,"devoted":15006,"quadril":15007,"keyed":15008,"banker":15009,"treaty":15010,"tinker":15011,"identate":15012,"ophoran":15013,"omerism":15014,"passage":15015,"condyl":15016,"ioso":15017,"judg":15018,"opodan":15019,"opodia":15020,"aptist":15021,"circumspect":15022,"rasia":15023,"respir":15024,"detox":15025,"Thur":15026,"Thorn":15027,"ophaga":15028,"shooter":15029,"spectrophot":15030,"putter":15031,"emanship":15032,"ombs":15033,"physician":15034,"aments":15035,"crud":15036,"freezing":15037,"option":15038,"optical":15039,"succor":15040,"End":15041,"Eng":15042,"histor":15043,"histori":15044,"alypt":15045,"unmort":15046,"ogenicity":15047,"vaunt":15048,"diazo":15049,"diaphan":15050,"propelled":15051,"fastid":15052,"covering":15053,"aqua":15054,"cephaly":15055,"frontal":15056,"vaginal":15057,"gallant":15058,"sixth":15059,"cocain":15060,"grammatic":15061,"blower":15062,"sphac":15063,"knowing":15064,"uvian":15065,"pastoral":15066,"sarcos":15067,"auspic":15068,"citron":15069,"gesticul":15070,"sapph":15071,"unperson":15072,"traction":15073,"aspis":15074,"spinster":15075,"Malac":15076,"abolition":15077,"connex":15078,"keepers":15079,"stepped":15080,"ilicic":15081,"anesthet":15082,"nicot":15083,"folds":15084,"holds":15085,"necroph":15086,"uncompl":15087,"scopic":15088,"famed":15089,"ogonous":15090,"prerem":15091,"chalaz":15092,"ephemer":15093,"iantness":15094,"ophysics":15095,"educational":15096,"racks":15097,"osporic":15098,"cacod":15099,"anglement":15100,"Stein":15101,"ittering":15102,"oecious":15103,"rudder":15104,"ruddy":15105,"produced":15106,"wigged":15107,"doctrin":15108,"ogeographical":15109,"leucocy":15110,"odyne":15111,"dorso":15112,"kiln":15113,"wicked":15114,"diffract":15115,"difficult":15116,"epsia":15117,"realm":15118,"wilder":15119,"osterior":15120,"practiced":15121,"Polym":15122,"orships":15123,"advised":15124,"flavor":15125,"telephon":15126,"epiglott":15127,"objection":15128,"cooled":15129,"rheum":15130,"reprob":15131,"pistol":15132,"westward":15133,"itudinous":15134,"pinnate":15135,"conscient":15136,"positively":15137,"execution":15138,"pestil":15139,"patriarch":15140,"reverber":15141,"electron":15142,"electrically":15143,"resisting":15144,"weights":15145,"anterior":15146,"rogenic":15147,"cogniz":15148,"pherical":15149,"mechanical":15150,"benef":15151,"cicer":15152,"talking":15153,"promised":15154,"diplomat":15155,"involuc":15156,"osmotic":15157,"apparently":15158,"military":15159,"fellowship":15160,"nurse":15161,"thaum":15162,"indigo":15163,"accout":15164,"Gallic":15165,"appendic":15166,"Phys":15167,"stretched":15168,"sylvan":15169,"despond":15170,"anilide":15171,"inspired":15172,"breeze":15173,"stupid":15174,"epiece":15175,"endeav":15176,"glacial":15177,"lazy":15178,"coupled":15179,"believing":15180,"ogynous":15181,"supral":15182,"omycetous":15183,"crawl":15184,"stamped":15185,"neighbour":15186,"elliptic":15187,"hippoc":15188,"Freder":15189,"oxylon":15190,"appointment":15191,"treatment":15192,"lachrym":15193,"bismuth":15194,"camphor":15195,"jubil":15196,"Brahman":15197,"ordained":15198,"departmental":15199,"ostraca":15200,"ofibroma":15201,"scholastic":15202,"remonstr":15203,"Gabri":15204,"mighty":15205,"pencil":15206,"trunked":15207,"Russo":15208,"garnish":15209,"transcendental":15210,"clype":15211,"phantasmag":15212,"Oriental":15213,"racheal":15214,"keleton":15215,"chosen":15216,"indoctr":15217,"omycete":15218,"enzyme":15219,"pessim":15220,"gipsy":15221,"zircon":15222,"unsuspect":15223,"anecdot":15224,"absinth":15225,"blasphem":15226,"eunuch":15227,"soviet":15228,"hermaphrod":15229,"ribonucle":15230,"AO":15231,"Af":15232,"Adon":15233,"BW":15234,"Bot":15235,"Bang":15236,"Brom":15237,"Byr":15238,"Burg":15239,"Bala":15240,"Cet":15241,"Cart":15242,"Cym":15243,"Cler":15244,"DL":15245,"Dre":15246,"Dib":15247,"Dick":15248,"Dix":15249,"Dasy":15250,"EL":15251,"ER":15252,"Eb":15253,"Eul":15254,"Epic":15255,"FD":15256,
[...]
